node {
  name: "Const"
  op: "Const"
  attr {
    key: "dtype"
    value {
      type: DT_FLOAT
    }
  }
  attr {
    key: "value"
    value {
      tensor {
        dtype: DT_FLOAT
        tensor_shape {
          dim {
            size: 1
          }
          dim {
            size: 32
          }
          dim {
            size: 32
          }
          dim {
            size: 3
          }
        }
        float_val: 1.0
      }
    }
  }
}
node {
  name: "XXX"
  op: "Identity"
  input: "Const"
  attr {
    key: "T"
    value {
      type: DT_FLOAT
    }
  }
}
node {
  name: "conv1/Const"
  op: "Const"
  attr {
    key: "dtype"
    value {
      type: DT_FLOAT
    }
  }
  attr {
    key: "value"
    value {
      tensor {
        dtype: DT_FLOAT
        tensor_shape {
          dim {
            size: 5
          }
          dim {
            size: 5
          }
          dim {
            size: 3
          }
          dim {
            size: 40
          }
        }
        tensor_content: "\362\334\374\274\317\330\005\275\177\243J\275\315\334\033=\tK\014\275~h*=6\014\216<\310\242\361<\335\224`\275\020\020Q=\"Y\213<\300\037\024\273\220\237\201\274\022\314\230<\377\361C\274Z\320Q<\\\242\277=\274 \265\273\267{\r\274\253J\200=j5\364=?\315\355<\272\375\357;\335ZX=\377\311\371\274L\333\034\275\206\001\274\274<\253(\274\343\037E<\013\206\332\274\t\205\226\275\236g\255\274\226r\340< \357L<v\260\035\274D`\237<X\257E\273\251l\2568\375\257F:\311%\251\274\314\322\267\274\032\332F\275T4\303<fl\200<e\207\003=\220 \036<X5\362\270*\310\236<o\354&<\340\244`=\225\254\035<\355\231\207<\006C\266<c\317-\273`\360\230<\370\024\313\274D\003b<\352\331\332<<\206\314\273\257\357\211<;X\262=\227\350\254\274\177\222\017<\262\214\013<\352\377\351\272\370\235V\275\310!%<`\017/<\273\007\002\275\275\245(\274\023\222\247\275\321@\325\274\000\274\255<\t6!\274\336$@\274\025|\370;s\260\236<Kt\243<WD\032\274_\362\017\275\014\334\340\274e\277\036\275\377\274k=c\220\000=\361\207\024;P\201\311<1B\031\273N\270\240\275%\322\226=\n64=\374\2330;\270j\002<c\353P;\351\306!\274g\334\356<\321\257\217<\242w\230\274M\227\017;\311|!\274:M\010\275\213/\346=\007\3576<\t\225\226;2\361\036=\344\002\204\274\003\226?\275\326e\333\274\007\374\251<\246\365<<:\301\314\274C\254\257\274\034\370\224<\302\333\003=\251\206\036\274\254\373Z\274\016\007\260\274:\026\232\274XS\220<\270\256\261\274\037\205l\275\344\241Y\275\\\224\362<\207\201\202\275u\366-\275\247\301 \275s\2041=\035\000\272<B:\007=\312\330\230\274\025\227\002\275\r\341\267<\227\300+<\251d\005\274\030\204k<\000\322H\274\365\320\237<\017\330\002>A\254\227\274-\242P\274V\036[=j\353\200<\223\257\001=J5\337\273\345\361\021=%F\031\275\314\377*;$8\030\274\341\250\266\274SE\262;\014\262\'\275\335/|\275J\333\020\275\225\221\310\274\024\030\005<\257Dh\274\267\345\365<\222\207\304;\023\275,:\346\205X<\303K>\275\312\223R\275\266\337\016=\302\227\245<A\225\227\275\323\004)=\"\351\303;\321\277\306:\276\307)<m\247\211<y\270\220\274\r\002O<\264<\326<\325\016\t=}\004i\274\306)\225<\275\213\221\274D\265\331<\370\247\213</\273c\274w\037\220<\002F\271\2724\261\t\275iB\370\272B\r~\274\362\315\016\274W\257\031\274\307 \272<\2220\340;\325\351\'\275\2355u\274\2449\211\275\027\324\027\275\241\340\334\274q\006\264\274\353\037w\274p\376\253<\233#\347<;\177\301<\020F\000\273\273\342\204\275\345@b\275\202\0108<\2242\220=\202\252k\275L\004X<e\016\245<\212\261\0369\374\260\322\275\210\225h=X\340\037\275#(\275;\005\325\255<^B.<\214\003\266\274\\\311\000=g$\033=\216?\020\275<]\004\274\'\323\227\274\320kM\274\336?\336<$\355\362:\377y\302\273\360z\340<\211\246\347\274\"\3351\274\032\344\n\275\341\261\253<l \313;\257!\307\274\314\025\266\274\251p[<6/\213\274z\231\312\274\025\302\220\274[&\020\274\223\277\242\274\341I\263<|\334\214\274+v\261\275\240MN\2757\022\205=J\346>\275\2045^=\323\016\375\274H\323E=\341\324\264<\236[\334<jcm<>U\256\275r\030\275<?C\251<\375\227r\273!\267\317<\t\n#\274\261Q\313<\347p\007>\371%\206\274\r\035\r\274~\271\346\274\310=\275\275\320)\326<\234\261!\273\271\351\362<\236\037\374\274\361J\023=\251(\313\272\277\367\300\274\360\225\240;u\336\022\275\311Na\275,\021\007\275P\234\210<\216\271\034<S\"2\274\317R9=:-\024;\303\355\220;|s\206<\235\312|\2751r_\275f\267\234=\020\0201<$\263o=\340\'>=\336G\207<\215\262\212:Y\027\201:\276\004%\274\350\230{\275\355vZ<Nz\007=I\227\r=uJN\273\216\206\257<~l>\2748\2218<\375\233\201<\257\201D\274\200\274}\274\025\331\274\275\206\374)\275\021d\250:bk\311\274l<\275\273\002\022\356<h\257\317<(\304\344;\327\256 \275\2569\033\2745\253U\275\232y\030\275\220\004\200<\326x\255\274 \315O\274\323y\037=}\276\273<\027\006\313<\321\267\266:\031\323\243\275(\246a\275;\274#=\254\3101=\006\242:=\322\333\242<\021\271\324<?n\027:\237\236\315\275\255E\031\2756~\257\275\371x\374;\006\246\377<Y@7<\260\272K\274@\237\006=Z\016B=\263\207\206\275 z\316\273\324\033~\274\223\301\244;T\017\221\275yx^\273\301\320\200\273E7\320<\0225\345\274\244\346\337<\254\270\010\275\024\023\267<\317\031!<\017\207(\274\263\265\234\274\234\2269<Q\273\265<LP\322\274\351\312\177\274\204\242Z<\334\005\247\274\312\316\261<_$R\2746\n\317\275\375+\217\274\244\256\036\273\207w\233\274\372\3509\273\032\222\345\274\347\240\037=\2441s<\270\230l<;\177\n=\301CG<>\013\220<7\263\334<\nI\243\273&\216\n=\rF\020\274\241\rO<\317X\007>\341\327a\274-\366\244\273\213u\203\275\025\"}\274\264\010\261<\244!\232\274\371=\312<\223\326\350\274\324\262\210=I\362\362\270\326\371\212\274\333k\320:\202+\312\274\301\3248\275\324y\353\274\214\202~=\236\031-<7\243\311\273go\004=\032\343\344\273H\231\256\27120S<\314\323\036\275\240\310\307\274+\306\264\273\017\240|9\234\317=<@\321\021=m\207\217<~\023\231\273\345p\266\272]WG\274\350!\307<\222V\365;\362\032\374<}?\342<\030@K<-\252\226<\240.\243\274\332\310\004;\217\010~<\210T\221\273vW\256\274\001\352\232\273u\240\005\275\364\263J\274\277b\252\274\024\3174\273;\274\206=\216\340\303<\300\371\361;\311#\014\275\325\212\360\273E\230\341\274\204G$\275MMa=$)J\274\244\305\013\274\"\302\360<\264V+<\322*\212<\225\236\0348~\321^\275\206Q\303\274\234\330\215\274\'RO<0$\275\272\216\351-;s\013\017=\315\035\246\273\233\353\227\275\376!\202\275\214wR<\004\352\002;,\265\013=\357\247\214;\213\020\304;\265\242\003=k\340\010=\254s\242\275dm\362:C\376 \273:q\002=\177\233\264\273\224:\026<\\\236\204\2741~\342<t\372\252\274\n\277O=\316?\361\274\232e\300<Jt=<\267\252\213\273\232\275,:\211\\\027:0\205\200=\312\254=\274c\'\024\274\233cO<\233\300\362\274\330\266S<\301\3734\274\2566\240\275\270j{<\2520\241\273\245\220\214<\210\271&\274\013\300=\274\033C\021=Y\333\023<\370\256\217\273\252\177\207=\341i\305=\022 q<\315p\356<\224iW\273v\017\034=\347v\027\273\036\204\n<\354\264\361=\242\250\230\274\235\200\200\273\003y\221\275\251\342\376<\230\233D<\364\310\244\274\003\002\230<1\201\347\274\215z\"<\315n\305\272\307\324d\274kzO\272N\'\204:\302\235I\275\215\255\331\274\264>\207\274\2025\\<\202\337<\274\250\267\276<\231\224\263\274\014^\320:g\362\316;\255\344\376\274\311\034\013<F\323s\274\300\331\266\272u\207\247\274Vz\026=\366[\275<\260\317\307\273e\035\247:\0004\203\274\nG\275=\302\313\353;q\313\352<+\354\303<\213\314\253<J\370\307<\005\315\240\274\226\002\2159M5x;\000\"\324\273q\230\244\274\337\236\004=\r\274\000\275\177e\217\274\033\016\251\274\017B\033\274\037dl<\034\204r<\242\305\324;#@\361\2743MW<Um\260\274\377((\275k\007\330\274mu\000\274\3017e\274\360\371\271<\005\370\t\274i\226\213<\251\035}\273*c#\275\264^\\<\014e\206\273\301$\252\274\031\256L\274\212\315\311;\r\372!=\370\334\323\273\366\021\037\275\316\343\244\275\310J\276=A\214\342:u\206\027=Ua*;\036\370\034<\212\321\022=\273\252\334<?\205\226\275\226\255\024\272\035\351\251\273j^X=\306\202\247<\216\306\023<\267\317\227\274\252\333\265<\347H\335\274\223+(<w2\372\274 E\303<\251\007B<l*\250<\207w\217\272\365i\016\274\037\224\277\274\212x<\274ODD\274\316\266n<3\n\"\275\2144Q<\237)Q\274A\305\205\275>\277\234<W0]\275\270\010\266\275\300\215\231=\344\362#\275\341g\036=F\374\301<J\377\030=\004w\212\275\374\216n=U\255\300<G\274\317\274\306\370\350\273is!<(\247\202\274r\257\237<\026o\016:\010-\255\274\216\344\310\273TS\266=\202\356\226=t\2215=Bd\010<\030(\033=\217\342\277\2740\321_\274C\235H\274\355\315\265\274\217\346\035;\346\354\001\275\002\'\205\275\332\264\301\274\267sh=)\227\201<[\375\216\274\330\007\276<\307f\177<\264g,:\214\360v<\310[\235=Rx\364<)\270\230\275a\376\035;\256:p=\331\'8=S\243h\273_\372 ;\211\273\030<\256\001\200<\336c\204=U\025U<\016\361|\273\363*\031=2`k\2742\255\260<\000}\\\274i\225\245\274\330Lt<\277\013\'\274\204\323\376<\0312@=\225\225\377\274\244;\006<Y\275\205\274\257\'\352:\371\204\277\274)\306\310<\021\253\002;\225#3\275\177\005<\2748\277\213\275\242&\256\274\253?M=\302\347\214\274\036\272K\274\321\303\262<\341@\027=e\034\322<\311^^\273\342E\251=;Z\320<)\266_\275\351?`=\313\252\234=\222\361\'<+\266[<]\232`;\253m\304\275l\363\300=\355>\212=r\271\377;o\200s\274\020\024\220<n\365\235\274c\227\026=\310>#=\245\2401\274\231)3\274\270\307\250\274\243\355\375\274\250\277\227=\361\340\021<.\330h<\340\336\345<\200i\250\274\033\\p\274l3\367\274E\020a<\323\337\002;]\231\306\274\200\220\324\274\0179\004={cU=}\002\243\2740\032M\274*!P<\354\227\031\274j\233\326<\374?\214\274\"\033\223=\224\301\207\274\347y\344<\357w\251\275\335\336\360\275\032\277=\275\032|9=S\301\365<\264k\037=\217\222\331\274E\244\336=\360\257\351<n)P\274\372H7\273\347\017\007<\343l\'\274\013g\316<n\027;=\2133\002\275u\260 \274\322A\233=\2220\341\275U\3106=x^\030=\346\353\206<\316\004\350\274E\236\220=~.0;\2056\024\275b\367d\273\370x6\275R\225@\275\273\323\032\275\210DA\271\017Jq<\371\372\302\274\376\330\310;g\260\304<\003\233\010\272/\006\346<\210g\277=?_\210\274\242&\002=|\216\270;.\343\025\276lGa=\354(\246\273#r\261;\200a\372;\366\262\271<\311\332\374=\3165\201<\215[\341;$,9=0Y\300\274\347\326\345<\271\240\255\273_\211\374:\266m\001<\361\'\221\274\205$\372<\252r\364\275o\216B\275>\321\026=fZ7\275&\331\\\273\265\262~=\353\034\"=\n\266\215\273m\201W\275\023 v\2747[=\275\373r\375\274\376\221>;Tq\331\274\244\225\220\274U\021\277;\"\262:=uM\345<\203\213\243;5\372\303=k\375\351\274D\237S<\305 ~=\007\250\370\275\344M\265<\023(.<p\352\003<\2529\303\275\031\376\223=\333\332\343=mu9<\234\246\211\2726\016\262<\202\373\362\274\315\017/=\035\247\200=\365\242T\274\\E\237\274\030\023\366\274\227aG\274mU\270\275\361\035\\\273Z\3344=\301\032n<\254\016\003\275\035\255\205=~I\025\275\\GM<\003s\006\273\273\373\273\274#t\265\274$\300\000=68\357;*\323\006\275\2648\223\274Y\354\\;\254\305.\274\357}\356<&m0\274d\212\257=\354]<\275\355\323\246=\027m\037\275TK\230=\232\372\027\275\3027c=\333\326\351<2\265\323<\270\332\330;\231\033C\275b\200\344<I\001Y\273\331\376\231\271\022\260\242<\265\230,\274\305*\327<\010q\244=O\333\364\274U\024\376\273\276<z\274!\217A\275\031\370\"=E\304m=I\005\020<\3654\267\274\005U\273=^\376\006<\303\227\032\275\346?K\273dw\022\275\261\261!\275\273J\023\275m\353Y\275x\205\203<\270\021\246\274\244\331w\274a\373\241<:\226\310:\031\227\364<\235\315\317=7\212[\275\001\363\301=\025\336\242\272\350l\257=\270\205}=\033>\004<\004\301\214;4\222\272;x\356L\274)3\363\274\277y{<\n\333e<\245[5=\004VN\274\275\030\345<\377\334t\273\314\314\272;\335\357\351;\230:\214\274B?\276\273\366\246\032\275{I^\275\355)k=\266\272`\275\006\273a9\3073\263=<\"*=\2244\213\273\357<K\275%$\317\273\023z\370\274\347\354\001\275\035jO\275%\225\317\274|\007i\274\220^i\274\272\260%=\320e\340<@\256\363;\251\201\312=\355\014\215\275\035\357v=\234\310\303<\206\300\232=G\034\360<&\260\227<\365\355\375;\362~\215\275\350\220\003\275\000&I\275\242}A<\366\272#<\305Q\231<\201#\250\274KE(=71\212=F\027\001\275\337\306\213\274\301?\345\274ci);`\361\353\274e\213\017\274\200]\203=+aB<8\021\374\274\371\300\247=\320\253\027\275\345sn<\236|Y;\014\265\270\273!+\232\274R\322\376< \2442\275\373\333\007\275n\277q\274xv2\274\024@P\274`\321\324<2\305\346\273\340\300\264=\017a\352\274\246\234\233\274\253\345\032<\363p\3749\310\030\n\275\351@W=\216N\262<\326q\217<\002\267\367<\375\340\363\275\227\304\266<\351\037\272;Q\t\032\2738\302\001=\251B\t\274?\357m<\303\000\320=\010L\323\274U\031\321\273\0221\252\275\366?\220=5\314\010=$\216B=F\214\261;2B\253\274\310(\342<\\\031\353;\030\265\002\275\331W\350\273X\'\303\274a\354\330\274X\340\372\274\314\310E=\n\277\227<)\226\214\274\247\331\374\274r\177\364;\34569\273\276@\307<\013\336\253=\353w:\275\265\305\255\274Rg\211\273\033\275\272<\nCO=\341\013r<+\261)\272\354\321\212<r]\322\274\366]\327\275\215\322\034<\024\347\205<\321\212\017=^g\307;\032\345\330<\243xI\274\033X\";\254\027\032<}\0216\274\005\237#\275\370N\250=<75\2755\223E=\214\271B\275\325\217H;\n\207\014=y\233\036=E\310\225\273F\2665\275\301\005\251\273\365\265d\273-\251\r\2756\3764=\2125f\274\204?F\274`\216\331\274\374\365\321<|\236\226<\304\254\251;|b\242=\301_w\275\034F\350\274\235\322\002\274@DD<\244\3568<M\020\367<\377\216\000;\315\324\215\274\"\340\247\275\034\030\001\276\224\265\261;d\227\205<\003\215\031<\255\310\2009\273\327\035=RbV=U\210B\275\320R\330\273q\017\205\274h\370(<~\220\210=\245\004\210;}Wo=P\"~<\276D\277\274 g\005=\220\324\n\275\343kw<+\214\227;+\025\307\272<.K;\323\234\265<G\344V=\003\373\206\274\006u)\274\337)\200\274S\225\315\274PF\201<\344h\315\273\237\364}=1]\004\274\276\323\313\274!\2208=\233\236\246\274\022QQ\274\220\213H=E\030\225<\032\370\250;A\013\225=\264\260\204:}1\266<\345_:<\025<\3709\tU\024=\360\341\302\273\326L%<M\274\315=\302\360\004\275\363\240\367\273z\241\252\275\207\002\253<\344\256\265<\354Z\002=\256\034\235;\231t\275\274\224\270\321\275\314\234\301;\225\034\352\274*\350\345\273\244\360\\;\370d\312\273\257\032\365\274>\0069=\226\005\240<J\263\261\274\315uG\275\241\033\250\273\360@!\271%\243\236<0\351\246=\246!\307\274|\233\022\275\265\232\364\273\364\271\337\274\265\272\\=R\363\241<up\\\2729x\330<X\031\343\274mh\343\273\213\0104<\033\224\214<\025\332\375<\212!g<\315\260\323<\323 h\274R\224h;\305s_\273\rox\274w\200\t\275Z\252\254<\223A(\275\321h\353<O\303#\275t8\244\273\224%\263\275fE\364<,l\215\273-^\024\275Q\r\223<\025\220\275<Y\267\031\275\265z\034=\376\261-\274\014@\205\274\3410%\275\344\225\n<s\327\225<\276\3500;\341v\233=\316p\027\2750\340\213\274\374\327-\275\001\241\215\274\330\374\207<\340\266\007=;3\002:\265z\316<hS\332\275\306S\306\274}\216\262;N\030\265<xR\313;S\374\033;p\231\020=\253Y-=g#@\275`y\'\274\350\206\251\274\367\2715=\307\323\244;\360^\225;.f(=\343\025j<\006Z\365\274-z\232\275\363N\014\275\214\346\206<\217]\364;\233\275\330<\004G\261<\010x<<a\207\'=\217\301\217\274\323_H\274m\213\302\274\245\242\016\275\362\002f<\307_\356\273\375\312V=\311PI=\316\177\223\275=\313\212\275\"\331\244=\307\244[\275\010\356s<\332\337\267<m\322G<QYu\275$\334d\275v\035\252<\331\013\363\274\374S\035\274\241\321\344\272<b\342\274\252\036e<\035\014\272\275\274\262\321\274 \341,:af\324=\335/\"\275\315\3763=g\247\203\275[O\317<\237\376n\274\024&\024=\352\354\001\272$\243\322\274\214\371\205;\010$\037\275\323\312\301\274\370\212$\274\346\313\366<Qu\201<\331RR\274\025\273]\275hn\302<\010S\345\273\331\033\270<\375G\376\274\003lt=\206\227\314\275\320\277H;D\332\214=4\341&=E\235\316\274\324\246{;}T^\271\223`\335<x\0041\275\325a;<\032\202[\273\336k\010=\323L\300\274\2514\252\272\265\010S\274i\354\030\275D\377\036<\013\013\273\273w\0075=+\301s\275\035\273 \275\311\202\200\275s\376\342\274M\365\311;\360U\364<A\223\026=\237/(\273\232\251\022\275\231\030\214\274\266 \372\274\305s\"\273\0375\247<+\244\252\274\273\016\207\273>79\275\367\315-=\r\277\232<\000\2422;T\226\345\273{\370\214=-\r\224\275\275xh=\275\274\265=(\233\202;g\032h\274\325@\305;)\001\223\275i\306\351=\200\240\342\274l[\314;\350\350\255\274dv4<\032\330\314\274v\255\210;\270\3716=\374\277)<\251\262\177\274\235\366\303\274\336\200\322\274v\224\036\275\001\273\276;\361\010h\275\2442\313<0\326\303\2747\342;=\255\003\261\274u%\037<\360\344\257;\001\270\300\274Nwb\274\232_U=_=\243<\235\211\325\274\034\211l\273D\325\377\274\220\032\261\273-^\246<$\0376\274\354\344$\273\267\341\'=\351G\017=\t\004#\275x7\025\276\323\273y\275\360\275\322<\237\356\326<\346\206\336;\210\261\242\273\234\017\013>\177.\272<\251\r\301\274\377\247\362\273\3768~\273\270\222\207\274\370\200\237<\330^\235\275b\005\025\275\234P\225\273\004F\277=\344\001T\275\363\224+=\224\363\224\275=\353j:\202n\236\274\224\351\232=\034\314B<\277\374$\275\177=\025\272\237?K\275\256\375\007\274\026p\313\274V\037\245=\215\027~<\306\010\234\274s\233\223\275U\333\363<\302\255\367\273F\344\005=\225Y\000\275\034h$=R\334\023=\346_\026<\023\367.\276I%P=\305\330\321\274\272\225\226;+\340\227;\374\002[=\007H\033>\271\210<<\327\232\024;\0338!=\2375\006\275\237\271+<K\275|\273\177\274\003\275\362\254O;C}l\274\2712,=\206|g\275V\302q\275\236\262\230\275\276Kk\275\345\205\273:?e\237=\327\342M=q\253\037\274\250`-\27556\231\274\026\231E\274 \0105\274\342\347\244=*\234\357\274\273\366\010\274L\374|\2755tH=?P\271<\361\312\010<+\347\016\274\266\233\035=\206\313\330<\225\350U=\023p\016\276\317\327\200<\303\207\215\274\2427\006<j\306\"\275\216\344\344=qU\'>lQ\325;J\004R\274\001\303S<\006\341\023\275\2132a<F\256\212=\255\202 <\255k\272\274\026\361\017\275\232\277\000\274\305f,\275H>)\274@\337\206\275\027\245A<\022\037\020\275\321\300\267=\250\334\375\274\227\031\r<46r;\255\366\257\274\260D\204\274\022Ka=\214I\244=\331\263\035\275^$\372\273Dd)\275]\330*\274\005\021\307<]\367\365\273\236J\007:\214>\313\273\235m\267=\21558<tM\274=\376MV\275\177\245$=\301~\325<s\nA\273\374HJ;\255\377\377=\004\353\275<p\022\233\274m\352]\273+\267\010<\230\376\222\274z\251\236<\360\236Q\275\021V\014\2752$f\273K\265\230\274gX\345=T-\036=*}\177\275\316\306\343\273-\001a\274;\2615\274\230S\204<Tp5\275\212\025\016\273\276\225\"\275\360\311T\273r\324\331\274>\360\022\275\312\037\234<\370_\237\2748\230\230\275\341\344\333<Ab\222\273\376\333\016=\372+\211\274+sk\274/\273\327=[\302U\273i<\342=s@k=\026\313<\274\364\326\226;\324\337J<\242\\\215\273\216\220\021>\237WF<V\304\266;&\202 =\236\240\264\274\255\313\r<\001\022H\273/j\376\274\016\373o;\003Ww\274\331&\222\274*I\347=\345%\203\275q\310\215\275\305%\212\275\320b\235;T\366\255\272n\212T=#\366G\274\310\000)\275\t\235\034\274\320O\261\272wsd\274\321\177\000\275W\034\324\274\257\205\014\274\n\245}\275\321^9=\016\360\274<\022`7<\363\204\007\272G\350\321\274\307=\225=\303 \266\271c\301\334=\305\242\264<\377N\365\273\335$\024<\220\035\022<I\364F\274\336\315\004>^\350\000<\242\256\320\2731:#<\312(\345\274\344\177\025<\347t\221=\334\356\020\274 \354\240\274^O\020\275\250l\211\274\310\364\335=1\316i\274\227\335p\275\237\016\362;\035\020\013\275\343\376\305;\213\355\002\275\251\201\002< \241\345;%\214\222\273\002/s\274\341\302\\=\343\317\001\275\344\223\030\275\336{\003\274\251\262&\275\372\374@\274\002K\264<\026\364N\273\rw\r<L\034\277\274\035H\240\274[\256e=]Q\306;\330\316C\275\'\274/=\272O\246<\001\252I\274\371\261,<\031\204=\275\253N\224<\364\214\345\273\333\005\210\273r4\262<\231\311\001\274\344n0<}\310\217\274_p\001\275\001\026z\273kM\273\275xU\202=\032Q\004=\312iL\275\267t\262\272\220\nm\274\032-\320\275\351\366L<\307w\025\275!\365g\273oa\272\274Q;\355\271\301\262\306\274\240\203&\275\351\025\260<\354w\202\274;!y\275L\302l<\214\260\312\273\302\201\355<\002\n4\274Xj%\275\213\346\240\274\006\254\320\273\367\340\017=h\201C=O\027a\273X\332\020:\311r\216<\340\351)\275\207\036\350\274\205\257\353;\034GG<\207\211\000=\266\027Q\273gq\211<Bo\023\274\257\274\363\274\014p\271;j\026\032\274\2759Z\275\263\307\204=\310\344Z\275.\370b\275\010uR\275\024\223\334;\345\020\243\275\336\223D=\2031,\274\234\261\t\275\022\320\220\273\031iu<\204\275\244\274\2042*\275\3651^\274\203\233\271\273$\2268\275\260\022\001=\242\342\214<=\n\r<E\213\030:\356JW\275N+\343\274\231\363\007\275\375\201\331<\325Q\257;\217JX;\367\210k;\2007`=!\024\266\275\211\022e\275\314\355\352:?\267\177;\343\006\203:>z\010\274\3233\213<u\237l=\271\243\330\274`\030&\274E\273\277\274/\t\262\272/3X=\347\225\003\273\\\300\030\275\344\014\215<??\333\274\021\301\214\275\303\002\367\274c\364*<^I1<9\037\372:\022!\017\273\34503=\202\333 \275\027\022\236\274\010\264L\273\321Y\275\274L\377\306\274Z6e<\002\363H\273E{:;#\332\005\275\304q\000\275\337\341u=\347\330\027\275;\364\336\274\224\225@=\377F\242<k\251\266\274\035\335\201=\200\032^\275\316\275\241<\347\323o:\201\344\3619\026s\341<\347\253\005\274\016\356\262;\272k\230;\271\223\026\275\353n\313\273H(\307\275\036\317t\275\021\351\271<F\376\033\275Y?\236\272\332\024\200\274\225\310\363\275\334oC<[\311\013\275=5a\273\310\010\266;\375\255\004=\013\366\337\274\320\\A=O\211\277<\233.\257\274\244\326E\275|}\031;{p\000\2735{\324<\003\370`\273q\232[\275\233\034)\275\354(\344\274\306>$\275\"\354K=^\371\t<\225\337\033;\010b\226<A\251\023\275*\rI\275\352\233\032<\235%y<\200\262\350<\223\314\241;\006\245X<\377XG\274xLv\2746\231\227\273\002\327o\274\237\032K\275\2201|\275!\303@\275Wb=\275\'\211\'\275e\334N:\346\037\273\275\342=#=\371n1\274\303\353\323\274\227\351\241<\336\310J=\343M\326\274\334C&=\312\370\026\274Ck-\274\342\315\361\274V\257j<W\342\223<4\024\362;\0224q;2\260\204\275\242\357\240\274v\252\230\275O\227\356\274J\230\021<;\364G<\307\351^;\325m\246=\260\307\355\275:W\233\275M~\007;w\346\'<\025\252\347\272\366\215\350\273\027\0050<\310\017@=\230D\266\274\336B@\274\273W\354\274\326:\004=\304\201\177\275\266\305v:\016\264\337\274d\023\203<P\374\372\274)\005\261\275T\340\361\274\230\2535<\010\246[<d\352\373<$t\332<!\203\374<\366^-=\266[\235\274K\223\303\273\2753\024\274\335\323\014\275\262\363P<\270\375P\273.(E\273|:\254<\254\307S\275\336\222\240\274pS\220=\215\246c\275%\0266\274\322\030\302<#K>;yGX\275\340\234\311\275U\263\313<\344]\306\274\363\366J\273\256a\244\272\036\314\333\274@~#<\345\324\306\275S\307\254\274\325_\024<\331\027\310=9\355]\275\033N!=\027\010N<\276u\211<W\034\033\274\035:r=\327\366\310\272\2229`\274\005l\305\272\217\364\334\274\314\3300;\036W_;\301\344\310\274Az\236<m\343\331\273\227\237\372\274\305&\242<E\334\026\274\007\353\317<\3574\034\275\353\355\024=\003\251\250\275\303LY<\235\235c=+\304\316<\203@\035\275 \210\t<]\264\332\2725\325\272<\353D\270\275Z\004w<G9\360:\231p\002=\000\202\203\274JK\244\274\032\320M\274\'Aj9\317\316M<\353\221\271;\035\215>=\362s\201\275\260R\020\275\032\005\362;\271\244\004\275>p\023<\272\225V=\377\013\373<\033\216\006;@n\002\275!h>\274U.!9\273\223\270;\354\311\000\275}\210O\274^\255\221;\301$\346\274j\033\006=\365\207Z<d\316\310;\2036\232\274n\217\210=\355\031X\2757\037b=\342\362\234=\3052\000\274\036\273\023\275\374\213Z<O\206\275\274\016V\326=\007[\214\275I\313H<S\317\262\274\376\227W<\006~h\274\353\307\330\274\334\350\024=5>@=\256(\036\274\315S\213\274\343\366o\274\255\317F\275-)\034<\231uK\273\1772\210<\r\004\312\274\373E\201=\0040\312\274\'UF<\363\t9\272\001\222t\274\024\267#\273\307nP=\022\345\377\274\325\252\232\274\263T\311;I\320\255\274Ci\013\274\333X\221<j\304*\273\200\2562\274\250\r\024=\373\327\006=p\357~;\374?\016\276\371y\204\275\206\2354\273\033\270\342<\007\303\265\273\323(t\274=\220v\2751S\333<p\201\315\274\203\307o\273\007E{\273b\030\227\274\210\rs<\002\377\335\275\'\342\003\275\341\021\177;\272B\250=\342)\225=_&\022=\206,\217\273a\305\360\273X\303o\274[\021\255;\276\0179<S<\353\274c$\354\273\360\345\017\275m\3077<\244\376J\274l\307r=\227\201\252<_\031\200\274\264\365A\274\271*\322<Xt3\274\213+\r=\245\216m\275]G8=@\241\010=\\a\226;\255\316(\276\0000\003=\177\363-\275!K\"<D\220\356;\216\363\033=\234\002b\275x\263|<`\242\235:\013O\017=\240\350\326\274\247pi\274\233lf\273\277\201\302\273\260V\226;P0N\273\344Q\013=d\033\204=\031\272a\275\000\271a\274/x{\275\202\216o;8\207Q;H\0068=\224\352\362\273\315\306\037\275\203\335L\274\276+3<[\246\032\273\235Kc=\"\233\233\274\357\350.\273\037\310\236\273O !=\3513\201<\334\2257<\217\325/\275\300\022\215=p\250\362<\230)\350<1\315\t\276\241\361\262\271\023H+\275O\271\205<{j\372<\301\213\315=\352\211\313\274Z\353L<I\233\252\274\200\350;<\033Z\321\274\311\t\304\274\302\340j=\r\344@=\215$\226\274\377m\354\274\212\335J\274b\330v=\220\372\302\273\250\306\314\274\254\352A; m\024\275\017Z\206<\227~\005\275<u\003<\257=Z\273e\035X\274\353yN\274[Ub=:\362g=\236@\355\274 \222\231\271\255\001\257\272\266yX\274t\257\243<\003\215\241:\262\363\340\274Q^\256;\r\223\200=o\0241=\020Cd=\324\210`\275\347\033Z<wI\324</k\325\274,\366\023\274\306\377\375=\214\244\321<\334\350\300\274g\225\3758\365\227\021<\323\251\226\274\341;?<@*\301\275r\361\343\274\276\002\243;7{\003;+Z\332=\346\337\010=s\221^\274\211\275X\274\027I\032\2748\270\327\275\177+n<;H\374\274\273\324\001\274W]\273\274\t\230\221<M\326\207\274!\213\207=~\327\321<\351\357\207\274\376{M\272\215\371\266<Md\007\274\270\n\022=\365v\210\275\342\013\373;{\347\242=\216\352q\274\341\277\215=r;%=\230,\356\274\245\266\r<\315o_:\225+\031\274\357`\372=T\374o<R\233G;\001h\r=b\354y\274\002\376~\274_\260\276\273\014\032~\2730a\001<\021qn\273\rB\211\273\231T\300=k\311m\275}\250\341\274\260[\212\275U$\356;\020\364\303\275\033\262?=\273\005\013\274RJ\026\275`\'\216\272y\371\251<\333\r\337\273\302\020\211=\364_k\274\r+f\273\022\2452<\315\201\024=\203\203\202<9p]<2\302U\275\312\217\223<3\272F=\3563\000\275\320\311\222=YD\371;\343\223\004\275\034@|<\236(\211=\005\362v\272jG\014>\223/A<L\177s\274\364O\324;\334\340\217\274\240\006\340\274-\223f=\365\265,=\201 S\274\206\336\357\274\036=\025\274\001\323\247=\025\332\020\274~\\\037\2754\323J9\373s\014\275\343\305\254\275\245\n\014\275%\352\017<\210\315):\216\261\232;d\2239\274\377B`=\265\026}=!C\330\274]\221\263\272\"\317@<-G\204\274\030g\206<G\353\217;\214\272\023\275\007v\313\273[\203\266\274\244q\222=\004\265\324;>\324H\275m\255\254<wL\250<\261I\035\275io\217\273\246P\271=;R\237<\270\251\222\274\343P\034\272\2300\257<\013\300\013\274\037P\254;\340;\212\275:E\334\274\271\025];\332\377\203\275B\343\210\275\273\356\337<NV\010\275\'\270\010\274\375\346\027\274\270\204\302\275-`,<\225\337\325\274\254\367(\274\225\177\032\274\262\374V<3u\222\274\214\373\334\274?\227\357<\274H{\274\202\336\353:>\237\363;\245\214\021\274b\354\346<\206\205M\275YS^\274\221\305\266\274\005\343\217\274\314{\364<D\245\013=\022\242\235\274\250\276\246;\301\003\361\273~\3165\275\031\010\312=\313\335\026<\016\356\252;\245a\332<\241\344i:\204\001\362\2738\177&\274%\002\033\274Y\277\n<(\251\3518\270\215%\275c\374\217\275\365\207A\275\004\';\275\306\351O\275\005f#<\206)\230\275\374X0=C\246\023\274\325%\371\274\0062\033;\2507\314<;\273p\274\210=\316\274v:\320\272\376\227C\273\304\210\212<C\010\256<\314\3223<\033S\031<^\247\024\275\027\314\342\273\362\\\007\275+\274V\275\347\232\241<J\364\260\273\203&\262\274L\304$<k\356\257=}\031\221\275_\367\261=\267 \237;\335\207\031\274\371\314*\273`\317\311\272\261\207\227\274m\2767=\317o\266<;\360\274\273d\370\241\274#\032/;\220\325\204\275v\334a;TIJ\275tl\036<^\360\326\274\365\214\243\275\326\211\006\275\"\210 <>j\\;B\335\017<p\245\027\2742\177;=\024\366\351\2742\343\001\274\263\362\237:\206z|<G\232\366\274p\255\021<?d\035;h\350\265\274\331\252\027\275{y\277\274\274fk=\006$\t\275h\242\345\274\261\247\334<\3143\251<\273\0329\275\341\336J=\033i\302<\233^\247<\n83\274\217\345S;+\323\336<N\262V\274\253\251\271:e\267Z\275tw\343\274\022/4;=N\217\275\347\232|\275\207)\233<`\345K\275\2629\267\2731\204\351\273!\200g\274G\345\023<\346p\275\274\006C\t\274\211\004\212<\230\376X=\253\270\277\274\001\006\257\272i\024\002=\324,\232\274\020\345^<\353C\275\273.\002\217\273\010P\320<\272\270F\275\373\216V\275\362m\014\275Sq\023\275\016\252\037\275\341\321\031=\331\n\004\274N\324\343;e\030\204\274\'\336\016\275\177\354\004=#\214.<@1\007<\206m\266<\314\254\005<\210\345e\274i\233X\274\313\306.\274\r\274^;0\351.\273\344[\t\275\007\337}\275\326 \"\275\337\330z\275\347\325\031\275J]\021<\250\266\343;\t\357\021=\273\177\n\274h\021\251\274\034a\324<\024\013\202=\327\226\271\274\357{\241\272XT{;7c\310\273f,\342<4\366\211;\214\0058<\365\212\016<\354y\002\275p\030M\275\306\203h\274\004\\\227\275\260$\020\275\000\305Y\272\202\307i\274\204\020\027<Ee\251=\233!\311\275\365p\211<\215}\201;o\257\031\273\346\003\001\274\346A\006\272\276\217\326\274Z\365\013=\017\201\322;\324\345\034\273j\250\263\274cM\035=\277AC\275\336\342\336;5\260~\275$\342*<\277\230\304\274\255\0239\274\270\231\004\275\331\2229</]\016<Hw\026=\024[\274<_\257\005=#\'\014\273`\275\303\273\267c\246\270\205\214\301<KV\'\275`\004\267;\037\345\r;<\252\325\274\320\221\371\273\325\037\316\274aI\245;\334\031D=\2136u\275>\312\340\274\332Q\234<r.\224\273\371V2\275}\035\305<z\352\255<\230\253\230\274\216\265U:\262\257\361\273\037\360\t\275\243\206\035\273r\212\220\275\231K\232\2744]o<\036\334\247=\2233}\274\224k\301<\231{\026=\274\360N<Q\000i\273\341\221\3509\027\003\023;\325\271p\273\371\351\177\272[y\016\275\220J\003=\326\222\240<\331z\036\274A\221A<V+\001<\367\210\273<\207\326\270<\371\2578\274\2266\304<]Q\306<L7\n<\377\375d\275=\210\347\272Q\352\366<#\262a<\002\004\036\275pE\314;\331:-;P\302s<}v\266<p\2412<\314\021\234;\327u\313<\317\220}\274\233\346\r\275\220m\307\274\301_\313<u/\027<\016\225B<\245\2008=x\344\230\274\205N\026\275\224\353\031=\302\331\304\274\022\256.<P\313 \274\355\356\334<\346*\005<\377\356\233\274?\021\247\274\370t\t=\320*\204<?A\225\274\226\031|\274\203\312\242<\247\034\305<\230,\325<53\276;\307\225\231;b\270\023=\314$7=e\360\344\274K\304\217<w\264I=\213\270j\274\313\342$\275\236\014\'<\177g\034=Y_\301=OT\017=9\346\337;\276\372\302\274?\266\360;Z\'\177\274\244\316q\275p\262\240<93p=\353E\000\274Xg\212\274c\'d\274p\2647\2747\353\252;\004\226\304<\271\006A<6\362\276\2740\230_:-\262\257\274VV\205<\014\343\001\273\306\270k\274\210\000\275<\214\006`=\367&\333\274Y\355\342\274\322\213\261<\267\014S<0\355>\274;\212.<uI\223\273\327r\250<\323\222\373<\210\006Y=\035\231\266</\377\277\275X\347\220\275\202\301\232\274\300!\313<\247\207\267\274Ua\033\27420\266\275\005\233\311<\301{\343\274\217\203\2108\343o8\274\302\007\301\274\0077\270;\017w\257\275\037i\377\274g\223 <\224/\231=b\340\211=\237\364\222<\267\327S=nN\030\274\340}\013\274y\224\211\275}\311^<\213\255\241\274\273\340\273\273\343\223\034\275uc\020=\231}\233;\336\036S\274\357\230b<%\324\247\272\225P\006=\367\024\342<e\235G\274\247\350\013=T\263\265<\264\226G=\021\205G=-P\234\274z\323\361\275\336\360\226<\020\254.\2757\203\026<G\226\217\272\254\026\036=-\203\311\275]\267H<\"\004w\273(\304\343<\020\370\330\274e\213\350\274\244\235V\2749\347\345<\017F\0319\302f_;7\232\006=\213\225s=\243\214h\275x\211K=\017\366D\275~$\303;\235\256\217\275\266A$=&\3261\273\215\243\275\274\350j\205\274\2635\037=H\237$<@\256\231\274k\314\253\274t\256`<C]\030=\366:\002=\364o\r<K .<*\322\351< \200\245=t\302R=3U\257\274\343\001\264\275C\r\023\274\223X:\275\000\376V<\373\000\240=\304\241\330=\265\306\222\275\204Q\321;\312\271\372\274\374o\217;a\375\345\274\014\023j\275\360@(=\224\336\232=\020|\211\274\215,\357\274\211ZH\274\267~V=\356\341)\274YR\000=z\271\347:H\327\n\275\346\272x\275\363C\374\274\177U0<\364\177#\273\213b\r\274\032_ <\0033x=\222\341\256\274?\324\031\275\204\222\203<\272\036\250<v\363\236\2745\316O<q\311\205\272\'\254\236<l\346\334<\221\313G=\333Sy=\362p\337<^\317x\275\025\203\\\274F1\271<`\2045\275t9\343\274\261\301\224\274\000{\267<\264m\016\275\363\023p;\034\004\213\272nr\324\274\376\231D;\364K\261\275\025\215\366\274\262\202><mde\271)\334?\275\354\302\216<P}~=@\372}\274\226a+\273\221\010s\275x\315\227<\353\022\322\274\225\252\027\274\353\037\276\274\376\341(=F$\223\271\275=]=\340\253\272<M\372\327\273\211\032\223<\350\241\277<\372\204\"\274C\222\r=\034j\177<\335j#=\034*y=hp\301\274?\036*=\233\031\337<Y`%\275\036\034\370;\366t\216\274\355m\305\274v\005\r\275\271\3060<?\243\013\274|\305\340<\201\373\224\274\306\270\002\275]\310j\274)\202\324<\276\331\202:f\210[;S\330\202\274\321\275r\275\010\302j\275.Dn=\222qV\275\253@%<#O^\275\311\3144=\234\346\370\273\375\034\273\274\2619v\272)\3779=\323\224\306;4\237K=\255~P\274\037\276\025<\370\360\322<\367`\355<k\361\023<\254\200F<l%\303<\\\222v=\244\026\r=\315\327i\275I-T=\214\376\256\272y\022<\275\364\367F<\265\306\275=\227\365\032;\276f/\274XE\256;\301\261\001\275d\243\257\272\233\354\275\274\006\321|\275\352\006(=\304\023\242=\204\247Z\274=\336\362\274\242\364\334\274f\277\206\275\234\0164\274\357\361\037=2\347)\272[\342\375\274\3229h\275\213q\370\274?\264\006<)\272-9\255\317I<\371\227\376;\010<x=\027\3472=c+\003\275n\233F<Y/\346;\235\351\265\274g\341\030<j\270\351:\016\006\204<2\342\376<\217\006\234\274M.\232=\036\366H;\263u_\275\311)8\273\350\205r<\265\343F\275\365F\316\274)7\234=\265\003V<\273\246\372\274_\242\025:9\245E<\t\'g\274w\025\031\273>{|\275@\213\325\274\3532G<Pue\275\267%\235\275v\005F<n,_=\331Y\004\274\034\r_:\372s\310<\326\357N<\332@\257\274\350\352\372\273=\342\372\273\307\246\037=\247\005\377\272\310\241\326<\"\364\354<\203\246\202\273\314\253\225:\216\306\203;j\264<\274\211W\316<\202\273\203<\215s\024=(7\243\274\242X\234\274\201\350\300<\213\204\270<\231\023\360\274k\363\026;Z\306\350\274\2301H\275\005[\216=\353ZZ;\0048\277\273n4\226<\252,[\272\0030\256\274\342\377\213\274\242c\340<\201\023\254;O\277%<\006\324M\2757\273\247\275V\026<\275\247\202K=\321R\002\275/b\214<\225\305\001=SW#=SW\024\274t\341O\274\275\337\255;\325\262K=\341\r\207\271\220\265\323<\351ZN;\345&8<\250\033(<\316\327<<\337s|;\306B\331;T\335\336<\003\361[=\261\245\007\275\334\245p\275C\232\215<\303QM\274r\373\016\275\276\364\250;\336%\275=fdX\275\355\235\225= \347`\273\027\344\323\2742\222B\274\223\263\253\273d;F\275\304\307\002=n\244\226=\217\272p\273\370\367\206\274u\236\202\274\001\266\223\2754\'\317:\357\301\002=\335QN<\302\231\227\274\331\3079<8\311\366\274\344/\001<\030\305\352;\r\343\205<F\2238<\001\334_=\022C\207<3\200\030\274\211\n\200<\014\212\035\274X\276\035\275\325\370\346:\275\033\340\272S\372\253<\230\365\345;\231\025\254\274\364\310>=TP\320\274\274\340\006\275\232*M\272O\352t<\261h7\275\371c\312<\254\021\346<\232\207M<\277R\366\274@\001m;p3\221<\315\030\325\274\"O\303\273\275R\210\275T\030\330\274\036\355M<\377\017\203\275\3613N=4\362\276;\006I\346<4\365\272\273U\352\237;\370\303\200=\004\213\'<|\304\255\274\003\302\276\273\263r\226<A.\206=\r\270I\274\000iv;Z\267\r=\342\020&\274:\357T\272\371\0016\274\271\354\322\273\005Y\262<\251\310\342;\273]\021;\336\306\006\275\3019\010\275\376(\006\275`\255\345<\213\"\277\274\213A\205;\236)\013\275S\371\033\275R\303\023=\201\343o;jC\373\273\324~a<|\247\270;|\304\t\275\253}\237\2744\266\351;\307\372\030;\226U\022<\207\005%\275\267\316?=\233\350\031\275\332\021\276<\200\214\240\274\331=\233<K\241\211=R\'\007=\351z-\274\3300i\273\345d\353<\225\005\222=\362^-\274\315\375\277;1\346;<\343\264\275;d~\241;\203\234\275\273\004\246\237;\202i\273;\240\001\264<?,r<\362Q\211\274\237z\204\275\032\213\362\274\002\251\357\273\347\317\013\2750\326\232;\320i\240=\313R\237\275\010\371\362<\253\204\245\273q\205\306\274\326<\225\274Y\253\217\273\312\356v\275\201W\273<\230\257B=3n\234:\346}\203\274\374\301\307<\235\351\177=p\277\254;\230M+<5RY<(\340L\274\021\330==t\353\364\274\014w\376;t\035_<\324u/=\372\370\321<\257s%=\231\302\314\272\215\267d\273,kP<\201\006\200\274U\001L\275\'\351\241\272\031T\373\272>D><"
      }
    }
  }
}
node {
  name: "conv1/Const_1"
  op: "Const"
  attr {
    key: "dtype"
    value {
      type: DT_FLOAT
    }
  }
  attr {
    key: "value"
    value {
      tensor {
        dtype: DT_FLOAT
        tensor_shape {
          dim {
            size: 40
          }
        }
        tensor_content: "\023l\232\276\335\246\341\276\315n\334\276L\306\334\276%[\364=t\352B\275S\250\"\276\270+\303\276\033g\316\276\222\367\332\276\203P\"\276\020\246\211\275,i0\276\005\262\032\275y\034\270\275\000<w<\316\276\342\276\342\027\345\275\330\307\260\275<z\326\276`\024\334\276\017\022\223<\337`\322\276\367\373\037\274\3075?\276_h\252\276\000/\017=\2129\236<X~Z\276\243v2\275\255\r\033\276\347B=\275\242\r\314\276\267\274\354\274^\315\"\276N3\315\276\276\302\020>]\302Q\276Q]\317\274\347\206\311\276"
      }
    }
  }
}
node {
  name: "conv1/Conv2D"
  op: "Conv2D"
  input: "XXX"
  input: "conv1/Const"
  attr {
    key: "T"
    value {
      type: DT_FLOAT
    }
  }
  attr {
    key: "data_format"
    value {
      s: "NHWC"
    }
  }
  attr {
    key: "dilations"
    value {
      list {
        i: 1
        i: 1
        i: 1
        i: 1
      }
    }
  }
  attr {
    key: "explicit_paddings"
    value {
      list {
      }
    }
  }
  attr {
    key: "padding"
    value {
      s: "SAME"
    }
  }
  attr {
    key: "strides"
    value {
      list {
        i: 1
        i: 2
        i: 2
        i: 1
      }
    }
  }
  attr {
    key: "use_cudnn_on_gpu"
    value {
      b: true
    }
  }
}
node {
  name: "conv1/batch_normalization/gamma/Initializer/ones"
  op: "Const"
  attr {
    key: "_class"
    value {
      list {
        s: "loc:@conv1/batch_normalization/gamma"
      }
    }
  }
  attr {
    key: "dtype"
    value {
      type: DT_FLOAT
    }
  }
  attr {
    key: "value"
    value {
      tensor {
        dtype: DT_FLOAT
        tensor_shape {
          dim {
            size: 40
          }
        }
        float_val: 1.0
      }
    }
  }
}
node {
  name: "conv1/batch_normalization/gamma"
  op: "VariableV2"
  attr {
    key: "_class"
    value {
      list {
        s: "loc:@conv1/batch_normalization/gamma"
      }
    }
  }
  attr {
    key: "container"
    value {
      s: ""
    }
  }
  attr {
    key: "dtype"
    value {
      type: DT_FLOAT
    }
  }
  attr {
    key: "shape"
    value {
      shape {
        dim {
          size: 40
        }
      }
    }
  }
  attr {
    key: "shared_name"
    value {
      s: ""
    }
  }
}
node {
  name: "conv1/batch_normalization/gamma/Assign"
  op: "Assign"
  input: "conv1/batch_normalization/gamma"
  input: "conv1/batch_normalization/gamma/Initializer/ones"
  attr {
    key: "T"
    value {
      type: DT_FLOAT
    }
  }
  attr {
    key: "_class"
    value {
      list {
        s: "loc:@conv1/batch_normalization/gamma"
      }
    }
  }
  attr {
    key: "use_locking"
    value {
      b: true
    }
  }
  attr {
    key: "validate_shape"
    value {
      b: true
    }
  }
}
node {
  name: "conv1/batch_normalization/gamma/read"
  op: "Identity"
  input: "conv1/batch_normalization/gamma"
  attr {
    key: "T"
    value {
      type: DT_FLOAT
    }
  }
  attr {
    key: "_class"
    value {
      list {
        s: "loc:@conv1/batch_normalization/gamma"
      }
    }
  }
}
node {
  name: "conv1/batch_normalization/beta/Initializer/zeros"
  op: "Const"
  attr {
    key: "_class"
    value {
      list {
        s: "loc:@conv1/batch_normalization/beta"
      }
    }
  }
  attr {
    key: "dtype"
    value {
      type: DT_FLOAT
    }
  }
  attr {
    key: "value"
    value {
      tensor {
        dtype: DT_FLOAT
        tensor_shape {
          dim {
            size: 40
          }
        }
        float_val: 0.0
      }
    }
  }
}
node {
  name: "conv1/batch_normalization/beta"
  op: "VariableV2"
  attr {
    key: "_class"
    value {
      list {
        s: "loc:@conv1/batch_normalization/beta"
      }
    }
  }
  attr {
    key: "container"
    value {
      s: ""
    }
  }
  attr {
    key: "dtype"
    value {
      type: DT_FLOAT
    }
  }
  attr {
    key: "shape"
    value {
      shape {
        dim {
          size: 40
        }
      }
    }
  }
  attr {
    key: "shared_name"
    value {
      s: ""
    }
  }
}
node {
  name: "conv1/batch_normalization/beta/Assign"
  op: "Assign"
  input: "conv1/batch_normalization/beta"
  input: "conv1/batch_normalization/beta/Initializer/zeros"
  attr {
    key: "T"
    value {
      type: DT_FLOAT
    }
  }
  attr {
    key: "_class"
    value {
      list {
        s: "loc:@conv1/batch_normalization/beta"
      }
    }
  }
  attr {
    key: "use_locking"
    value {
      b: true
    }
  }
  attr {
    key: "validate_shape"
    value {
      b: true
    }
  }
}
node {
  name: "conv1/batch_normalization/beta/read"
  op: "Identity"
  input: "conv1/batch_normalization/beta"
  attr {
    key: "T"
    value {
      type: DT_FLOAT
    }
  }
  attr {
    key: "_class"
    value {
      list {
        s: "loc:@conv1/batch_normalization/beta"
      }
    }
  }
}
node {
  name: "conv1/batch_normalization/moving_mean/Initializer/zeros"
  op: "Const"
  attr {
    key: "_class"
    value {
      list {
        s: "loc:@conv1/batch_normalization/moving_mean"
      }
    }
  }
  attr {
    key: "dtype"
    value {
      type: DT_FLOAT
    }
  }
  attr {
    key: "value"
    value {
      tensor {
        dtype: DT_FLOAT
        tensor_shape {
          dim {
            size: 40
          }
        }
        float_val: 0.0
      }
    }
  }
}
node {
  name: "conv1/batch_normalization/moving_mean"
  op: "VariableV2"
  attr {
    key: "_class"
    value {
      list {
        s: "loc:@conv1/batch_normalization/moving_mean"
      }
    }
  }
  attr {
    key: "container"
    value {
      s: ""
    }
  }
  attr {
    key: "dtype"
    value {
      type: DT_FLOAT
    }
  }
  attr {
    key: "shape"
    value {
      shape {
        dim {
          size: 40
        }
      }
    }
  }
  attr {
    key: "shared_name"
    value {
      s: ""
    }
  }
}
node {
  name: "conv1/batch_normalization/moving_mean/Assign"
  op: "Assign"
  input: "conv1/batch_normalization/moving_mean"
  input: "conv1/batch_normalization/moving_mean/Initializer/zeros"
  attr {
    key: "T"
    value {
      type: DT_FLOAT
    }
  }
  attr {
    key: "_class"
    value {
      list {
        s: "loc:@conv1/batch_normalization/moving_mean"
      }
    }
  }
  attr {
    key: "use_locking"
    value {
      b: true
    }
  }
  attr {
    key: "validate_shape"
    value {
      b: true
    }
  }
}
node {
  name: "conv1/batch_normalization/moving_mean/read"
  op: "Identity"
  input: "conv1/batch_normalization/moving_mean"
  attr {
    key: "T"
    value {
      type: DT_FLOAT
    }
  }
  attr {
    key: "_class"
    value {
      list {
        s: "loc:@conv1/batch_normalization/moving_mean"
      }
    }
  }
}
node {
  name: "conv1/batch_normalization/moving_variance/Initializer/ones"
  op: "Const"
  attr {
    key: "_class"
    value {
      list {
        s: "loc:@conv1/batch_normalization/moving_variance"
      }
    }
  }
  attr {
    key: "dtype"
    value {
      type: DT_FLOAT
    }
  }
  attr {
    key: "value"
    value {
      tensor {
        dtype: DT_FLOAT
        tensor_shape {
          dim {
            size: 40
          }
        }
        float_val: 1.0
      }
    }
  }
}
node {
  name: "conv1/batch_normalization/moving_variance"
  op: "VariableV2"
  attr {
    key: "_class"
    value {
      list {
        s: "loc:@conv1/batch_normalization/moving_variance"
      }
    }
  }
  attr {
    key: "container"
    value {
      s: ""
    }
  }
  attr {
    key: "dtype"
    value {
      type: DT_FLOAT
    }
  }
  attr {
    key: "shape"
    value {
      shape {
        dim {
          size: 40
        }
      }
    }
  }
  attr {
    key: "shared_name"
    value {
      s: ""
    }
  }
}
node {
  name: "conv1/batch_normalization/moving_variance/Assign"
  op: "Assign"
  input: "conv1/batch_normalization/moving_variance"
  input: "conv1/batch_normalization/moving_variance/Initializer/ones"
  attr {
    key: "T"
    value {
      type: DT_FLOAT
    }
  }
  attr {
    key: "_class"
    value {
      list {
        s: "loc:@conv1/batch_normalization/moving_variance"
      }
    }
  }
  attr {
    key: "use_locking"
    value {
      b: true
    }
  }
  attr {
    key: "validate_shape"
    value {
      b: true
    }
  }
}
node {
  name: "conv1/batch_normalization/moving_variance/read"
  op: "Identity"
  input: "conv1/batch_normalization/moving_variance"
  attr {
    key: "T"
    value {
      type: DT_FLOAT
    }
  }
  attr {
    key: "_class"
    value {
      list {
        s: "loc:@conv1/batch_normalization/moving_variance"
      }
    }
  }
}
node {
  name: "conv1/batch_normalization/FusedBatchNorm"
  op: "FusedBatchNorm"
  input: "conv1/Conv2D"
  input: "conv1/batch_normalization/gamma/read"
  input: "conv1/batch_normalization/beta/read"
  input: "conv1/batch_normalization/moving_mean/read"
  input: "conv1/batch_normalization/moving_variance/read"
  attr {
    key: "T"
    value {
      type: DT_FLOAT
    }
  }
  attr {
    key: "data_format"
    value {
      s: "NHWC"
    }
  }
  attr {
    key: "epsilon"
    value {
      f: 0.0010000000474974513
    }
  }
  attr {
    key: "is_training"
    value {
      b: false
    }
  }
}
node {
  name: "conv1/batch_normalization/Const"
  op: "Const"
  attr {
    key: "dtype"
    value {
      type: DT_FLOAT
    }
  }
  attr {
    key: "value"
    value {
      tensor {
        dtype: DT_FLOAT
        tensor_shape {
        }
        float_val: 0.9900000095367432
      }
    }
  }
}
node {
  name: "conv1/BiasAdd"
  op: "BiasAdd"
  input: "conv1/batch_normalization/FusedBatchNorm"
  input: "conv1/Const_1"
  attr {
    key: "T"
    value {
      type: DT_FLOAT
    }
  }
  attr {
    key: "data_format"
    value {
      s: "NHWC"
    }
  }
}
node {
  name: "conv1/Const_2"
  op: "Const"
  attr {
    key: "dtype"
    value {
      type: DT_FLOAT
    }
  }
  attr {
    key: "value"
    value {
      tensor {
        dtype: DT_FLOAT
        tensor_shape {
        }
        float_val: 0.8263665437698364
      }
    }
  }
}
node {
  name: "conv1/Const_3"
  op: "Const"
  attr {
    key: "dtype"
    value {
      type: DT_FLOAT
    }
  }
  attr {
    key: "value"
    value {
      tensor {
        dtype: DT_FLOAT
        tensor_shape {
        }
        float_val: 1.370924472808838
      }
    }
  }
}
node {
  name: "conv1/mul"
  op: "Mul"
  input: "conv1/Const_2"
  input: "conv1/BiasAdd"
  attr {
    key: "T"
    value {
      type: DT_FLOAT
    }
  }
}
node {
  name: "conv1/mul_1"
  op: "Mul"
  input: "conv1/mul"
  input: "conv1/BiasAdd"
  attr {
    key: "T"
    value {
      type: DT_FLOAT
    }
  }
}
node {
  name: "conv1/mul_2"
  op: "Mul"
  input: "conv1/Const_3"
  input: "conv1/BiasAdd"
  attr {
    key: "T"
    value {
      type: DT_FLOAT
    }
  }
}
node {
  name: "conv1/add"
  op: "Add"
  input: "conv1/mul_1"
  input: "conv1/mul_2"
  attr {
    key: "T"
    value {
      type: DT_FLOAT
    }
  }
}
node {
  name: "pool1/pool1"
  op: "AvgPool"
  input: "conv1/add"
  attr {
    key: "T"
    value {
      type: DT_FLOAT
    }
  }
  attr {
    key: "data_format"
    value {
      s: "NHWC"
    }
  }
  attr {
    key: "ksize"
    value {
      list {
        i: 1
        i: 5
        i: 5
        i: 1
      }
    }
  }
  attr {
    key: "padding"
    value {
      s: "SAME"
    }
  }
  attr {
    key: "strides"
    value {
      list {
        i: 1
        i: 2
        i: 2
        i: 1
      }
    }
  }
}
node {
  name: "conv2/Const"
  op: "Const"
  attr {
    key: "dtype"
    value {
      type: DT_FLOAT
    }
  }
  attr {
    key: "value"
    value {
      tensor {
        dtype: DT_FLOAT
        tensor_shape {
          dim {
            size: 3
          }
          dim {
            size: 3
          }
          dim {
            size: 40
          }
          dim {
            size: 80
          }
        }
        tensor_content: "I\236\316;}E2=\342\037/\273\\\031\227=(%)=\004\341\202\275\234\341\315\275tm\243=\260\\\006\276S\364\201=\246e\230\274\317k\004\273\302\007\355\2744\374\223\274\001z\036\275h]\247\274\020\253\\=\312L\037\276vVF\275\371O\235\273\243r@=AC\006<si\233\275\235\342\301=\306DR\273Jz\204<\222\314\205\275\314\002#\275\031U\017\274\244(\221=\032\321{=%\345\260<-\333\243;\333\034Y=A\0137\275\351\3737;\r\241\317\273\364|Y\275\367\305h\273*^,\275\257\005K<d,.<\032q\213<j\257\224<JS\346;0Y\203\274\\S\252<\272\377\244\275xj3<\nD\326\275\274\0147\275\371\026B=\210Q\"=B\252\221;\2202\375\274\017{\036<\372\255\005\275\332\247\006\276\233\326\2129\t)o\275\352`\252\275=,\363<\225M\303\274+v\207\274\032\365\343\273\265\246\035=\367r\t<j\331\251\274Z\271\221\274\205\224X=\000\250\017\276\300\346\316\275\246c\\<W\307\217\275\236\373\206\274\374\377X\275.\210\010\274~\210\013\274\226\265\252<\272\253\277=Y*N=\346\366\035\274\267^\337\275\364H\315\275d\320\204<\224\020I<\270\322\234\274\32284>\333\312\001\275\235A]=\360\353!=\375\004!\274\352f\030=\243\312Z\275\017\034\177\275\'\2544\274\371\361\340\275\327\343\211=\371\251\030\275\305i\207\274[`a=\221\032Y=\275\177&\275w\030u=(\372;=\204h\266=o\264\250\274\314\376:=C\254\334\275\353\203\230=\204:\217=\226\207w\275\211m\311<\233b\245=h\000\010\275\326\331\302\273\315}\261=\234\377\344=\234X\370\275\211I\250<\r3\2228\264\271\243<\365\037l\273p\304\030=:\206\265=\330\244y\275\304\007\327\273\031\333\232\275L\350\334\274\013\024\177=\032o6=\314\\\316=\330Q\003\2765\201\343\274!\177\246=\335\357l\274;\014\330\2758\355U<^\213\347\274\276\316\306<\222\014\237<\320\0132=\031R\021\275*w.;\362x\036<\245\355\313\274\344/\210\273T\351\256=\264\233\342=|\307\235\274\234i\243;\017\200<=\341\322C\275\365\t\217=\330g\032=C*\270\272\370\366y=S\363\227=\250\243\262\275\005\320\330\274\352N\351;\373\034\032=\017_\030<p\\\342\273Ta\236\275\220\rJ<\201-\030<6\366\355<)\221\271=lC\202<\227\330\230=\321)\014\274Y\256g=.\325>\275\304lM<\365\211\220\275\220;#\275\016TY<\200\332\360<!\275\300\274X\365\205\2751i\243<\227\307\032=\317\026(=\220\030 \273\343\r|<\030\267\001\275j\316\002;\323\351\341<x\354l=!u\375\272\236gZ:+\344\032=\262\352\014\275\266\373\247\274\216C\357;\305\303\346\275\3116X=\211\322@<i8<;\260\262\035\275\3378\342;\202j\260\274k\027\361;\263\257v<\224\315\261\274<1K\274\014\317\211<\244=\364<A\255+\275\345\314\222:bJ\3459f\177\302\274\202\200\314<\365\2338\273\221\267\244\274\354\313S<\3545\036=\364\262\325\274gY%<V.\242<\026\000-=i\353\254\274E3\276\274\322e\253<\020\357(=\227\311\327\274\2547\316\273\000\264^<\276}\261\273~\307\251\274\265\361r<\250A\247<\221\314\211\273\'\334\006<\037\217$=\372\363Z\270\233\257x\274*\n\271\274\374\310\024\275\241eP<@\ro\275-\000=\275\320(\013\275JJ\202\274\020j\226=\270\245\032\274\272r\204=\246\013M\275\014\304$\274\325\343w\2756\371\307<7\334n;\332\334\223\273n\233\226<\337\217d=\334v\201\275Ye#\275d\224H\275\355\243\246=\304<\277<\351|\257=v\343\301\274\366\252S\275\177q1:\3453\212=\234k\r\275\026.\220=\235\010\254\273n_\314<5^\251=\004$\000\276\362\257;=<\361\276<\377\376s\273\232<w<\261\256\"=\265\230\r>\241\323\364\275\332U\206\275n\222\253=B\235;<\231o\217=\324E\016=\000\031\177=\222\3264\275\020`\220\275\002\np\275\3358\251\275\3171\274<=\033\302<\023\0148=\220\205v\275u\344\346=.\030\020=\014\365W<\221\370\271\275/\250c\275\260\322\270\274\361@\373<h\246\306\275\201m6<\216\001g\273p\025\022=#\020\340<\354tv\275\360;_\275\331#\356<\214\310\265=\345\016*\274\026\023g<Kx]\274\226\232\371\274\213\352\323<\0373J\275\037\211\201=\251\\\362<2\270\207<7]\365\275R\333\222\275u\017\343\2725\303D\274\251\n\326\273\373\202\310<\311\t\213\275W\332p=\217\033\265=!n3\274\22296=\365\270/\275S\376\205<\301\333K=\005\027&\275\003\210\246;1\312C\2754(\t<\224\3634=\200u\004\275\262\033\301<\315V\030<\262}t\275>\250#<\366\277\237=\002>\320\274>a\036\275\236\261\313<\323\"\021\274wM\210=\320B\346<`#c=\322\035\240\274\327r\213\273\212\354e;vR\267\274\034%8\275=v\313=\307_d;\"G\016\273\333\257X\274yj\222\274\022]\211\274\261\371\203<\200@\224\274\027\221\351=m%\244\274x\\\307\273\301\344a=\353\273\022\275\366 \243=\334\374&=\205nC\275\237))\275\344\336\235<FF\362\274w\254\370\274\327\004Q\273\020\231\005\275\321ZH=`/\020=\242R\270\275\0142\340:\216\215\345\275\002\323\215<rQ,\274\277Z\356<\375\315p\275l\376\315;8o\224< \227\232\274\204\300d\274\211\022\035\275!\375\271\274\267\356\356<k`J\274[\335m\274\223*)<\314\274T\274\342\222\272\274>$\364\275\016\363h= \246B\275\377N\372<\300=u;\264\333\365<`$\023\273R)\341\271\252\307\221<\2055,\273\336;\223\275\373!\327<\243\373\317<U\260_=i\013f\274\006\243\363<\005L\373\274\315\004\023<\265\221\356<\032\204&\275\326#\306:\227=W<5#\201\275\271\334\272\273\257\374\350\274OH\345=\277Q\217\275\314\247\201=\252\356w\273\032!\211\275^h\224=\321\264\221\2751\232%=`R\245;\256C\010<\311:J=\255`d=l\352\305\274SD_\275[\275=\275\337D#\275[\317O<\224\005\036\275\240\350\014<\300Ou\274Ve\025=!Ff<\312\325\210\274t\357\036<\213\020Q\275k\307>\275\276\352\344\273\222\311\226:U\205\267<\007\003\n=\263Gd=\004j@<\221j)<*/\256\273\254Do\275\007r\0049N0\020=Y\202\023<\023ox<\255Z\203\274\310{\245<\032\032\273\274\026\302\307\274\3663\275;\0234C=\301\0267\275\017\036v=\274\336\335\274\251\032\217\275\225\376\355<\\sc=.\367Y=\366\341\225\273\354\254\033:N\027_\275\364\344\226\275\177\217\335\274X\201\020\275N\360\240<+\336\277\273(\354\016<#{\005;Q\361\315\273F*\"\275\242\020\334\274|\367\217\274&LL\272\025N(\275\r\237\003\275\363\250\000=`S\374<\222\013\225\274\007j\032:\372]w\272/>\350<\323\207\023\275Vl\341\274\300\224\204\274\261JS\274\376Y\302\274\037=\014\273\302\263\343\274,\302c;\271-<\274\232T\247<r\303\331<EJ=;\240\232\210:3\220\311<\005\037\016\275K\275\024\274\021u\027;4\321\311<\212b\276<\213\007r\275\273\305\302<8\223\327\274\247\261\246<\003x\220\273\334\265\246\274\321\272\320\274\334\374\372<N\230\327<\232\307\262;\212\224\260;\020q\200\275\n`\233<\250\032\033=n<u\275\245CH=\217\227$\272\375\222\021\275\034X\200<\343\345\227<\365*s\275\352=\270;)\305>\275.\317\020;\031\321^=\363S\352\274xar<\255b\\\274\343\254\325<0\201\210<\215x\377\274#\246\243\274\201\327\036\274SS\003=\007$\017\274<\315?<\243X\013=yu_\274\326o\250<\354\3442=\211r\325<\227\362&<\324\225\r\275\322\300v\274\256\214\221<KV\020<\250>\331<\215\025\220\274\233\305|<b<r<\313\317E=\350\203a=N\256\014\275+m\300<\377\263!<\224]d=D|\302\275&\230P=\336\260\020\275\023\315\376\274\206\200\324:\277.\000=\214{p\275\367\323\200\275\253\301\204\275\237\376f=\325\371\257=\322\307P:w\254A<V\311\356<\347\020b\275G\204\347\273\006\210\253=\032B\203\272\374\340\354<3\010!=\335\231h\275C\030\204<M\365,=t\301\316\275\277\326\371;/\352\2349\341\236X\274#\335-\275\305K6\2743=,\275\263+]<X\240\00289\026\273<\371\303\302\273\303\351\360\273\307\335\021=\233-\265\274\314\034\332<\340\217\205;\345~\251<\317Xs=0\247\006\275\276\345?:s-\313;\337\346\223=\325\3374\275\266\273\347\274\310\252X=\3751\020=\330\323\324\273\275\300\337;\323\352\331\273\334\226\354<\212>\001\2751\341a=\376-l=\217[\016=\260\347L\275\336\233$=\235^*=^\322f<\373\345s<\243\014\202=u\376\367<\316\275\256<T\203.=\023\250\262\274\r\205\250=*D\016\275y\301\356\274w\016\230\275\231\372\307;\277\223\250<\336\271|\275\361 l=\332<\246;\301X\252=\212H7=\374+\262\274d\n.=XE\033</\007\273;\344}\005\275\027N\003=\273T\303\275;i\'\274\352\327\264\274\260\352\2129<\013\254<\227\"\322\274\344]*\274\320\256\003<\335\221^\275\277\002\234\275V/ \275\317\254X\274\361\266\026>\376\'=\275\317hu\275\257\304\030\275@\356\327<\235\304,\275\017Y<9\204\225-\274\333\366;=]#\234\273\263F\265\274a\332\2119\230J\306=\337ul:(A\326=\262s\213=\217\347\003\275\274_\215\275\271\212\"\275U\236\n=HH\021=\363Z\t\275>\005\234=\303\343\207\275\031\242\244\275(m\335<\356>Y=\214\211a\274{04=\357\016\'=!/w\275ho\317\275\222\037+=\3001\r\274]\223\"\275\311W>\275\330w\312\274\370\333\006\274N \276\275\256\310\365<f\230h\27580\002\276qmi\275\001\276\214=0\3042\275\0327s\275\354y/=\032\235a\274\251\236C<^\210\016=t\274\242\273\320\333\311<\314\241\230=\357\256\301\273\223\2762=\315\264\356=\226S\336<,\377-\275\214\225-=\345\036&\276\3464\272<]\364#>\2611\223=\301\350\373\273\252\r\205\275\270\247\243\275f\326-\274\210o\007={\004\014\276\007K\004\274\0056\036=q\222\313<Z\3436\275\356\363U\274\3743\302\275\037\311\335<\013\337\314\275\177X\231=/\031\320\275(\n\227\275;\034\277=x\020\205<\216\034\312\273\3024^=\277\317%=\353N\n\275j\010\030\275\'w\223=|\307\r>\243\022U=\000\375[;\273P\"\275\345V\007=u\370\325=\357\006\236=\372\315\216<6jH\275\325*J=\002`\n=\363\277\355;\"\336\237\275k\224\305\275+\263\025\273\230\370\273\275\223\337\201=\214R\374;\216\231\270\275\r\265V\275\0206\212\275\004{\276\275^F3;R\350\366\275(\240\021=\254O\242\275qM\031=\345\223\211\274m\306\260<\253\370\025;\377\351\213<\000!\210=\200-\262=U~\001\2767\362\016<\027\314\263\275\217\302\204\275EO`=\366|\263\275\357\245\352=\345\315\261<~\013O\275\303\244\020;}\361&\275\000\261D<\025\301M\273\330y\034<\377\003A\274\376\265\207\274\347&\317\274\277s\372\274%\244\006\274$\322\330;\304x.\275\221\276K\275A\337\007=\322\343\013=\240\360R\274u\204$<\304\234N\274D\265F=\274>8\275Z\215\331\274lR\207\274F\270M\274*\373\367\274\354\263\231\273\375\3530\275\226s\377;l2\214\274\223\227\313<\016D\013=\224\374\207\273\352\340\370\273\345\262\224<:\\8\275\224\237G\274t\254+\274\022D\265<\223\036\021={y\221\275\322v\363<\373\300\007\275\242T\002=\"\330\014\273OeI\274\364f\276\274r5\014=\024\355\344<:x\023</\310\033;#\266\231\275t#\356<\030\246-=\334\201\205\275q\330W=-\272\235:\207e\003\275\317\230\314<\323Y\203<\027\260e\275h\314*<Gu\017\275l1\000<\233}4=GZ\232\274\236\333\037=\021\340\314\274\201\247\025=\210\357#<_F\310\274\214\214\305\274\022\254\210\274\371\\\'=:\212k\274\356\324\216<W\0378=\213\235f\274jE\273<\254\231N=\032\331\273<\207Yt<Q\352\037\275\362T\006\275gP\220<+\337\235<\251\212\265=\031\353 \274O\2677<\346\212|\273\t\007;=\227`\326\274\'0\330<\035\227#\274\337\256v=\317\361\035\275,w*<7dL\275dU\264<R\373\005=\032\301\'\275!$/<@lO;K\217\036\274\035\251\274<;Dm;\207p@=\225$\333\273f\366\223=`\3518<a\223\316\2736X\304<\364\272\336\273\343i:=\234\200\3549G\316P:\007.Q<\"]\t=G |<\021?A\275\264\3300\275\325f\262\274\214\312\000\275h\307\002\275\364zT<\221\251\200<e\246\200;\305\n3:\371d/<\310\001Z<W>\340\274\013\316\243\274\300X<\275m\007^\274-C\016<P\033Q\274\256\241\231<\274\375\255<\246\330\341\274\006<\315<.\311\301\274!Fp\274\017V\024\274\014\332d\274\272\374]\274DF\232\274,\272\214\274\247\210:<\216\001\010\272\023\362\223\273\016(\312<\231\375\337\274\236\305\302<;\377\263\2743{;\275\262\337\232<\317\251\035\274&=\035<\310\007-\275Yd\022\275\250\320\3019\351\252\216\274>\302\'=\352g\363\274\035KF\274M\'\037\275q{\210\274\177\226\031\275rB\253\274g\335\t=MT\346\274{\353\014=\013Y\230;U\265\320\274\240\310p\275m40<\231\017\311<\353E0<\007++\274\010\357\224\274Khz=\302\003\347\274\026\001\307\274\335\325\201\275\237\353\266\273lo\262<r\351\001\275\324\034\223\274\376\277\245;R\375I\275%J\006<^\340\375<\016\211\032= m\223\274\341\036\232\273\2070h<\367\246t\275\005\321w\274\007\233\240=\352e\374<\003$@\275\207\322O=#\260\220\273\333\345\253<1\204\300;\360|0\275\217\2336=C2\337<y]\023=\243\303<=q&\211\273\204\257U;\304\240*=\212\256H<{\204\r\2757\223\354<\246\301x\274\237\302\320\274\027\007\034\273\326\306\347\273l\326\036\275\335\311\357<\277i[\275\211G]<(w\204\275\014\240l<\037\366,=\335\354\367<0\247\220<H5\345;m\364\267\274Wm \274\022\375\020\275Y\020\021=xm\303\274\211\364\034=RR\342<\177t\223\274\341!\351<,\302\204:J\263\343<\345(C:\227\030\373\273+-@\274\205\357\332<\037\242$:LH\254\272\264\2046<\307\307A\273\270H\025<j\372$\274Q\2144\275V\253\013=\275\224\242\274(\351~\274\201Ie\274`\001\024=\261\371\020=\302(}\273\215\005\014=X:\252:\2328h<+\035\200:\314\252%\274\235\250\363<.\014*\275?\2025=\032\372=\274\000A\003=\343\334(<.b)\2756\237\332\2749\212\030\275.\341\311\274\246\203&\275k\372]\274\332\354\316\274\001&\212=\204\247\314\274:\005\267\274\343\361\177\273(\216\363\274\357h\335<:\335\003\275\265\2560<)\256\'\275\342:\235\274\352\233\214;\036\332\022=\267\n\214\275\030\376\322\274_\230\r\2741\022\373\274\034\241\310;\243u\"=L2\033<yt\376;\265\345\322;\340D\374\274%D\007\274\346\231U\274\202\013\254\274\237\2438=-.R\274\013\370\021=e\005\204\274\"\364\251<\267\371\377\272\373\232Y\274].^\274\352O\215\274\345\004f<\030\204z<\366N\021\275i\256\340\274Am\300<S\005\227<\304&\212<\310\036\261\274\345\002R\275\221\271A\27520\245<\rO\013\2756\032o\2753Q\375<k1\205<\220i\242=:+y;4c\263\274\023C<\274\246:\2779I?\036<\360\315G\274\034\234\377\273\205(\343=+\323\255\274\374\351~\274JQ\265\273\301\336\022=\344h\\<\265\014\003\275\306\201T=!\222\254<\241\312\226\275\227\210\304\273\335\240\224=\221h\377=\000\316\370\274\024\241\205=\342\2304;$>\r;\313\315`=<\267\324;gU+=\360+*=ah\255=\032\330\374:\316(\244<\311\341\244<\261\\\216\275.\0204\275\311\253p\272[\316H;J\3135\275&\017\336\274\037-\t\273\024\325Z=\032@\033\274B\375\357:\342\372L=\312\337\307\274\000\271\027;\303\305]\274\215\252\327<\250\223\363;\032\214\345<\370\363\361\273\341\200a<\007\377\322\273X\340s\274\252\341\033=\205\243\010\274V\301\226\274\010\337==&\325\376\274\316\353\313<xx\346\274l\313\342<G\232\200<\325?\031<\277\360\234=\355*\r\274xjm=4\237\212<\277\034\034\275\367@\n\274\314\035A=\030\331\351\273\312B\005\275\006\017\341\274c5\343\272d#\022\274\265\231\310<;\304e\275\306\325\260<\343%\332\274\005_\230\274\236=\236;\234\036\225\274=F\207\275 \021!<,\263\027<\3729\004=\212\205h\275\251GG=`\033i=q~\313<\002\027F\275\204;\031\274\340\264O<Oz\203<-i\357\274\356\371\264<\206\010\311\275y\246,<\246\332R=\220\306\257<\252,\005=p9d\274\303\303)\275\'\300e<\307!W=\260\200\335<&z\321;\245\260\225<\021<\263=?\304\210\274\323\332\324;\265\250\217=WV\221\274O\215\330\274\230\335Q=\251\211\014=\332?\226\275.\336\225;&\372k\2757\231\241=@\366\346<b\253S\274\377p\300<Y\017\340\2723\\\363<\207f\234\272\206,\303<\370h\227\275\340\027\312\273\005\224\237\275\337\227G\275F\363\\\274\342\312\'\274A\343\027\275\371\327\344<\001\305k\275\223Q\277<63\324\274\336\356\027\275\261;(\275\025\213s=\236\234g=m\340\007<\315\244\2017p!M\274}!\231;\3527\243=\323\217\235\2745mA=b\315\275<\023|\223\274k\305\202<2I\225:|\212\016=y\252\032\275{\021\205<\326r[\275\276\221[=\355\274\315<\035d\033=\016je\2759\022U\274\006l4\274\034\003\017=r\251\263<\257\206\326\273\nf\037=\256J\344<\376u\251<\270#\230\275\253\002F\274\007E\025\275*\314\356;:\327\266\275\200O\r\273@$\312\274mh\232\275T%\213\275\260@\217=.\233\334=b\372\214<\365\031N;c\251\207=\306\226\016\275\032!w=\206\017];.R.=\275\264\235;\rD\214;\301>\276\274^\351F\275>,\336\275\023\355\'\276\201\220\316\274|\023\305\273\177/\031=\234*M\273\344\264]\274\273~\242\274\025\032\005\275\353\350P\275(\241\375\274*_\221=\211\210\365\274.\267\245=S\260\267\275\352\300<\274W\024\324\273\305=D<\312z\211=\030:\210\2759\263e\275\274/\300\272F\216\303\274\316\323\350\274\253\030S=\034\207\230=\307\345\311=)\274\260\275#\3114=\206\003\271\274\274\223.\275\237\333\242\275\353|\002=\356\333j\274\013\273\252<b\317\260:\r\204\265\275\353 T<\304[k\275\373\225\206;\302\344\177\274\247\265\243\274\325\214V\275\363\317\r\272)\024\333\274\001\256A\275\3179,=\201^\006\274\332\001\035=*\225\235\274\356$\016=\367\007\261\274\003\002\001\274\021\310\320;IM\030<\351\004e\275+5\311\273\021wG<66\326:\257\177\005\275OF\322<\0107\023\273\302\275$\273k\327\300<K\374\024\275\356^M<W\361\226\272\332&\262\274\212\360\314:2B\326\273\246\360\216=\373!\250\272\325\254\206=7\320\301;\023e\001\275\177\025\2337\354\267b<\214o\177\273\334\267\350\274\3106[=j\317\250<\004\r\034\275cX\222\275Kf\305\274\204\226\350\274PW\257\2737\234Q\274\3306[9+[\211\275q\246\336\273E\332p=\302\313b\275\310\\\210\274\016GR\275\212\177U\275\223R\014=!\275\356\273\245\036\r\275\255N\202<\201N\325\274\311\266\203\275\001\236[=\357n[\275\266:&\275\331{e\274\374\223\006\273M\263\264;\335\337\244\274\350\303\251\274\372\351#\273\325\244\227\274\224\2510<\025o\263\271\32683<\361\361\341\273|\000(<\370q\213\274K\271\233\274\\m\347<\r\002\201<\262\256\353\274\272\357\205\275\211\212|<Yr\376<\363\246\327;5\235\360\274\310\372 =X\245\343;\224}\223<\377\030b\2742\036\025\274\314\005\264\273\241\313\303\274\237\237\n\275\363\361\206<\356\006>\275\215\306\306\271\215\221U;e\305\252;\021\025 =(\003\277;vVI<n\316\325\273\366\032\231<~\216\020\275\365?c;\261\342\364<\242\274\r\275o\2222=\220\270\233\272\324\266(=\031vL\274\261\010\006<\311F8\275g7\336\274\3275\207\274Cbe\274\271\3166<i5X\275\013=0=\310=N\273\340X\305\274B\254\351\274\226\207\220\274\330%\257<\3777\330\273\001\201\232\273\330\251P\275\035id\275\245\350\371\273\325d\216=\346u\220\275\353\377\342:\363DF\274\213\313`\275*\334G<\\\375\353<d\rh<\313\300\346;\004\205\245\2748ll\275\201G\220;\221\027\354\274\311\022\023\275\375#\260<\"\214\004\274\203O\372<\221\312~\273PYB;\205P\221<\023|\363\273\230\345\314\2735\262)\274\017\233\032=t\370\t<\2466\016\275%\211\236\274\266\207\213;7\331\223<\217\025$:L\n;\2712Y\206\2751\343\220\274>iy=\t\236\001\275\027\004\326=gE\213<\220\274\321\274w\236\235<%\367\\=\321\\\242\274d\200h<\327\325\246\273\262\323\274<\023R\017=\3428\r\274G\370@=\267\245\203=\273q\032\275%\017x\274\326`\010\275qf\"\275\216\221\243\274\267sT\275\010\206\205=\275\333\272\274\004[w=PD\213\275\215N\020\276!KI=Ti\t\275i\205\310\275\326)\222=P\0161\273q\360\231<\353\363\314;D\027j\2758\204\"\275\364:O=\217=\271\275C\2024<o\330\302\273\313 \267=\251\203\337\273\023[b\274\205\223\310\274\355\n\245=t\304y\275L\316\373;j\377\313=N\222W\275\325\354\251<^\260\r\275\321X\276\273,P\031\275\2222Y\273v\201;=3\242\366\274\024f;\275\341\275\364=r$!;\350\203\004=\334z\'\275(\315\220<\352\316\232\273\317A\351\275\271\177\245=}\253\206<G\214h\275\'\261e;\206\307\202\275\032\213\033\2758\363\200\275\372\r\215=\306\030{\273V&\005\275i\214\257\275T\232\212=\337\242\304\274\341H\234\274#\324\245<so\025\274o\304\177<\340S\t\275\364M\025\275\204d{\274\233\353\247\275P\224I\275\215U\272\274O\r\215=\222ql=Z,\036\275\177\271!=\335E\n=x\021B\275\227I\320<\324\017<<\334\213\241=\0074+\275\034\243\201\274\003\213\320\274s\256\t\275v3o=\257\006\240\275\354\n}=n\010a\275\231T\306=f>w\275N\310\t<\212D\225=Pc\232=\002\022.=\323T\\=\233>\001=L\263<\274\242\317/<\205\236\334<r\377\330=\0264\363;\251\345b\275\343+*\275\022\354\001=yG\332=1Z\277\275\3525[\274!\324[=dK\022=j\337(=\255\205\206<\331\356\252<{A\273\274aYL\274:\3751\273!\230\204;\'>\223=\357\250\217\275\2760\225<\000\224\352;\023\321\235\274\352\004\024=\345\304\247\274M\243\212\2737\250\003>!\365l=\006\311\245=/k\030\276]XC:\034D\305\274\307\224\237\275H\003\304\274\020f\036;vJ\250\274\240\305\357;\253\352\033=K\300\230\274g\3164;\320V\352<I[\346\275\325n\314<D=@=\370u\026\275\023\354\023<\324\205\232<\226\243\220\274W\016,=\'\310\204\274\336JH=\265G\340\273\214\216X\275\346o\320;\234_\017=\373\222P=\206\365\346\274U\200&\275\023\274v\275q6\360<\275\277\366;\366\353\023=8q\221;\026\022\033=u\215\312\274K\255%<e\206\354;4\231\223\272S\r2\274\271\350\253\275=\247r\274\204\020=\275\227rA=)\3106\275C\333\332\273\310!]\274\252\205\201:\032\335\213=\236\0144\275\277tl\275\322\253z<\324\\\216\274u\2555\275\205\314\274\274p\re\275H\261\206\275lt\271:\344V\007\274\013q\350<\354\027\257\273\327\375\273<\260u\255\275ye-=\301>\344<\363j\007\273\324\231\020\275\206-\233\273\206\350B<\240w\020\274\224\013g<\367\261\025<Y\253p=\267\233\273<kE<<\341J\247\273.\357h\274\3707\311<\260\247E<\376\021\377<\222_<\273[1\316=\341\030\304\274p\023p\273\'6\013<L:\200\275\342\333\001=\222\352W\275\3302\322:\371\345\320<c\003?\274\235s\245<\367\276\302\274\035\225\203=\305\332\367<<\244\264<kS\036<K`\244<\327$\227\275\271;\272\275\330\224 <1F\317;\001(\344;Q\222\251<\331\362\027\275\202\035\367<U\345\"\275\016pF<d\210\207<nd\275\275\374\305\243<;\354j=\251\021\333\274m6\032<\000\243\347;\223h\216\275\007\251K\275\362\227\254\274H\344\216<\364\354\225\274\010\225\014\274a\307Q\275\203\225\272=\022\2710=\356\240\202\274p\372\352\274r\271\322<c\207a\275\317d\203<\304b=<\260\3311=\2408T<J\010t=\025 \334<\n\\\375<`\311\220\275U\211o\274\247\326\317\274\003\360\230\273\275\035\031\275\322m\260\273=j#\275\000\r\270:(2\217<\344\307m\275\023<\337<\275\350\315:\270\345\335<6\014\202=\206\247\355\274w\3579=\"\276\306\2739\252\032\275C\000:\273\352x\007<\010\037\217\273\036\366\275\274\351\276K=)v\230\274\260\306\365<\177\343\001\275\004\032C\274\317!\003\274\354]k=\034~!=\216\315\334<\221\n\233\273\256\215o=N\235\266\274\344\002,=\327\341\004\275\251JA\274R\231i<\t\205B=\272X\322<GiE\275\230\255\302;\321\033\260\275\224\206\276\274\033\360\023\275\214\321\000\275=\223(=\275\206\372\274\330>o\274\357S\275\274\024\244\276<\335\220\037=\017\302\365\273i\254\252\271\177\0323\274\374n\2429I#\010\275#S\030=\002\3161\275\020\202/=\320\316\357<\275\232D\274\004\373z=G\202\016=~\232\030\275.^\326\274\320cB\275A#\325:\306\001\037=i\014\017\275\343\230\022=\270\301\271\273KaI=\351\255e=aq\004\275Be~\275&\326\253<f_\377;$\307(\275\013\311\016\275\332zm\275\003\345\211\275\016Y>\275\230\307\325<\021H\237;\036}m<\325\322y;\350\303\200\275\233c\217\2748/\242\2748X\276<\375\\\314\274\366\376\262\274\222\375\342<\366\347\037\275\257\016\352<\274\006\020=U\377\244<]U\004=\277\223\220=\235\216U\275GX\350<&\177\265<\362\235D\275U*|<aq\371;@?\352<!\374\032=\230\013<<\250\277\231<=\353\235\273\253R=\274bN\267\274\377\024\266<\372\243!<\246\246I=Va\023\274\3545\023\275|\024\312<\001\307\245<\364\311\361\274\364V\265\275\010\304m=\375\244\206\274\200@d\275\221\2013\275q\201!=\004Ud;\355\024\332<*\252\342\274\313\251\307\272\\\330\271\274\230J\023\275\353\035\263\274\240_\005=\363f\202\275\020\336=<\367q\262<\365\270D<\374I\213\273!u\007<WE\006\274]p\035\274\237`\347;\333\377&\275=\240h\274\203Ii<\370\337\371\274$\317\225<\356\360\244;\345\312\'=\230\370\313\274@\260*=\034\021\363\274\213@\255\274\0137Y\272\002\025\216\274\252s\213<\254\021_\275\266Zq=ho\234<l\356\324\274\"O\206\275\211\313\275\274P\036\001<\342\246>\2738\030<\274\340\314D\275[/\212\275\275 \025<Y\247\222=\0178y\275\267\3625\273\302\363\337\274I\000\215\275\000}\251<]\330\217<oUs\274^\272\335\273\301iF\275\304\273\236\275\031\260\205<.\372\021\275\222p\301\274\000OO\274Z\306\272;L`\277<w\360\341\273\356\344M\273]B\240<\337\253}\274.P\035\274,u\r\274\215\245;=)\254\216\273\347\014\341:\362\037\304\274r\224\205;\304U\350<\257\342\226;u\335\237<\271\013\217\275L!W\273yQm=Y|w\273O\337@\275b\277\327\275ux\210\274\344\261\200<\371\352\313=\245x\317=\204\005\007\274}\345\202\275\371\276\020>`\370\020\275\365\257\221=\223\211\360<\234D!>)R\257\275\236CQ\274(\332\253\274\362\006\232\275\326\275\306=\251\023\000\273\003\206\033<\002\257\006\276\221U\212<\245V\345< K\037=\273od=\227\266\032<X\036j=\221\211l\274\232\366D=\315\016\335\272\340<\233\275\272+(=Y\272\217=\340\374>\275MN\376\274\324*\334\274Z\027\267\275\272\316\177=\206>\323\274\023l\211=%^\351<\002v\367<\307\223\355;\342O\244=b\340\022=\177\225/\272\224\201\201\274\005+\360\274\215B5=\216\202\212=.\250\316\2736\\N\274\363M\272\275\032\315\257=\340j\275=\211\262\204=\014\205\350\273\340\022%>n|\003>\337\204\374\274\350\207\320\275x\254\201=\214z\253\274\303C\217\275\325\325_\275j^\336\275\0009W\274\203C\321=\353\321\256=\nQ\251\275\371\236^\275\215\007\247=m\275\304\275x\226\237=C\010)=\004\373\276\273\225\332\305<6q\234<2lK=0\2662<\2552\257\272x\232i<\225O>=<\247\220\274\356o\367\274XL\262\274\246\305:=}\'\225\275\271Lz\275]U\r\274\311\305\225\273\001)\216:\001xY\274\030\363\207\274\337\234J=b:H<K\333D\274\016, \275\373\276F\275\275\215F\275`\177;=x(W;\320pd\275\244\025\013\275\251\201\260\2749P\021<\253\030\311<\351r\037\275\010\275)\275\000-\255;@\"\372\273\323(\t\275\376\276E\275\t.C<\224\370O\273c\322\205:\220\005\263\274\2501$\274p\346\274\275\305\364y\275\227\216\253<z\277G<zs \275\203:;\275\261\204\270\2739\250|<\305\222I\274\337\220\032\275\037Vx\274\014\233?\274\205\215!\275\265w\226\274e\212\377\273>\277d\274[21\274c\310\317<\307\243\374\274\227\0314=(\177\340<\336\242\277;c\357\341<\255\312\347<\305\305X<\334\222\177=}-E\2752\234A\275\255\036\231\275\277H\311<B\023(=.\n\207\273\207\341\324\2756\355\212<\200\256(<\033De\275\2773,\274X,\220=\214\346\007<\253\302z\275S\200u\274f\'\237\274\365E\276\274\024\370\374;\274(c\274<\276u=\342Y\317\273\025o.=\310\373\232\274b\202\r=\243\004\336<0\304\234\274\333%\240\274V\262\347\274N^\212\272V\211\232\274s\0012\275\255\"2=\305*\357<\222\250\317<\344\265`<\355\252\207\274\342f>=34N\274\336\'\247<\'\323[<sii\275\276(\375<>\313\200<\247D\320=dl\215;T:\205\274o\254\322\274a{\004=\303\013\235;;\367V;\316p\r\275\2657\247\274\253\351x\2741s\305\274\343w\n=[\251\333\274_\377\177\272_\325\247\273\312P\213<6\357\0149\204\227x\275\304<\026;b\177&\275a\305N\274\217G\255\272\030\336A\274*o\313<\310\006\004\2754\302&;Z\372\2179S\246\034\273\"(\254\274\237E\336<\325\250\261\271`\270O\275M\270.:\037q\204<C\0302\275\341E\030\274\253\342\204\271\225\203\351:\257c6<:\267\216\274\223\233\362;\223^O\274\037\222\271:J\r\204<\244\245&\275\250\232\345\274]\310p\273\247\312\262\274\210\226\257\275X\203\211\275\326\037\272<=\247r:M\273\341<?\276\223\274\302\003\360;\224\021\273\274>|q<A>\276\274\004\'\251\273\330e\321<\017d2\274\211,\207<\353\221\317;}6\277\274\326\331\251\275\313:8<\345\317\016\274\314\374\306<v\016\205<\243?\210\274;\340\223=\251\317\251;l6H\275\366z\240\274\035*\005\2755\247\r\274T3\216<\316\3614\275*\203\t=v\337\006<\215\237S=\227K\267<\223\222\340\274\335\237?\275^9\026<\246\354\323\273P\253\201\275\2451\271\274\004\236C\274\032\313z\274N\343c\275%\3570=\002\222W\272\026\217\301<vUe;|\3570\275F\200\235\2747\027\206:J\2557=\242\n\276\274\201\374\013\274\321\256\005\273\006w\375\274\022\362\001=\326\255\245<\376z\022=8T\276<C[\210<\346\354\177\275\306l\356<c\360f\274]\017&\275\247b\215<\220+\\<\tv\362:9\276\010=C\215\373<\221\257<<.\347\206<t\352C\274\013\026\355\274\226\354\227;Rx\366\273\305\206i=-u\301\274\224jP:\0007\230<\036\006\237:\251&\333\273\3007\213\275\024\231Y=\332\346D=Z\000H\275\345\215\330<L\225\016\275\243A\224\274\232\316\037=\034\232\010=\334\016\221=\205\210\324<\020\013\240<b|\354;\221\300\225\274\371\270\036\272\235\262\276\274(\330\210\274\365\221\223<T+|\275\370,\270<\362B\360\273\323\307\263<\376u\313;E\347\n\275\376R1=\305\200F\274w\253\255<O\226\300\272S\201\211\274p\037\224=\t?\244<\005\332\260=\316\035\332\274\002}\237\274\274\336\326\2749\342*\274\366\340\000\275\010\227\271\274@3/\274\002\373:\274@WO<\320\264\260<U\333\022\274/}5\274\205\307\235<\253\355\t\273\342K\252\2749\203\202\273\306\"r</N\315\274a\017\233\275\004\325\"\275\203\370\035\274\252\313\032\275\2543\034=\217\305\267<\200_9<\246\211\031\274\320\337!\275\261\0370\27540\357<9\3761\274\2126\261\274\347t\224\274\321F\321\274\201b\356\274.\255\326;\216@V\274a\021\235<[M\t\275|\230\256\273\256\002\305\274\223\022\365<\370\325c\275\273t\320\274\177\217\200\274b\345,\274\322)\374\272\334\214X<\207\237\205\274\346\337\006\275\341\005o=\210\261N\273\356\305\202=\256\215\033\275\316\202\310;\010\355A\275M\177\212\274R\311\210=?\321\332\273w<Y=\227\361\202\275\203\000U\273\243\213z\275r\214v=iwA=yq.=A.7\2758\335\270<\341[\006\275)\306\227\275\025\367\221<\325\216\r\273\022\017\235\275Z+\000\273\035e\340\275\234q\221=\0027\275<\233\226\240\273L\2063=&\2552=9\345\200\275\310\311(;K=\'=T\242w=\"\221\347<\307\376\236=.MY\275\234\254\355\273\277\276\014\275\035\306\321\275\262\334N<z\233f\2744\037\210<q\371\367<<\366E\275\325D\223\275\360#\220\275\216\355M;b\247\022\275sl\210\274\241m\260\275\036\251j=$\035\212\275\375[\207=&\376\334<\0325J=N{u=\220\234\027\274z~\236\274${5\275\030\257f<\346\257\024=\303\247\201\275#\313\220=W\354\236\275\344\'h=\331\262\372<F{\253\273\207\344A\275j\2148\275{R\262=\347|\223=\332\261\241\275\021\200\225\274\221J\271\274\317\316\200\274\036\302\023=\003\363\020\275\336\006\230=\303\005?\274\305\247>=\367:\370={kr=\264RX\274\222\010\223<\330\212\325\273\264x\301\274*J\250<\n\367\356<-\245\001;\310\0274=\335%\254\274\036:\275\271\226\254\222<\033C\004\275Z\023\032=\216\263\017\275\223\224\016\275\344\022\255;\3663\202<Y\003\235<\274Ry\27539\016\275s1X=\366\207\022\275~\376\032=\352\336\261<\240f\032\275\366\304k\274\325lf\272\177\216\216\2732\227\000:P\374\221<ln\257<d\000\020=\025\2050=Nq\341\2749\0104\275\351\243\024\275\247\037w\2747\347\204=^\360\356<\005\210\032<h\211\357\274\364<\312\274\002\216\234\274\355\362\177<g\353\213\275\317\367\206\275\016\330\227\274\303\244#\275<\032s=\330\003*\275!\255\337;\333<\355\274\026\202J\273\203\036\266\274_Nr\274\337\267\220=\314\260L\275\277\031\250\272\024\021\327\274\334\275\021\274v\034\245=q\007\251\275\256\274\266\274\210\032\004=5\345\022<\323?<=\024\014\205\275\371\312\007\272\\4\220;\341H\020<\365p\210<\205\255\226\275c\2318<\326\205G\275T\006W\275\027\271\004\275I\341\036\275\345\276\240;A\305\033\275\rU\314<\007\216y\2738,\206<\3567\005\275\276\336\020<\357\244\330<\264\205\017=\000\320Q\274gH#<+_V\275\241\3460=\253\312\332\274\335\210\036:u\031\366;l_\3638\302\363\354\274\002\031G\274\203l\201\271\223\370\254\2740\326\032\275\024\226\205< R\345\273t]\301;k\215\256\274[\032\001\274H\200\267<^<\226\274\017\277h\274O\310\231\272\347w\257\274n\242X=[\205\276<\r\347\253\272\261\353\245;M\303\352;\037\277\215;c&\"\275\227J\224=\\@\263;-\2158<:l^<\316\275I<\206a\202:\264^\013=;\341\3739\3429\324;\364U$\273\225O\036\273\357\323\351\273S\023\345\274A\247v\273\242\256\004\274?\350\241\274\374\207\024<\024a\003=\317k]\274\213x\222\275;\237?\273\243&\000\275{Q\023\275\001Y\337\274\014J1\275\213\271\251\274\342\235t\2726H\202<h\252\021\274\357\212\311<\212\013\275<\322\377\240;\243\227\204<\324Y\253<Y\304h<b \302\273\276F^\274.\362\032\273\321k\244<\360\307B\275C\033\376<\275&\031=p5\016\274\277\224\307\274\335V.\274\036\001X=~\270\337;hE\203\274t8\237\273j5\014\2748\020\264<\226\232K\275\233W4\275-g~\273\345K\311\274E=\207\274e\017\316:Z\212\235<y\333\230=\263\2641\273\344I\331<\205\313W<w\035\312<\014\276\355\274\026R-\274\243\2578=MLG\275\310\177M=x\205\005\274\361\"\261<\333\222\357\273\024\033\251\274\300\211Y\275R\323\024\275\355\317E\275n&\345\274\246\224\256\273]\252y\275\020\275]=l=\003\275\211Y\342\274\370\241\332;\337p\370\274>\254F=a\361\201\274\332?\340;\232\241\244\275\362\231$\275\313\333\366\273u\006\206=\020\324\310\275\315\027k\272N\227\262;\223\274\024\275\352\211S<T\370\'=\243\243\016=\3321\3779H\265\021\274\214c*\275\306o\243\274 \007\215;Mr\330\274\253\275E=\27435\274\354\234x=\307\335\360\274\245\210\245<\332<W<\2603\271\274\374G+\274\267\245\000\275\\\360X= \030!<\240\235M\275\002\224\356\273!\014\006<\022\320\027=\322dM;\366\304;<\0057r\275\177\375I\275\3648b=y`]\275\357\347\264\274$\002\024<-\320\200\274\022\031%==\354\220\2740\'5<\234\001E\274u\274\220<E\342V;\350\357\004<\233\177\342\274\nq5\275\025\355\370;\022\243\210\274\264\316\307\274a\246(<\000Tt\274\346\205z<\215\320\234\272I\326\022\275\214$\352<\273^\213\274\355F\211\274^M\321<\n|\013\275L\365\006=\361\270<;[\003P=\256N\331\272\300\010\325\274\333\261C;\344Kt<C\335\345;&\342\271\274\003u:\273#U\210\274\031.(\273\020\034(\275\3425\t<D\277r\274b\316U<=w(\274\\\300\201;N/4\275\357@m\274ZK\213;\302\340$\275\352\006C\274w\206\372\274\002\003\006\275\024T\344<\027\027\010<\020\367\203<\360im<\302}\014\2756D\027\275\215\266z<\312\022\037\275\261+ \2757\024+;\322,x<\367\212\261\274m\364\031;-\211\016<\332\032_\274\317\274\022\273\206<g;\036\373$\273R\312=\273D`\345\273s\256\324<\355+8\275\007\225\202\274\200\366\216\273\036\360\303;\2454\334\273\336\347\030\275p\351\364<\031[$=\203M\336\273=\230\032\275\321)\037\273\256?\\\271\365\216H\274\024b\013\275\271@\021<JBM\274\311\265\241\274\310M\211=\031\014n\275\245]\t=e\245&=C\351\366;\312\201-\273z\243\252\273\232\300X\275\366\2339\275P\321\225\274\244\315\033\275\275L4;L\313K\2751\021\250\274\232;]=\360u\206=\203\363:<Ks\002\274\002\034+=\275\230#<7m\207=E\026\242<$\243\023<V\270\375<\252\253\203=\037N\034<*\0206<\262\354\251\274\036\315\000\275\007u\016\275r/\314\274w\365\262\273\233\370\023=%\tQ\273Hg@<\0322j<\35227<\373t\343;\315\320F<\212\027\232<\215\275\220<\255p\233\274\3176\201<\300\263\317\274*\247a\275\377\341>=[\220 \274\353\t\302<\201H\251\273\'\t\334;\022I\206<$aq<\005\036\372\274B\303X\273Y\255\025\274\227\340\220<\305\211u<\217\026\225\274\027\251-\275i)\355=6\022\271\273F\021\367:\03076<P\311\007=\360.\337\274\301\274I=~\247\315<\253\215\231\273\253\251\207\274\226|K\275\336.,<\262\317l\272\321.\017\275\035\017}\274]\265\026\273?iA\275\327\006/\275\325W\001\275Z\315\177<\013\201\231\2755N\305\2740\273\'<\353\336\335\274\326\210(\275/\260\207;\342M^<\0045\003=\212V8<~\177\002\275\261\234\260;\207\362\237\275\356Q\020\275\\\372\236\270\017\213\'9`\203\221\275\to\016\275\313\330h\275l\354,\274\326\327\010\275X+2\275\377\302\\<c\252!<\222\034\351\274\017Y\364\273\033K\202\275r;\003<\207\207\004\275\021\t+=\376-\317<~sI\275\247\257\267\274\023b\217\275i\224[=\213\324]<\302\3403\274\024P\267\274\350Z\253<\376t\353:\265\265\n=_\010,\274\031<Y\275;DJ=P\206\224\273\325\310\202\275\357%\237<\021\3607\274\266\353\243\274\263\327\264=\340!\301\274\345\201\027\275)l\016=\352\264\371\274\025\227\300;\322M\313<\343\213\'\273\267~\243=n\214\202\275\3566\262\272B\000+\275\217\027\270\273}\231\002<%~(\274h\035d\275\360T\245;\220c];\304*Z\272c\351\343\274\366\231\201=\010)\217=\027\341\215\2742\\\263\2740{\004\274\270\202\351\274\262a\326;\222\332\037\275\321\273\333;\247\203\312\274>\375\003\275`\204\211;\2521>\274\322\245\355<1\200N<\010\367K\275\016\330$\275u\341p<VV\n=u\233|\273\330\361P\274\215\307\023<\266kU=\264D\177\274\365 \316\273\t`\216\275\224\225\r=\270\247\317<0\316o8\024\236\203<y$\006\274\316|R\275\237\204\312;\035\035e<\337\240\361<\370~\246\273\345\003\205\273\3403\031=\206\241\200\275\235\221\272;\316\332\227=\304o\226<\207\016\021\275\210\322G=O&\273<\270\206\235\274\t\245\353;\215> \275\333\326x=\340\200\245<\356\346&=_\324\234<\277U\331\2724\036E<\360\325\000=Efg<X\370\025\275!(\030=$\276\003\2756\335%\275\334(\230\274qi\214\273k\2170\2759\331\205<\313\017I\275\370\344\272:\211\316d\275\006)%\2742\\I<g\001G=:,6=\342\301b<\352\020\237\274\rV\334\273{6\264\274I\210\202=\0243\333\274S\2235=S\203H=\333\t\315\274\177!\267<\354\245=\274\n>\370<e\246|<\363\360\255;\224\350\317\274t(\203<\023[-\274\021\243\272\272\363).;p_F\273O\361a\274.1\023\275\371O\356\274-\373\352\274?\243\325\274\261\n\371\274U\237\236<d\235\276<k\206\\<\220+\344:9\342\r\274k\306\343<O\322n\275\273.\363\274K\221\313\272\264\226]\274\032=#\275Y\236?\273\320\035.\275\227\256\357\273[\340\365:\037\322!\274\350\306R<\213\035\321:\207\036\245\2735\227?<qp9\275\301\216=;]\322\210\274\241R\242\272\223\357}<\030\366\017\275\350{U<g_\003\275\026\013\024=(\334\252;O\316\360\274\020w\322\274j\220\353<\352i\333;r\305\260\272\270\271P;\221\202p\275?1\333<\'\362\274<\003\345i\275\202\217e=\2236\355;\210\240\203\274f\245/=q\023\343\273\206\267\007\275=\2700<)\341\005\275Wd\361;\004T\212=<w\365\274\270\207)=\207\317\220\274l\267C<O\371g\273\256\014\314\274\341r\207\274\321\251\023\274~I\240\272\316\266\254\273\345H\351;\355\364\346<\246\215\223\274]\273-=7\303\205=\307\'>\273\300:\252\272<\365F\2757\375*\275[\003\234\273\277@_\275J\356\231\273\034f\366\274zRS;3\234\221\274\021|,:\333^s=\371\251d\275\177\020\014=J\177w=\037\213\025<\006-\260\275\265]\003=\030U`\275\252\217\014\275\266\315\231\274X\274$\275\021\350{;\035\207(<C\212\220\274\024\251\374=@>\033<\357\246K\274\337V\325<\332bn=\311\242\206<s\370\014=p\331I<w\264\255<\377\360);@Cf=}\324X\275\374\324\r=4\370\354\274*\323k\275#?\361\275\325~\365\274\326a.\274w\301\210<\362_H=\340\306\254\273;o\227<\346\204o\274\302#\255<\017V\303<\223\000\010=\271>\214\274\256\307e\274\240B\033<\365\270\322;~\021\307\274T\221\224=\270\273\304\275\372\240 \275Z|\211\275\216\n\374<\003\014\333\274\310\000\006\274\250\302\243;\263v\244<6\004\036=,H\222=\rm\255<nKA\274\247Bn\275\261\270*=\033\0074\274:\2736<g\263\334<\373\037\033<E\355\261\27490\250:_Os=\024\276n\275\032>\276;u\323\347\275\362U\022;\324\333\227\274\031\331\267\2738Y\345<\365\343\030=\024\0346=^n\270=\031\333\330\273\035\210\341\275^\206\367;\307\357\374\275\301\231o=\314\214\265\275Nm\023=\221s\305\275$\021\360<\335\236\211\275\272\026\343\274Z\203\014\274\214\000\007\275.D\251\275\306i>\275F\005W=\225\252\362<\006\302\371\2756\020\324\274\376\035\242<=Lr\275\276#=\275\230\364\221\275\351;\216\275\346\334\211=\002(\221=\346\022\022=\250\220\253\273m\013\307\273IQ\252\274\347=\000=\324\0370:\256,9\272\232\271\021=\351q\227<\266@\253<\212\207\341<f\361\321<\033je\274\205qS<\332_\021=\252\035\225=B\370\366\274\202\343\243<\034\317\303\275\374\010\001=\226\362}=Ob$\274V\213\365\274[W\300\274\252\006Q<\271\357M<(\303x\275b\313\345=\341-\024\274\247\317\222\274\355\254\227=\357~3;\356[\277\275e\261\235<`\215\202=\316\237\307;\203\004C\275\034\201/<E\200\222<{\263\234\274B&)=\262\2435\274\r\253\301\275%\203\257\2758\020\312<\365\351\034\274\300\256\232<\326\312\260=\027\367#>\030\0224=\347;`=\264o\254\275\311\2438\275\311ok<\254\345\010\275G a\271\202\361\333<`\275\026\275\363?\333\275\006\357\205<\023\265\222\275B\261\017\275\367\234\005\275u\326\252=>g\317\275\340X\220\274\231\241\226=\373\246\364<\337\252\264;|\3559\272L\221E\274@\350-=?\271\337\274\237\220\335;\253X.=M\237\231\275\323\022\027\274\345\256\314\275\263\013\241\275\021<\035=\263F\347\274\277TP\275\371\253\262\275\376\264\001\275Z\257\243\2752A\235< \337]\272I\350\243\275\345\243\337<%\347\212\273\274\177\213\275\246\265\303=\024\204\016\275\260zN=Y\350_\275\356\237\005\276/\203\371<$\021\265\275\313\303\253;\3065\301<yu\211=yv\204<v\016\217\2759\000W\273\350\306\300<\212\312m\275/7z\275\377\3364\275\362s\216=\232\324\\\272\313\264i\274\326\2721\275\361\024\273\274\022%x<\373~*\274\030\370\001\275\274\345\215;7|\260<\302\354j=OY\030\275\"\303\251=\004\0177<\221\350\370\2740\300K\275\242f\246\2745?\257=\341\351\255<$ah\275DU\325\274\360@\033=\3179\317;Z\350\212;\351\337\260;X\326K\275\330g\301<\302R@=\342\340T=\304d\262=\204\355o\274\031\272\210=\275\272h\275O^[;\260\304\277<`6\023<\rog\275B@\306\274\247\325\334<\231\262\216\273Z\364Y\274\314\242\335\274\315\234\273\273\265\263 =(C\310<\247\202 <\345\272\235<r`C<\027\231\025\275\234\001\027=}\217\'\2756\301\270\274%\226\200;\0318\375:!\275\242\273\252\242\345\274\026>\324<\255\320\241\275\252\024V\273c\3227=\215P^<w\332u\274\301T\346\274\357<\310\272\217\316\001<x\353#<\243>\002\275u_\257<\240\200,=\3319\033\275\250\331\001\275\251\314#\275\177\035\007<8_\350;\275\365\004=-A\257\274\n\320\373\274\007\263\210<\2126\033=\320\223\341\273&\356\364\272\201{\032<\276\274\007\275E\006\020:\\Y\002=\t\3228\274\327\277\256<\241\207\372\274=~L\273p\224\346\273<\007\026<%\2744\275v\245v<\300\337\333< \216\333\274\266\030\217<\343pD=y\033\212<\251,\t\275`\220\224\274\237m\265\274\332q\210\273\013[p\275\3132m\275Q~\215\275E[\r\275\362\321B\275u,2\274\022H(=\r\237\254\274\017T\260\275\372J\366\274\342v\210\275\273\273\347\274a\232\016\2750f\263<\200:b\275\313\307\"\275$5\214<\341e(=\356/\260=\354x\352\274z\177\010\274\332r2=\351\n`\275.\\==t\300\017\274\356\315\301\275\262s\221\2748\014\270\2740\034\242\272\275\031p=\026\020a;<uN\2753\254\036<\371Z\320\274\232\201\203\274\221\005\262\274\377\375\235= \037\354\275\3161\331\273\333O-=d\017\300<\375|#=%*\222=\017\302\032<\032R\207\275,?X\275\nj\262\274\202\017\204\275\021\311v=~\364j;\221k\313<\252\311\270\274\344\014\230=\357\263\304=X\245\034\275h\277\213\275\352\225F\274\275{B\275\262>\027=\354:\242\274co\377\274\317\224\260\273\331\243C\275FM\034=8\025j\275\223=\202\275\373\264\214=\346\342w=#\006\210;\200\346\246\272\363Yj=\234\360\337;RR,\274\363\264\321\274\217 \302\275\203\277\306<\262\373\306<\324\205v\275\220\014\246=\027\025m<\365\0137<jN\217\275;\\\244\273>\360\255\275r\357\245<U\260s=1\365\365<}\270\270<\232lE\275\331/\226<\037\371:=\375,8\274+\2232\274\235.l\274\312\017\320\273\365p\244=\211Y\316\274A=\356\274\236\362\242=\331\257%\275\026L\224\274\200\351>\2747-4\275E\261\315<\003e\225;\202M\026=Q\007\007=\215\370\226<Z3c\275\r\203o=\n_M\274\230\\K\274\207\351!=\242\235\310\274\207\301\370\274\252\307\246;\352 p<\363b\'\275\014l\033\275\252\316F\273\331\317\217=\276x\267\274dip=\332Gx\273\275\224\324;\317\267\300<\356m\317\274_M\t\275\350\rP=T\335F\275\035\204\214\275\t\274\263\274\257\300\367\274\321\373\370;Y!\361\274\333\201X\274\300j\344<\241\325e<;V-\275\'\320%\275\364G\301\275\202\213\n=\275\366[<r?\025\2734\005\272<\nq\002\275F\220v;\002\346\344\272\351KJ\274_NZ\274\364@C\275\r\252\016\275\360\240}<\332{P=\200\240\210<\263+\262\273f\313\314\274\214\362J\273\246\307\315=\323MH\2758\002\004\275;9~<\212\205\036\272qO\240\274\331n[<\255X(\275\014V\"\275|\234\031\275\254\263\250=Z\300\344\274\260H\221=\244\227Q\275\354=2<z~d\275j\227\233<\276\250\233\274\212v\2409\232\254\251\274%o\256<\020\3606\273u/\372<l\016\257\275\032.\331<\306\367\302\275a\317\200=\361\024\026=*z\364\274\177\315\035=\233\216n\273V\t\231\274&\306\031<nk\270;[u\213<I1$=\340\250\242\274\253\227J\275`w\337<\337\232%\273\240dN\274R\346+\275\\/H\274U`:<\200\356&=\177*@=\310\000B\274\242x$=\362c\002\275\266&i\275\215\254\010=O\264\236<{\023\240=\016\025\214<y\031E=\023,6;\037d\347;\021\341\037<\235\201}\275\255\344;=tL\301;:w\256<5\253\023\274\263`b;\200\350\016\273\347\325\307\274}\233!<\207#\253<\362gL<q^w\275juv=\r\035\027\275\364\221\215\273\313\213\265<\256\316>\275s\265\254\274\312\030m\272\365<\037=\365;Q\2752\'\027\275\312\312\257\274\300c\223:\016\247k<\343\272\027=!}\317<F\237\243\274T\225\351\274w*X\275-r\374\274\375\030\342\272?\025\216<\242P\230<\206e\246\273\014_e\2745\343\313\273\036\004\025\275N\250:\274-\251\014<\306\200\222;\013\264\030;\354\013\303\274`\262\241<\200&^<\335(\253\274\220\234m\274Nt\350\274\317\275\335<\020\"\003=\242:\027=@L\304\274<}(\273\2613\267\272\303C\031=\316\200\026\275\036\275\006\273 \300\330;Y\305}<\310\275\235;\177\'1\275\334\235\260<\024\032?\275 \022J\274\231\177X\275\030\004\302\274~G\030\275F\006\326<\024\037`<\214\025\373;\014\024\000;PQ\216;F\177\210;\376^\215<\3254\256\274\324+\327<\374J2;\360\272:\274TM\336\274%Z\333<\260\233[\275q\037_<u\3238\275\204\274\222\274N\301\020<\361x\202\274\275OF\274\033\336\361\274\024 \344<c\357\032<\276G\365;7r%\274d\'\254\274\336O\245;\t:};\0203\304<\206\320\367\274.p\302;\374\205\333<\"\001\362<\2512_\273i\210\346<\232P\005\2756f\276\272\226\361\225;\232\274\001=\014\007\357\2736\362\017\275j<7\273\314_\351;\275\273\026=b\007+=O\016-\275\272\326\023=Eb\251<\034\325d\274\002\372 \275\"_\026\274\233\255H\272\330\357\247<\306\321\350\273\307\217d= G\252\272\275\327c;\234\233_\2753\025N=\220,\021=W\270\202<\312D\t;\255>T<>py\275\013\260\331<\230T\027\275\347\333f\275\334\275\276\273xl3<\'/\005\275%\n7\275u9v<\177 k\275cb\245\2724\326g=\003\242\312\274\307\026\021\275\344`8\275;m6\275\307\223\022;\341\034\330:_\001p\273v\340k<\263\362\305<\357\022$\273\352\233\247\274\320\260$:\025\262p=\251\372\014=\340\264&=:\230\210\275\223\375P\273\335~v;\321\275I=\007@\021<\250\340T<\341\243L=Qc\206<^\022\374:\2736\372<\265W\331\274DQ\030=\334l\341\274\374&f<h4H=\303\321?=\211\302\310\275Y\3203=\373\310\035=X\317\354<\257N\032<\331\027\274=\236\030\223=\355})\274\304\255V<\361\202k=_+\271=2\314\243=\365\306\260<2\023\246\275<\0238<\322^\361;\205\325~\274\317\351\255=Pf\'=}\226\006<n\317\344\274\2339\261\275\006\304f\275\336\202\373<\361\247G\273$\364\222\274>\305!\275NGE=\315\372\236\274*b\311<\350\360V\274A~3\2752Ck=\331\211\200<\303\022\303\274\205;\235\275\032\311\217\275\347\207\260\274>!\013;\306k\350\274m\336\234\274\220\274`\275\365\314\277\272\323\2325\275\205\237\204\275\214\261\313\273\337\307Z\275\344\247\360\274\374\225S\274I\303c==$\370\273\023\375\245\272N\303\357<H\326\372<?\363\320=\0330\323<\345n\230=1C\271<\300?\202\273\322w\215\275\320\037\023\275\276g\223\273\242\363\346\275\313\305\303\275DT)\275\022\2457<\253\220\004\275\377\273\035=\033\331\201:\341\320\250\274\272\220%\275\212D\251<\367\325z\275\272\036\232\275\004S\034<\240\260%\275\302\330\260<L\034\177\275\205M\344\273\206j\304\275 \370\030\275O\017\331<e\360\256=\266\037V\2756\310\276\274\340O\220=\315\311\021<\256B\032\274\357\357\027<\037\336\n=t\2511\274d\'$<\236\316\322=b\355\257\274\270\364\035>\007o\236=6\332\225\275\243R\244\275\010\370\310\275po/=\267\255O\275y\262w=W\341\245\275l\313\r:\275\346{\275\335\205\267\272)\304u\275{\031\321\275\037G\004\275n\251\361\275\215f\273<\310\235.\275\017\033\374\275T\217c\275I\375c:\n:w\275\0257;=\221\317\262\275v\374\245\275\307\346r=M\232\252=\245jr=\034\210v<\351\266\314:\266d&=\225\314\335\274u\274\267=%g\276=\376\342\000=\037!\332<59\317<\346\005\300=[\313H=\225\\\263<\tZ1=\027\217\302<\177w\207<3\000\021;\307F\236<\305\302\374\275\371\246\335\273\206EL\275\003\252\313\275\036?D=z\234a\275H\216\263\275s\'\334\273\240\356\206=\327\231*\274m\352\376=\3569\205\274\324L\305\274\'\360l\274\006\326\301\275t\274X=)y\030<\370^\010\272\361\005\226\274\316\211\r\275\246\024\036<-\023\310<\262\334\266=\255]\333\275\007\321|\275\234\273\317<Z^z\275y \247=54Q=\204\362\031\275a&F=\206>\321:\353\374\302;\032F5=\317\337\347<c$\356\274I,\'\275Z[\034\275J}\336\274\373\033)<B\237\226<\'\317i<m\325\003\275\373\220\264\274Da9\274\377\212\330\274\335\020\n\274Yv4;OG\236<\217Z\n\274quI\274\330\337\304<\014B@<\023\211\250\274\013\033\211\274\237L$\2757)\373<u\341\017=fZ\031=\240\312\270\274D\326\235;U\026\004;\200\314\010=\333\360*\275\314\254a\273\242A\306\2721\223\n<\377]$<\2309U\275\216\326\336<\274\344a\275l\367[\272\250gm\275\r\234\211\274j\345\361\274l%\270<\350\\h<\005\321\300;Y\031C\274\245\266\263\272\303l\211<\353\214\321<41\323\274\027E\346<+u\021<x\0343\274SU\304\274\t\274\277<V\225g\275U\304O<\226\302#\275\222f\361\2734}\315\273(\233\314\271\254/59 \2700\275i\245H=n\244!;oc~:\017Y\234\274\247y\322\274\014L\214<D.\035\274\r\261\005=\316\362\345\274+\302\355;~\003\274<\272\362\035=\266\307r\273=A*=\247\243\034\275\251\330P\275\343\036\244\273\r\027,\273XW\376<U}G<\326\032d\273\010\376%\2753\317\374;:\362\213\274\277\320\r=\314\210\301\274\313\341\224=\305\256\263\274&i\327\273KV\004\275\265:P<X\017\244<*\372\311\273\271\206\326\274j\241\r=^\254\277\274\313\320\005=\264\373\200\275\234\270j\274\232\212?<7\264\014=U\250/;\272\266\t\274e\274\270\273\233T#<\003\351\270<\210\337\361<\246\356\352;\271n\033=\242V\322\273\220Z\353\273\032\317b\275\245\3625<\346r=\271N\367\255\274\371\345\314\274\tK\\<\034\211\330<\202\200\223<%P\362<X\017\336<\314\366\231<\376[\211:\256\322\353\274\3356k</\346\203<\036\363c<\260\245I\274\000=E;p\'\035<\222\263\014<cJ\026={\307`\274E=\347<:\202\267<\377Vq;\307\245U\2737\277]\274(H\021\274yP\237\273\001{\276<_DM;A\032\007;\" \033\274\327\'\273<\324\271o\274m\346\2129\201\257C:\217\004\337\274T5\221\274k8:\275f=\030\273m\367\n\274\213\332l<[<\205=s\201B:\312\014\271\273\307n\035\275\376W\357<\333\016U\275\224<a\275\362h\312<\276\363\014\274\300\276\022=\0244\003\275x>\327<\377\235\347\274\007\030\010\275\237\313\316;\242<-\274\237\255\273\274r\277\212\272\023\025\301;\263\245\007\275m9\226<\031\302\276\272j\233\221\274\025)\247\273\262s\t\275\306\316\021;5\373,;*H\220\272RL\020=\265PN\273\230y\334\274\261\254\037=_\304\3739\017Y\003\274`\361$\275\344v:\275\223\311\330<)\221\256<\270\244\241\274nz\001=\273.\346\274C-.<\225\227n\273\006\010E\275\316\270M=\252\261\375<\232\257\321<\236\035l<\2171\001\275iD\225;l\316\225=\340/M\274]\252\021\274\227\345\371<\367\221x\274\342F\202;\363v\007\275\315\367{<S\026V\275F\335\033=\360\272\017\275\254\314Y\274$\020\217\275@\364\273<,\354X<\343c\013<\315\322\245=\362\3036<\202*\204\271\007]c<\246\320\200\275\025\010\350<Y$\253\274;w\010=B\342u<\254o8=\254\253\n=\227u\003\274o\\\3029#\372\016=\304\"\325<\276\326j\274\326\356\207<\030o><\364I\234\274Q\257\3538/\000\227;\266\251-:\346>\307\274\026\365\007\275\031Y#=\207\251\353\274\360N\\\274\254H\226;R\2061\273\206\033\263;\007r\215<+v\305\274\204\316\230;\257 C\274\265\203\227<m\251\342\274\334\271\r=S\227\352\274\364y\247<<\337\210\273\345\371\221;|\332\235\274b\000\027;\342\343\023\274\030\375\010<3|\035\275\216z\305:\n\364\006\275\336b7\275\3227\030<]\302\325\274\024\034\375\274\270\027\\<\031\256\211:\257\232a=y\234\n\275\212(\007\275XVj<f\333\272;\2651\022=\031\023\342\271\240\264\337\274\330\\9\274\022G\243\274G\025\257<\246\\\214<M\241$=\n\362\206\271\0227\002<0F[=\2547\211<i\372?\273-\337n\274/\374@<\314\251|\272\000h\274<:&\025=\230\341\352\2748\231o\274-\262\270:z\313\352\274\222\210Q;Z%\216\274/\200y:V\023\313<\230\017\355\274N*\014\2735f\'=Z\207\235\274\357\314\346\274881\274\260H1\274|\302\355\274\031L\231;\177\332;\275\n\364\260\2752\355c\275\013U\305<zJ6=\004\306q\274\330\322\027\275U\202V\275\204\324W;\004\033\317\273\"~(:\026\275\223\274\035x\027>\272{\362\274\"\362\n\274\373;\331\274\353^\'=\375K\306<\231\332v;~\214l:\007n\361<\t\204\023\274\232\005]< o\035\275\250\305\352<AH\236\274\254\210\036=t\031\224<\273\225\035:\336\332\277<\3058\\\275\250\233C\273\271\242\245<\340R9=$\020U=J\026F\275\203\333\350\272\275R2\275\005?u<\221\306+=\022\354F\275Y\025\004\275&\360\2108\364N\343\274\227\206\250=\232\305-=\031\365\271<\245\226\303<SL\206\274x\033\365\274\037\t<=\220\212\002=\345\223P=p\351\001=\341\306\007\274KV\306\274\014\330\302\274\003\033\021<\211n\203<\025wI=\233\264\020=fCY=\246\206\027\275\201}\032=\021=\205\274p?7<\034+a=2=\014=S\031#=\000@\356\273/\253\347<0\024\231\274\311\026\362\274\347\030\323\273H!\212;J\271\233\274<\277g\2750\331\322<\356\253\221\273\353\243\262;\025\244\262=-1\236;u\016B\274\025\2005\274A56=>\257\022\275Kr|\2752 ?\275\240\034\245<\216L\326<\n\237\030<\364\246\376\273$\306\317=\330\350\265<\324u\230<\210;\274\275Rl\027\274s\260\177=\317\210C\275\002\313\212\274~\004\324<\332N\027=\306a\257<t\312\033<A2\253;\003\014\223<\241\"H=\375\0261=\212\312V=\302)2=h\373\312\275\212\351b;\200\262]<\205\330\026=y\242\021\2757@w\275\337\'\207<EQ%\274\337\246B\274\371\316,=<~\034\2755\003\220\275\247u\231\274U\365\313\275\217F\006=\370\251\273=9\263\277<\245l\247\274h9\020\275\002t\270;6\210\016=\224O\323\274d02\275\207\361\366:\332I\301\275\002:\"\275\310\005\024\275o\022\261<ieO\275lp5=`\263\325\274\3300\217\274R\375\212\274a:=\275\023\213\t\275\006\3504<}\005\220=1z\020<5_>=\022\214\031\273\212\204:\275\272\272)<\022vH\273M0Q=\020\332B\275,h\223=\035i;<\224\342|\274\316w\340\273]\365\217\273\314Z\234=\333\323\307\274W\306\037\275\360,4<\221ac\275\2246\262\274pb\363\274\264\332\222\275Q\203\221<\022*\002<\016\002\214<\005((\275>P(<.pR\275\334\2004=\342i\357\274\264\2737\275\242\235,<E\271\367\274\354\204N\274E\030\220\273\250>\022\275\002o\233\274\342\037\317\275\'\373O<\3742[=\335?\320=\226\311s=\344\235}\275\316M\323<v\305z\275-\306\236\274}\340\320<)yC\274b`\263=Y\243\210\275\034\256\202\275\275\250\315\2758\300\205<\313\344\r=Nl\217\274a]\032<%_O=\207\314\260\272L\364\n\275\343\362v\275T \023<j\373\324=\333\264$=\371FH\275\336\013\177<\036A\331<u\354\001>\2162\n=O\242\001=\303M\000\2744\004,\275\"\346\364;\336d\271<q\203\240<\207\255\034=\215\305\301<\315 Z=\254\004v\275\314\340\355<TY/\275\271\371\202\274C#;\275\232\016\003=3\243\026\275\256\036[=M\211\017=\316\247U=\354\304\246\275\024\270{\275z\324\307\274\301\271\260=\030>H=\366\001a\275Z\320&=hO\254\274\221:\342\274Z\274e=\311\006\305\273\212\370+;[\317\215\274)\313:\274\002\276\354\274\361\361\014\275\337M\255\274rQ\004\274*&\207<\257R\223:\370\302\024=\276\023,\275\226s\211\274\223\225a<\255\022\034<\307/\200\274\235\007\r:\\\246W<\345hN\274\326%\276;\375!\325\274\006\314\006\275j\247?=\034\374d;7\346\312\274\037\0066<?\375p\274\254\337\016\272AQ\006\273\346\276t=wg\347<\370V4=^\256\024\275\315\332\213\274\234\211\003\275\217\340N\275\020\266\';\324.\205:*\024\r9\312\275\023\275;g\224<#\357\010\274S\036\346\271\2076\240;p;O<\277\354\265;\365\306\272\2743\323\247<<7\n=\222Hi\274\322X\255\274\217w[;\257\030\031=\3254;=\270\237\215<\203\250\010\275\035\330x\273^\227\341\272e\303\367;p\233\237;\244\371l\274\244\000s;\274\312\245\274\300\225\300\274V\223\034<y\264@\274\341\203f<\373\307\343\271\264Ha<\204\375\336\274\034\n\241\274M1\371\273\2649\246\274\324+A\275\374m \275\t\236\016\274\014Q-=c\313\031<\217\212^\274i\235,=p<\005=^\245\244<\206\2518\2742\270\214\274s\201\010\272w\257\302\274\242\0223\275\007\027\265\272x\341\273\273\n5&<X\231\240<H\266\177\274[\304\004<a\362\244<?\220\265\273\225\225r\274\233\222\256;\225K\031\274\243\317\247\274!\274\345<\345\343\323\274=\346 <\256\034.=\375\361\270\274\344Fw\275\243\255^<\210{#\275pS\010:\302:\027\274\323T\353<\020\375c\273E\242\320\274U\036\035\275\272\212\374\273L\234\321\273\275\031\240\2740\034\212<\236\3768=\333$\346;\350\222 \275n\267|\273|\245\263\273\305\377\340;u\214\025<\345tP\274\352C%;\277\303.\274&\346\202<eJ\236<f\212\033=8\347\272<\306\221g:-\251\"=*{v<\2561\213\267\216\307\343\274\356d\276;\372\022 