node {
  name: "Const"
  op: "Const"
  attr {
    key: "dtype"
    value {
      type: DT_FLOAT
    }
  }
  attr {
    key: "value"
    value {
      tensor {
        dtype: DT_FLOAT
        tensor_shape {
          dim {
            size: 1
          }
          dim {
            size: 32
          }
          dim {
            size: 32
          }
          dim {
            size: 3
          }
        }
        float_val: 1.0
      }
    }
  }
}
node {
  name: "XXX"
  op: "Identity"
  input: "Const"
  attr {
    key: "T"
    value {
      type: DT_FLOAT
    }
  }
}
node {
  name: "conv1/Const"
  op: "Const"
  attr {
    key: "dtype"
    value {
      type: DT_FLOAT
    }
  }
  attr {
    key: "value"
    value {
      tensor {
        dtype: DT_FLOAT
        tensor_shape {
          dim {
            size: 5
          }
          dim {
            size: 5
          }
          dim {
            size: 3
          }
          dim {
            size: 40
          }
        }
        tensor_content: "\326\014\223<\200\361\252<M\210\342;\025*\274\275\224\224e\275\301\377\335\271|\244\272;R\313\300:\323\324n;\177PI=\220\363\024\271\210\367\314\273(\214\200<\026m(=)J\274;\320bM<\206\244\206=G\"\263<X\214%=\001\270 \275\\1\354<\232\223\n<\315\205\305\272\017\037\210\273\344p\017\275\014:\027\274t\256\315<\252`\313\273\346\324|<4\037\227\272x\244\342<\270+\317\274\364YI<\014\013\342;\237\\\305\275<\310\n<\025\201\261;\264\231\212=\371\301\231;daS\273\302\232\262<\317S\251\274\030\371\252\273\3249\004:Ni(\275\327\217\334<\017\357\027<\340O5=\310s&\274T\025i<\"w7<\354\205\361\274\335\207\212;c\377&=u\373\324\274\342\217\314<em\022=\031\243\306<L\035\031<\034\267\230:t\026]<\311\007\022< \001\274\274\312\240 \275\204\264\003\275\0071\363<\324s\350<\227\321\264<\2538!<\367\376\256;M\233\310<\2269\"\273\304\342\017=r\247\324\273\254!\362\274\204A\303\274\301\241Y\274\276\225\031=\317\340\005\273\354\264R<o\014\373<Z\347\322\272`-N\274\244\366\356<\221q\250\274\027\321\246\274Gm(\274\2509\260=\251t\210\274la\204\275\307\0331<\214V\251\273\003\375><v\203l=\177\306Q\270w\203\031\274J\373\370<\206\207\002=\263\001\022=\031\271\275\274`nj<\351\030\376;\013\332\211\275\205T=\274\345\031\211\274\257\333\241;\371\335W=]+\244\2740\376T:\276\333\255\274\230\316S<C)\222:\257\263\017\274\n\361\365;)\t\200=\323g\021<\321\206\341;\231\242m=\347\363\336<gle<Sr\277\274\\j\217<\240\204q<C0\340\275\222\354P\275\341\021U\273\345\272\006\274\352\220\245\2734\250X:\230\237\014=\003\007\367\273\202\276t\274\025\236\002=\247\221~\275\247\366\214<\020\331\376<\231\266i=,$ =8B\313<\0240\005\275%\225$=q]Y<\366\253^=)3\211<\373*\026\273\242\037B\274\362>\032<\333 \314\272\000e\265<G\346\002\272\266\316\n=\351Y#\275\364\233{;\354ZK<4\276\311\275\237\017K\273l\230P<5Y\257=lb\376;\"\302\273\272-Z7\274\302O\007\275\272\335\000\275{pZ\273\3047\010\275\007\220\243<zY\022\272\356\242*=\231Fp\274v\374L\274VT\003<\273\204\016\275iyh<P\371\214\275\243C\247\274;\234\017=1\006\006=\223Y<=^\367)\274?\010\255<\340\225j<8\215:<\372g\032=\2757\026\275\251\000\362<o\212\006=\007\237\022<\340\000\017=\274(9<\213\017N:\0301\344<pA\305\273\217\365@=\177\to\273\252\265\363\274J\337\013\275\346\212\005\274\210\332f=\300\311);\2449\232<\241O\201\272\233\334\344\273\265f\217\275A4B=\035n\007:H\240\027\275~CJ\274Y\005\307=\247U\274\274cw\274\275\ty\032<\331_\010\273\372\304\241<WF6\275\307\361:<\265B\343\273\213\214\261<\r\ti=\230\r\006=\010\236\025\274\263[\037<]g+<\n\265l\274\2624\n\274pwd<M\355\005<\231v\244<v\364L\274\201\327\253:2\212\363\274\270\256\223<q\354\024:\242Y\237\273\202\214J<\000\242n=g\240*<<\307Z<0\242\234=\245\\\036=\353\344\267<@\244!\27555b;\247SR=\235j\340\275\276n<=\017\301\036\274\024\277\231\274\333p\262\273\375\n[\273>\n\343<\362\317\023\273\026\327t\274\340\220\372</\303\022=\273i\277<\210\242\334<1aC=S%x=\243\335g<\r\245\003\275\274%\336<w\350F<\325Wt=we\213<\342KL=\276\033\230\274\2002\273\274\334\007\231\273<K\262<\241\025\312\273\354\276\002=\232\215*\275e@a\274d\334j<s\274\350\274\343\205\216\273\005\347\345;[\tv\275\336\003\345;:\007\306\273\222 \342\274\255_?\275\212\337\231\274x\rn;\014aT=F69<\334\354\336\273\266(%=\000B\247\274\211\301\213\274\341\226e<f\262\n\275\262{9<S\353-=Z\300\203\274\300\265\000=&\345\330<W\364\215=k}\314\274\025.\266<\230d\3319\241\251\r<\322\346.=\253\254,\275\225\227\257=\357\203\320<-\r\272\274\351\t\000=\346/\r<\037\023\375\273\261v\330<k\255h\273\365\'\014=\304\024-\273\r\347\265\274\246\t\026\275b\223]\274\223\231\215\275\233m?;\3607w<\006\023\215\274\263\201\216\274\260W\257\275\232\202y=^\227\246=X/L\275\000\246\000\274\232p\310=\0014\357\2749I\227\275\3037E<k\247\263\272\013\361\242<\355\223\023=-U\202<L\000 \2743\213h<\330\204\240=\2712\263<775\274\251\307\367\273\361\000\n<\324\215\033\274kT@\274l\247>=\360\374\215;%u\260\2742\200\205\274\n#\035\273\367\026\034\275\353w\313<\325\265\003\273)u\223\274\222,g<\214\230\014\274,\324\016<\377\217\362;f\020#\275PB$=\010\224\250<fo\257=\016\214\275;f\2746=Vo\316\2751C\237=\370\307\321\273\334@\n\275\217\257\345\2732\021\254\272?\217G;\025z\377:\334<0\274\323\262q<\336\245o<K\303\324<ZC\217<\264\177(=\270~&=Q\365\224<\002\324\314\274\256.\273<0\002\323;L\344\217=\257\005\\<\344B\027<K\231\271\274\335\302\340\274Xo\315\273\213\306y<\327\224\3379\251%\330<_, \275%\337\231\274D\232\224<\224\376|<t\205/\271\020`a;\025\342y\275|\260\026<\001\342\314\273\250\224\274=\2517\022\275\367\014\265\274\206d\271;\207\307\217=\016;\202<3/\264\274I)\357<\344\315R\274\222\245\351\274[\177p<\345\367\344\274\221\320\035:L\372\306<\270\365\213\274h\220\357<\323\341\252<\2320K=\216y\327\274\246\236\246<\225\347\301;\034\023G;\r\316~=a\262\025\275\354\351b<\t\017`< h\323\274\035\034\252<XSX;\'\203\3239=\352\270<\232\016\234\273B\271j<\027p29\324\317\213\274\272\233\007\2759n\206\274\203\204Z\275|T7\273\0261\002<\275F\316=\361g\374\272,\037\230\275\376Nb=,\317\250=\377\005!\275\372\316\210\274\350L\223=\021\007\214\274\276a@\275\222<\r<\t\031t:\263\302X<+\257E\272\000yY<mc\222\273\0323\025<\025\213\202=\232\315\214<\347pE\274\353\332F\272nP\212; T\243<;\377\272\273>M\335;\343\315\'\273\337\223^\274\025\006\240\274\336\013\352\2736\262\341\274\262\262\375<\202\327>\274+i\000\275;\264o<p\311\000\275C\273\304;\022\301/;O\333\311\274%\275\334<I:;<\317G\020\275?\367\274\273\275\227s=\243\024\250\275s\321\006=\3222X\274\255_\020\275\364\274\202;\006 /\274\340Yo;9\347\372;\003\340\013\274[\2625<\003\365\t\274Sv\r=)V\373;\330\252X=\326\001\036=\211\222\255<\305\252\233\274W\265-;\361;;;YY4<\2467\002<c\2759\274\265\023\240\274\tH\302\274\253\006\354\273\t\355i<\241\321\366\273\336\177N<@*\030\275j\007\230\274\224n\256<x\nz=\017\233\214;\010\320k;\242\337\r;\344\1775<\327\376\341\273\224\355\023\2756\334\'\275\352v\213\271\315I]<{\201x<fc2<\311_\301\274\227\207\307<\352(\244\274\013\352\035\273\276\305\253<v=\267\274\025\327A:\260o\252\274\003\256\246\273\025\277\274</\371\020=nM;=E\331\312\274\213\010\255<\247\246\032\274\032\2770\272\240\231]<\337\324\031\275\354\364\377\274\314\001R<\035\020\363\274PI|<\3261,;\236\264\366\273\235\277\263;\334\327\014\273\204\257\016<:Uw;\371g\t\274\r>\336\274\302\254Z\274&\022d<\321\203\203;\266\265\021<\355,\344\274/=\372\273\340\374\022\275C\346F=\003\341\211<\312\364%\275\330\353x\274\333\225N=\311<\265\274x\320e<\001\326P<\371x\235;\235\363\207<A\263\265\274M=\243<\234\375\202\273\325r\342<\025\261i=\000\340c<(\225\001\274\211Z\202\274I\035\";\t\024\231\273\206U\027\274\322\270s:\242\202\200;\375T\257\274s\272\227\274Z\357\357\273P\330\t\275\217I\267<e\0043\274%r\030\275\203\241y<J\254\212\275G\013\037<\000-\030;!\321\331<2\235\t=c\343\205<F\'\004=^\340\301<\274\361H\273#\341\201\275+.\225\274T\232\220\274\332\220\367<9C\262\2748=F9N\024(=)V\203\274RG\022\274\277\377=;\324\202\212=\236\\Q<\357\375\310<\315\231.=\304Za\275\273\367\034=O\177\353\274\273\216\025=%\360!<\326\221\210=\230-Y<\005\273Q\275\232\363\017\272\024\'H=\001q\367:\315}\300<+kx\273\324\177\326<y\204\376\274o\331\347\273`A\030<\214\326\357\275_L\340\271\352\206Q<\330\361\307=\353\271\321;O\037}:(\016\002=\236\254\335\274D\177\274<\317\321\220\274\214\022\010\274\342>\t<a\177\362<\212&\351<\251/\251\274\260(K\273\220\341\005<L\274\356\274\334\317\362\273@\200\216=\362\271\225\274\307A\004=o\025Q<\020\232w\275)\241\322\272&\t\245<\337\033|<F3;<\021l9=\032\337\014\275\235-m\275\337\222\r=R\2351=\336\336\033=\214\324\203<\243)o\273\336\241\320<\272\271K;\030IV=M\205\262\272\255A\006\275\222g\354\274\025\313\256\273\027\370\237=:\354\";\371\220\220<\325`\022=f(\013\274\0379==\013\326\265\274\337\035\247\274\220#@\275\376\246\263;\365\251\227=~\202\370\274\203\265\261\275W\305\312;}A\330\272\264k\272:\035$\245=\321\217h<,ft\274?\304\265<\037\3631\275\010\332\025=[\003D\274C\230\353;\227\3512<\236f\335;\352\213\353\273\322\364\037\275x\262\370;\316\254y=\372=\032\274\032:\341;\272\'\032\275\266\034~<>D\315;_Qb\273\274\032@<\030-\241=W\352)<\214G\211<\033,\302=\022x/=\025\233\277<\210\3410=\237\006\252<W#.<s\331\263\275\r\257\351\275H\237\217\274J\354\202<\375\244\037\275\273\347\267\272\355\203\266<\022=\312\274\027n\214\2746\003\271<Q\361\t\276\332\225\241<\022Y5=\355\2408=\213U\255\275#G\325<i\224\215\274\3568?=\006_\201<:I\266=O\313\001=\2444*<\024\363\307\272\324\")=V\271\034<\024\036\365<\201\200\374\2726\031\325<\236\331;\275\266W\201\274~\221F<\3379\331\275h7,\274\301%\232<\205\363\213\275n\277\013<w[\363:\324\037N=K\275%\275\332%\341\273\221\274\364\274\373\302\322\275)\234Q;\031\374\234<\246\024w;\377\347\305\274\272T\272\274\301\014\230;!Y\n\275\307\037\256;\202\030\010\276\370\270\216\274\26060=\360\240\234<+a\255\275\'i\234\274\367\3226=\213|l<\233\020m<7\226\243=U\252\017\275\022\232\001=\323k#=\354O\004=\232~^=z%\220<\364d\000\274S\262\260<\222\347\2579Dv\211=\263A\220\272h\223\350\274\351\225\031\275\037\\&\273s\370\234\275\311[\262;\032\277\271<\314\200\201=\003\204k\274\224K\234\274~O\210\274\253\343\301\275\344I|\275\200\203\2709\223EO=`\251\020\275\376\272\303\275\265\252a;B\334\314:u\306$<Q\202\324\275\276v\263<6\037l\274\020\030\230<\305ca\275\320\351\021=\311\245\324;\224a\2029\317*_<A\240?=\306\023\335\273\265lT<\344\024=<\2104\017=p\331\205:\245#\345;~g:\275\"op<\212u\267;4\267G;\327\317f<T9\210=]_X<-k\263<\275\020R\275\017\245]=7\254\001=#\033\360\275p@2<\364\256B=(\t\272\275it\212\275(\371\253\274\323\216\027;\246\211\r\275\215\224f\273\326\225\252<\223`\255\274c\333\215\2746\331\333<\371\001\215=\000\243\345<\004\270%=\304@4=\213}\261\275\2112\233<\365[\230\274\352\013\366<\325Ly<\252\033\375<[\241\014=(\016\221=\247\311\357\273T[\201\274o\215\252;\223\344\360<\202\004\306\273<\222\217<\010\345M\275k\211\024\275PbN<\322lR\274\363\3175\274\204\t\177<\335{\354\275\222\334\023<\253\205=\273\246\360\324\275\302\030Q\27508\344\273%\\\002\275\256U\206\275&\244\017\273\303\0003<\350\354\022\273\2243\343\274\t\300\000\274)g!<\231q\006\275D\311\276;\030\007\257=\355\2716\274\352r#=\006\007\220<\330\323\252\275\203^\377\274)\030-=)\307\340\272\231+;<\343\367\006=s\342\030\275\327[\312=\243&\t=\326D\250\274*\370E=\223\214n<\343\252v\274m\027;<>\261P9|fN=\331\303\340\272\347M\213\274v\272 \275I`\314\273\013\324\336\275#Z\331;L?\232<_\325\265\275\2214\247\274S\300\204\275\253\371\363\273g+9\275\300B\221\275(\227\006;\002N\016=U\342\035\275\324\323%\275\257\337\251;\257\302 ;Q\r><\266|\213=\014\370\355<] \230\274\232\372:<\034\2247\275\214\301\327<Fc\006;\330\013\231\274h\374)<\232w2<V\313\367\273\003;Z=\034\352\375;\215\001\000\275\350t\251\273\r\221\024;N\323T\275F\331L<\212\350b:\374\242?\274\317\314h<\2752\221\274\357vC<\300\236\220<\357\224\300\275\211\362i=\306\n\366<\022\331\251\274\277\036E<\201\246E=F\327\236\275\030Zz=\226\030u\274\t\305\214\274\267\325\372\274\342@k\272}\2061:\212\313\207\2741s]\2749|\216<\265\357\345<\301o\322<\253\210\374<\362\3038=/\035\235\275Qg\267<\333\330T\274S\362\260<q\315\014<\242\215g;t\335\354<B\275\311\273\343\2675\274\20422\275\251@/;\217\376\247<R\215-;\205F\036<G\223F\275k0\037\275\262hd<\273\3716=\265\\\311\273\255\013\037<y/\r<\'\210\r<\204-\210\273l\331 \274\3235)\275\374\032\324\274f\\\261\274hnf=\207\340\317;\254\037\361\273\177\024\204\274\221\354\232\274\000\300\337\273\316\034A<\317\264\337\274\265\232v\271\357\232-=Oa\217\274\013\234\035=z\035\226<\340\347\221\275+\237\006\275\2431\026=\013D\235:\373\357\227;\027\354\213<\000\027\t\275\376\300\323\273\032\315\265<\\\334%\275\255~\021=N\325\363;M\340\211\273\030\375\234;\250\337\321\272\223=\364<\357\320\365\272\326g\006\274TL\017\275\021\033F\274\245(\332<\374\321\024\273\'\000&<\317/\241:\372\000\265\273\317R\261\275\230d\312:\224\356\214=\243ec\275 \340\366\273\250\234q:\205\261\306\274\372b\272;\203Vb;\257+\237;5\023\003<Y\357\346;)\231\261<\335\377S\274\367s\013<\254K\312\274u\334\251<\305\220h\272C\262M\274K\241\265;\326\352_<O\014]\273\006jX\274\215\013\366:R\004\"\2755\266\031\274W\257\\\273r@\035\275\333a\206<\367\231&\274\215\004\312\274\205\312A<\314 Z\275P\361)<G00<\236\253u<\216y&=\025O\234<-\315c=\356\013@\273\320\246r=\000R>\275\247E\307=\372[\261\274<\017\341\274\017i\262\274\230\3513\274\373\271\003\274\246\267w\274\021A_\274\356@\261<k\313\n\275q\274\014=\3279\242<\024\203s=\022\004\201\275yT\255<\312\036\030\274\370\222\215\272gRh;\021\300\242\275\207\271\270<\200\313\017\275\"\200 \274\214\360\347\274\034\203;\273\342d\220<\373A\310\273\037\033\226\273\225\332A\275\302\263-\275\255\345z<%\373\276=w&\212\273\033\356%<\200P\035=\307!;<\232:\251\273\321+\\=D\021M\275l\t\237\274\333\241\300\273J\265\266=\025\222\004;\231/w\274\\\"\323\274\362\306\332\274\200\371-<$Go<{,\277\274\350\010\330;<\027-\275\220\003\271\273\273R\002=\225+\007=C`w\2752,\r\275-C\006=\333\234p\274+nH\272\0053b\275f)\014\275\270&x\275\364s\240<T\374\t\275\016\257\305<\365\231\243;\024\360S\274\310:^\274:\361\2579\355Y\206<\3709\352\271}K\003<Zc\372\274\236\343\016\274\211\222l=\330\362\240;\3072\'<6\245a=\362<_\274~\276\247\275\225\232\247;\260\236\273=n\340e\275n\300\021\274\334Q\317\274\342\234\355\274\274\363x=e\371\237;\023J\003<1\310\210<\253\335\037\275\224y\353<\234?S\274h\226\275<Q\014\224\274_\030t<\004\215\2349\025\235\334\274\220\215\031;~0\t\275x|\330\273\344\002\251\274\246\326\356;\nC\024\275\274\267X\274Q\223\245\273\244Q7\275\275\235\252;>\177\036\274;\002\027\27502%<|S\252\275\316xW<X\345/<\027z!=\036lB=\311\264\272<+d\300\274[\005\374<\275\037=\275\037\007\312=!\026\266=\022\242\205\274m\005\010=Z\352R\274\215\242\000<%\013\264<\223.\353\274\255\237Y\274I\034(\274u\266\243=)\374R<\002\344\242<\304?\352\273\010 \326<\3331\377<$\317\217\274\201y*=v-\003<b\346\216=z\231\017=g-\205\275\315u$;\'8\205=\277t>;E\364\243<\340m\272;\315\350\201<J\036\360\274\003\332O\274\027!\013<\232D\361\275e\352&\2748\300n<\363\317\361\274V\366\327\271!\024\306:x\r\335\274^\235\273\274\367\025D<\351\254\201=7~\260=\374\355^<\352w\341<\2002\200\272cwm\274q\354}\274S\221+;&\255\365\274\023?\204\274\207\262\237=\007Wv\274\204\345\335<\314\270\241\274\t\337-<\313\377A\274G\262\345<\317\346\216<`13<\377\005t=_H\263\274\300!\237\275\202\307\335<\244fN=~\262\036=6\230a<\230\007\251;)=\214<\213\033,<\251\343\205=6\334\307:\243>\342\274\241\344\013\275#\207\345\272\352\374\020\275\tc\275\272\346\227\210<\262H\252\274\355\362\261:jA\253=\271\024\300<\205\234E=b\324&\2750\356\351;\2552f<\013V\225\274\2703\262\275\264\2742\273JB08\rH\337\273\225\021\261=u\223\250<\n\333\332\274\365\0172;\207\002\212<\037\376\001=\257N\302\273!\314\315:v ]<\323\032#=\211\320\216;\364\244\\\275S\014\232;C-k=@\273\237\273\024\310\016<a\246\347\274\001yJ<\032\240/<5\341\263;\320\rU<\263\250\275=#\301\346;\366\231\242<\2445\326\274\214\237,=#\263\311<)o\370=\2425\365<\204\211\276\274\007\302\362=\033|`\274\316\364}\274T8\365<\344\307\243\274c\305\320;\316YC;\223\240\022\275\373\301\237\274\024\355=<\004\212 \276\0203\262<R\367 =\031\006\213;\257=i<\261\363\310<\024\302\201\273\372\031N=\215\351k<\240F\200<O\203c=\273\331\203<\320\\\200;\230\276\221=\013l2<Ku\326<;\006\r<\355\023j<\214\3523\275WJ\274\274\234o$<\216N\275\275z\211\215\274\001\026\264<v\005\022\276N\n\214;\242\363s;\312}\364=5?\017\275\014\353\231;H\013\254=\351V(\27406\007<\3358\334< \373\262\274zA\222\274\362V\341\274]\211\234:\320\256\004\275\\f\274\2726\230\"\276\217\330>\274a\363\027=\205\026\244\273\242\252\373;c\'\312\274\223\226X=t\333\201<\315\'n<\357\n\313<\371!\241\274\025y\360<\375\270\014=\200U\\=\275\266_=\021\034\201<Q+\345:$:;<\027\312\007<n\014\244=\'\260\240:\334\024\230\274\315\373!\275\204\207\032;,\372\010\276\336Nz;D\243\273<\365Q\373=u\000;\273\245]B=\236\001F=\326\360\005\275!\016]\275\223\010\312;\377\233\223\274\301\213\264\274\037\223\231\27572t\273\307\034\251;\222\214\210:s1\001\276\022\375\375<\"\024\356\274\345k\373;\341\200\304<j\203\014=\237\253V<D\346\313\273\330\352v<\365H\227<\213o\326;v\353Y<u5\t<\202rN=\033C\223;\031q\376;\352\332\014\275L\r&<\022\0323<\204\346G<\245 l<\003\210\217=\307\177J<\315\210\326<k[\364\2759ki=i?\016=b\235\274<\202\030\235<h:\027<\261\370\330=n\326\010\276\253\353\223\274\265\210\224<\312)\314:F-g;,\243\222;\313\271\r\275y.\241\274\'\016\256<\371\371\311=M!\322<\251\342\034=\004.%<\030\233\347\273\016\003\253<\347j\256\273\343\214\005=\340\253v<\242\375U\275\320\247l=\261\326\246=\035_\2419:kY\273-\353\362;\216x\337<\177 \200;\001\206\201;\332\241O\275V\301&\275\266\344\037<\031W\251:T\351\217\274\352\371\216<\027\364\n=,\215\006;\201k;\273\222w\365<\365pC\275\340\3276:\347\203\215=\321\364\375\275\306\363\237;\032\336\254<\364\270e\274\220g\260\274\332\266\200:\361l\250;\244\202\000\275\030\341 ; \275\351=\204\352$\274+\323\024=d\3341\2726\221!\274\027X\010\275MiH=\231\335\271\272\3560I<\t\337\334\274\363\265\263\274}\267\320=\356\'\372<>{_\274\020\226I=\344ln<\317N\272\273\242y\340\272#\350\301;@\211\207=WW\264\271r\333\217\274Z\341&\275\227[U\273W\326;=\272\373\340:\030\266\210<\253L\003=\266b(\274\341\317\271\273-\355:=D!\362\275\356\307y\275\2702\353;|7\313\274\303!\316\274\207l\030\271\202ce\273\2601\325;\026N\207;\265\033\310=\230\334\013=]\262\004\275\234}\022;\274R\225<\321h\344<\217?\t<Dk\321\274\006\220L<\223\222\214\274\'U\270;\236&l=\206\366\314;\367M\366\2747\300?\272\360\251\243;?\017)\275\000\250\177;\343j\220;\263\021\014:\350T\\<.[\026\275d\217B<\302\272\256<yJ(=4ym=\357D\001=+\332\353\275\036\033\236<\335\301s<\341\260\306=\300y\257\275\201yM\274\037\005v\272\272b)<\213&\272;\240\206(\274\374L\365\274\222Gq\274:\315\271<\243j\027=\356\274\275<\274\316\341<\207\224\210<\253\276\320\274\0212\313<v\335\207\273NM\233<\210\317\003<L\337\215\275j\026C=\261np\274\007\275\214\273\014\373p\275z\345/;$\336\221<\241.?<\203\267\203\273}\002<\275\323\2405\275\352\214$<\361\316_=\302\2708\2741YW<\236\242\334=\332z\200;\306k\213\273J\375\321\275W/#\275F\227\363\274\255\003}=B\344\237\275\335\355H<\314/\203;x\254\274\274\333\304d\274 *\316;\302\377\004<-\362\311\274\000z\270;\177\241T=v\241\203\274\007A\014=\036(C;\216\352\317\274\245\205\t\275\320\"\035=c\036\t\273\345\273\255;\360\036\024\275\342w\260\274\010\266\221\274v\226\237<o\353c\275n\365\n=NY\367;}\364b; \201\022\274\210C\351;\370}1=C\006\245\272\\\264#\274\002\013\017\275;\201\365\273\337(\001>\0053\303\2735\036\377;w\370\274\275\265YH;m%o\275\325\226*=Z]h\275\347\261=\275\232[\021\273\025dF\275\336\013D\2747kQ=\236\353m\27377$<\350\240\346;W\263\220<\320u\343<Y\346\347\274U\260]\272\037\211\207<\211\262\302<\\*\361:\364\211\255\274\355?\343;x@X\274|\274\333;\'\330\261\274+<\212\272\356\031y\275\201\355\371\273y;w\272\242\271\354\274Y\326\310;\027\235m\273\307 _\274#\252\'<\2738\250\275\304\027C<\326a\211<\201[\311=/\2540=;\270\246<\311\352\362\273\234\261\210;\025/\002=\212\206\262=J3\r=f\250\246\274\\\026\200\274\007\'\242<\226\356v\273\313\331\271\274s\337\376\274\275)j\274\334n\013=B\372a\275?\330\350<\241\340\252<x\016\010=\366\310\001\275\377A\235<{\365\231\273K\322w\273\037%A;\324J\310\275\310\2112=\231)O\275\255\2636\273f\310;\275\2135\225\273\021\316\204<DCB;M\273\243\274\033\026?\275\205\323L\275\005\227;<\355\034\265=\334\322\034\274\326\303b<O=\013<a\345F;\253\213\370\273eu\270\273\301\341L\275\322L\025\2751S0=I\324$=?\337\370;|\226\264\273`<\302\274\210\334\246\274\014\257R<\004\266\022<\t\343\242\274>\350\215<Q\265}\275\256d\t\274\027a\003=\311O\222<)\201\r\275V\235\036\275\340\036\360<\276\231\212\274\273\270T\272M\323c\275\330\272\241\274d\263\234\275\232\340\221<57G\275\325v\251<b`\311;\360\014\240\273\201e\356\274\213\242\362;X\034\331<\3278[\272\305\0006;\230s\371\274 \014\232\273y\360\243<\t\272G\273\020\366\242;\363\225-;Z\272\270\273\310\023\262\275\023L\311<hh\202=\223,C\275\330\010+\273\204\264u\275\246\203w\2749S\257=\034LQ\273i\014v<,\355\244</\nf\275h\000\375<\364\321\310\274\302iA<x\333\024<\034\037w<\351\246;\272\020\276\t\275\034\227H;\300\332\265\274\271e\301;\247\342\n\275\376@\264;:\377_\275\333$S\274S\231\303\272\207w\017\275\013e\003\274\377\'\223\273\366\333\355\274\330.\350;|\200\336\275\010\020\201<(w\206<\202z\204\273O\350;=\271\236\255<i\263\243\275b\321\310<w29\275\rm\212==)\207=)\325\262\274\202\364\234<\340\341):\374\033\006<\262\003\321\271/\277\373\274\255FZ\274\021\234\237\274J\304\223=\324\323\214<>S,\273\002\2557\275\204IU=!v}<\350\031\216\273\353\032f<\251\323\373;\327@\320<|\374\341<\245!<\2759\320\304;\235\'`=\377n\302;S\353g<\356N2<\001g\244<K\331\242\274(w!\274\242\010e<\226.\260\275\202\004s\274\233\000\231<\370\006\205\275@\222\240\272|\372\312:\310g\241\275~\353\227\274\3750\217<\352\246\020\274\2653f=:\200+<*\024@<#F*\274_];\274 \225\231\274#\266\343\272\375\245\317\274%T\231\274JO\200=\366\311>\273>\277X<L\250F\275\306\266\361<\306*\262\274\276\204\357<2\354\251\267S\2032<\024\341\025=\266\307\254\274\251\264\207\275(\337\215<\004\033\027=\026\202\021=\376\232-<\361\231O<\303P\252<\022\270\207<\036[}=U\375\'<\277\214q\274\010d\006\275s\360\322;\267\262\216\275\370q\303\272\223\356;<\305d\221\275\315|\336;N_\251=.\253\"\275\263\312\316<S/\003\275d\034\3709\360j\302\274\306$\362\273\177M\214\275\226Hf\274\267 ]\273\300\273C\274\261E\223=\0253\335<\377t\017\275\303p1\274\204m\r<\010e\300<\345\313P\272\343\242{\274\213,g<\333\266\362<\342\313\207:\373\367/\275\025V\202;\312\226\016=Pd\034; \017\036<L\362Z\274m7\216<\343\362\262;\352\346\240;5Q\232<=]\300=C0\2369\310\371\254<\234Ni\275\026>\002=89\207<\033#\010\274\273\250\257<\375\352\014\275\031\242\270=\241s\270=\253g\256\274z\333\305<\215?\251;\024\313\240;\306\352\227\274\317\332\025\275\346}\247\274X\337\263;\024\201\016\276\245p\262<>\314\201<\344\224\000\275}+\213=!\2671<\362\233\007<\265*\252<N-R<.+2\275\227\2678=\2336\252<8\312\022<\234cv=\'KV<2N\232<\307\347;<B\tl<\2548\004\275LG\225\274\262\346e<\265\245\213\275:\n\270\274==\304<\000b\024\275\256\000^;\325;\212;\312P\211\274\365g\006\275\377\010\304<\217\n\253;[\276\267=y\232\245;\275\024\234<\252\345\213\274\035&\204\274\224\217\264\274j\303\365\272\'`\351\274)\276\350\271\2746\031\276\342\327A\273\025\261\273<\301^\n\275\020\023S=}\003\005\275*\313R=F#0\2731la<~\033f\274{\347\240\274<\361\342<\357\366\331<h\030!=\255\233N=\232\030L<\231\031\n<\322\2164<W\267\210<\2370\241=\023S\r<\334\340\237\274\245m\034\275\022>\014<\272\275\335\274\014\345f;!\210\220<\247\356\036\274\242H\213:7\014\244=_\230\371\274\257rz=A\2720\275\r\020\217;2\0217\275\236^A\274\032\327/\275\366Gr\274\273\031\035:\226\t\254\272S1\343\275\000\003\t=1@\030\275k\354\266\273\350\311\346<\373\371\334<\355Y\206<F\272\263\274/\263p< 8W\273,V\031;\034\256\202<\231\333\013<(9\370<\227\320;<\241\315\017<%V\235\274vuN<\'\367\363;C\356\\<5)\231<E\246_=Eo\237;\246\240\323<\377\340\002\275\307\265<=4\\\330<\030\032\t>\325R6<\235\274m\274P\347\237=c\275m\274\016\361\253\274\274\306\270<!\211\303<\217\340i;\224U\240\274ee\017\275)G\231\274\362d\247<\367\340\244=Tb\314<-,\206<*\347\357\274d\240\225=L\247-<_\275\311;s_\340;JgV<\t7\240\275\021\313F=\331\247\212=\250\212\362;\316_\375;\354+\035<\321\252\244<\222\r\312;\247n\324;-\335 \275\007c\n\275B\215<<\036\232\313;\"\242\243\2747\225\250<.6\016>\356\333::\272\340B\273,F\376=\212?7\275\010\266\334<y\356T\2741\177J\273\376i\221;\310\366\254<\200\343\r\274\336\030\222\274\"\303\267:=L9;\305U\315\274\264h\366;\2771\272=\220\202\365\272\257\017\301<):\002\275e\370u=g\356\027\275\000\026;=\352\371x\274`\023-<K\234\034\275\202\232\237\274\226/\253=P\037\312<\371\311\000\274\"\2237=ST:<\336yq:-\213\336\270\243@i<\370\215\211=\317Q\236;\000\202\335\274\234Z\023\275\014\276g;\343Q\034>\235\256\3669+w0<\231[\373=\017(\260\273\30037=#\270.\275$\352\204\274\336\251;\275\010\326\352;4\3638\275H\227I\274\262\026\354<\227\250b\274\355\306\233;\227\005p;/\301\240=k\n\024=\005s%\2759/.\274\226\254)=\332\255\305<\374\2130<Gk\017\275[\"5<\313\247\213\274\215Q\';L:7=\361\354\331;f7\347\274q\202\302;}\035\307;\360\323\316\274\224\301\004<\000\223\035;\256\231\220;\222Q{<)KZ\275\303\254\372;\n\003\263<\353>\t>Oz>=\330_\273<\016L\216\273\253\373\002<B\006\217\272\366\246\236=i\320\324\275\240\024\200\274\300!$<~\214\366<v&];x\210\322\274\206\241\376\274\013\336\200\274\214\375\300<\215\221\020=\231Z\230<\224\235\371;&O0\2748\252X=G\3262<\361U\226;\207%\325\273\350\360\301;k\212\243\275\024\324\023=pr\'\274 \313\227;e\264\035\275/\221\244;\014x2<\313GG<8:_\273g\357\024\275\253~\013\275\275\277\037<\334Z-=\230\374\177\274\214mP<\026\246X=\361\r);Au\200\273\333g\206\273S\212,\275\353;H;r\313\037\274\345%\260\275V@@<\035\'5<^\2141\274\343PQ\274~\317\237;\255\370\272;1\375\252\274\321M2<6\271F=d5D\274%\320\260<i\247\235\274\347\351*=\337J$\275jZ\007=\315\325\212\274\323EQ;\336\334\033\275$\365\271\274\361\037e\274X-\216<\347\177\"\275wV\373<\260\234\223;\200\245\010<\342\262\031\274\236\257c<t\032M=\323-\355:\232\323\217\274\277@\004\275\270\255\227\273@\035\212=\321\265\326\273o-V;\362\031w;O\247\005;\326q\244\273\361e\016\275\021%\244\275iP\007\275\336\007\341:\010\245i\275\240$A\273\303K\214=!yX\274\227\n\333;\307\347\223;\217Q\200<@b\332<\016\035\035\275)3\342\273<\333\026=+R\216<\266ac;K\023\377\274\276\272\267;1$\250\274\374>\214\271=?\230\274\023\313\337:/\357>\275|!\252\271\313\207J:y\231\200\274K[\004<\252i\256\273\331\341\206\273e\371+<H\233\256\275\207$\333;?\375t<I_q=s\006\n=O?`<\211D\223\274%M\273\273\022B\"<\253\353\233=\024\321\236\275NJ\270\274\331\322\3059\335\214\366<\227\361\201\273\307\250\021\275\033\255\004\275$\346M\274@\253\025=\204\373\037\2755\327\247<\020C\215;\355Hf\274\326~\'=\361\312\263;\207\016\3378\251\024\341\274\317\245\\:\312\355W\275\200\016\004=\217\332\020\275/\350\325;ao\354\274g\273$\273+h\020<\376L;;\262\314\272\274[\234\023\275\203\026/\275\n<!<\332\227\202=\213L0\274gi=<A\236\234\275\036\020\\8\230\204\370\273\317\017\217\274\0108S\275\300D\201\274\202\225\022\274\357\010o\275\300\273\367;\276\322\373;\261nt\274h\367\214\274\315A\002;v\323\340;\221\366X\274\346\235\273<x,D\275\347\223\005\274\031.\270<\200\357\300\274\334\237\323<\274\2246\275U\365\234<D\352\364\274\001\227^\273td\037\2743\350\243\274\010yp\275\016^\202<\n\222\t\275\016\352\207<\270\320\';\355\257\213\272\311\220\005\275\263\363x<\246;\370< \0016:pB\203\273\327T\311\274\375\315\206\273\"\304\216\275\312\271\330\273i\026\234\271\233\371\305\273\301\021\264\273\211,\200\275^\206\371\274\211\213\344\274\326\236\n\275&#\250;t\'~\275\014u\200\2733\034\242=\216PB\274\213\246t<\321\331\205<\315\2164\275: \334<\310\253\005\275\244\231Z\274\205\224\356<\213?\034<\274\200]\273\371(%\275\303YO:\311\037\006;\n\261\233\270\305G\222\274\243\370\333;\'\343\031\275\254M\371\273\343P\373\271\n\t\273\274r\'\027\274\032\373\222\273\315\325\263\2747\306\302;\221p\313\275\211\232b<\2472S<\323\275\213\275\025\210\n=b/[<\366\3738<d\032\004=}\364\211\275^1\202<\306!\276<\257\344\312\274\314\271\234;\310\250\363;3\265\353;\377\036\t<w)\010\275\017\366\202\274\216 \020\275\236h_=\'\201]<\000\367l\274\033\234\214\275I?3<}\322\376;\035H\n<\222ai<\036\333\226;\316\227\022\275f|#=\373\330\356\274\204r\003<\237\211>=\201r\275;\211\016\345;\\\354\234<\000\373\211;OWk\274K\021\r\273\000+\206<\340x\211\275\302\307\261\274z\346M<\257B\235\274\"C\017\274\234W\274;B$\205<\203\371\243\273qLW\274 _*\275\003\244\274\273\026\3034<?\201,\271\323\000h\273\233&\020\274\360Q\"<\304\316\235\273\273\241\274\274\211-\005\275\177M\030=\254\rO;\341\356\257;\343\277\204\275B.\036\274\277@\266\274\231\337\344<\321\277Y;n\177\371;\367q\366\273\303I\251\273\205\217C\275\364\r\327;\312\346\341<\205\316\326<;\221\254;nl\275<\276\000\332;\305m\247<\234\304c=Io\203<$oU\274c\023\004\275\355y\220;\213\376\307\274\332\355\237\273O{N<)\332\232<4\360\274<k\037\201=\326\245\033\275\005\024\023\275\355\240\273\274\244\003\230:A>\032\275LD\334:\303\377l\274[\300\202\274\014\310\245:\233\335\323\274h\216H=&\360\372<\tF\037\275\311#\343\274q\213\017\2755i\265<\007\302\353;\310VM\274\345\345a<\250\306F\273_\353U<\003\010\326\274\346]\232;\177&m<^\236\351;\253\004$<W\346\206:\354\307j;\215[\026<~&\276;\n\306\262<u|\240=\316\316\026;:\311w<l\346k\2747b\322<ha\223<.\247\243\275\335\016\364<\345\035x\275m\312\t=\2022\243=\006\326\302\274\\U\177<)5\224<(Q\\;.L\253\273\005i\037\275\3567\306\274\032\306\034\274\301!\247\275\003A\245<\345%a;\337ra\275\035\325\003<\346\300\234;\263\363\225<\335\321\253<Jq\034<\303\025\227\275\270\t}=t\316\034=c^?<\007Q\211=\271+-<A\3679<\3730\224<W\007\233\2724S\353\274\252\275\027\274\302\274o<x\266O\275\330X\363\274\256\340\237<\247\010\215=#ym\273\255\310\n<\352n\257\275H5\222\274\205\212\372;\244\342\023\275\242\330t=\200\353\357;\355KE<\327<57bNR\274\336\332<<$\201\223\2737v\325\274\254\254b\274\377\345\320\275\335j\301;H\265v<\357\306M\275?\002x\274\364Q\370\274\016\3708=\220\340\022;\316\343)<\322\222\366\274B\333\354:\010j,=z\212y<j\2221=c\267\031=\346.\357;iv\227<\311\367S\273{\360\233<8\334\221=\312#K<\n\351\245\274\346t\025\275\3153\017<I\010\214=d[\205:\244\243\227<O\013\217\275\177\365\231<\245\200\273=\027\263\022\275u\202\316<\337j\373\274\204\262\345;\223&4\275m\213\225\272\234 \237<\256wz\274M\203\302;\335\026\202\274\345\310\203\275=\'\037=\361\321\'\275j\345\231\274\216\364C\275/\341\350<]\354\251<\000\331\213\274\320\036`<x\262P\274\357\336\223<\322\330\020=\235k\024<P`\313<\013<`<\224\265\023<\222(\213\273\374\342\333\272M\0032<^\326A<\351n\233<\271j\377<x\005\013<Ea\256<D^f=\355H*=M\321\346<\334\352\207<\314\013\241<\26649\275\340\210\300<\222\330\262=-B\310\274\026z\257<A1\307<\341\223e;z|^\274\265\331\036\275\255\"\252\274\314\001\036<?\272j=\222g\263<\317\023\322;\252m`\275\301\022H<\276\326\246;\320\326\200<\256\225\360;\322\255?<YW\215\275]\227\204=L/Y=\002Gr<\250\377\342<ZI\022<\347\365z<\2109D<\222\324D\274\225E\030\2752>\245\274`\032J<l\327\227;\265<\327\274\313]\211<\377\nc=\333\337\343\273X\306\266:\350\tg\272\227J\370\274F\001\335<uYO\275A\037\261=\250\022\305;\340A\250<\313\005\245;\313sW\274\337\261\262<6\303\251\272s\250\257\274\356\275\344\272\266P\205=\276\365\265;\347\226\223<\000\243R\275@\365M\274\373`\013\275\274[\036=W\027!\274\275/\014<I\300\235\274\211\335\324:\350\263\213=T\347\223<<-\221;\243\250\t=x\323\020<\251\022-<\010\277\224\274\210\r\200<\350\220\203=\342\270\013<e.\031\275\273O\t\275<:~;\200\017\205=]W2\273\",@<\024*\202<\355\240=<\301)\272=\272/H\275n\230H=d\026\t\275\014\217X<\024\357&\275KC\363\271I\372\210=\347l\202\274\215\3505<9h\010\274\343Lv=q\364 =m\215.\275]\326\310\2741 :\275\353\217\327<n\004y<\221{\356\274n\0262<\301k\212\272\267\344\213<\362\214\032=\000#2<\035\262\255\274\025\265 <\002\'\013<|\t2\274\256\001$\274s\222\261;\302\347\326;\013\"w<\212\246\217\275\361\216A<\350\035\215<\r\305\035=\032C)=\355\333\312<\356Fp<|\372P<\325\272\323\2745M\022=\20617\274w\177\202\274\033\365\216<@\333\365<\317?\222;\214\315\304\274E\016\004\275\027^z\274\325E\206<z\336\002=\017Z\204<\313\350\305\272\007j\017\275\213\276b<\313\204\013<\344\315E<\305a\014\274\220\226\277;\267\366L\275X\235M=:N\264\273\261\204K<\316\347\263\2744o\267;\201\243\340;\305A\205<\037\007\307\274%3\004\275\370%\234\274\326\314\027<\205:\253<4\227\226\274w\314\027<\225\233~\275\005\321{\273\344\207\"\272\202\314\007<:\223\000\2757\"\306<\233\227\017\275\264\366\347:T\277v<A>\226<>\207\014<\330U\361\273\033\364\017<s\370};\270\321r\274t~\253;\004\372C=\366v\212\273z\327\207<T\332\030\275/VP\2745\322\007\275\036\301\275<X~e\274\034\223\025;4f\n\274\231\023.\273\267L\220\273\241\257=<\2126\021\275@\361\252<\342\033[;\343\203\205<3\274\365\274\226f\216<\315\310N=\274\231\223;B?\364\274Q=\330\274\000\320\203\273\231\363C\275n\303\025\274\271\236F;\366M\274<B]|<7\020\214=\260\240\010\2754\022\256\274\2638\241\274\3444/<\224\302\"\275\212:\022<34\232=\264\rS\274\3677r<\364\203\262\2732R\264<\017\026\371<\202_&\275]\237\210\274\310\375\026\275,\025\276<\216.\242;\'\364\332\274O\376\276;\013|\201\272\013\212^<kR\021\274O\207\226;}\2779\275\371\330[;\246\342\205;\302u?\273\342iO\274\315y\3319\230w\2179\364<\026<\331i\271\275\352\326^<\330\\4<+\240X\275\200\330\356<(!f<}\265\024\274FV#9u\300\031;r&9=E?\216\275\241-\277\274\335\266\235<\260\035\332<\004\344/\272Pu \275\036S\010\275\320\213\027\274\340T\003=\356\033\245\274\005\014p<V\244\334\2723\035[\275\223\377\346<\010\n\273;d8\003<<{\361\274a\322M;\311\200Q\274S\263:={\234\207\274\223\362\226<-\270\252\274\323 \207:!G\317;T\320\003<\242\324+\275\261\222\010\275\326\237\343\274\006\246\013<NW\031=Xl-\274\365g\356;\343\233\"\275r\227\343\273\342\247\227\273X\274\277\273#X&\275.\324\306<\317\223\226\274nH\\\275\363l,<\356\025\322<kHL;\"\264 \274\315P&\274~\261\262;_\252\262\273\230\000\227<\205\034\360\274\016\233\235\273S[\237<:Oh\275$$z\272\333I\023\275\'/#<\235\272\333\274\272\211)\273\000W\253<\030\006\203\272TO\t\275\002yq<\206\323\010\275i\314+<\352\373.;\372\242\004<\253\233O\275\376K\213<\212\267\005=\355\013\002;\025h\030\274W\317\211\274m\311\271\273\267\371#\275\223~,\274\267\335`\272\252\214\324;\265\023\023<M\307\316<\226\236\240\274\331\217*\275E\325\264\274\213\255\273<*I-\275\302\323\032<\243\212j=l\2463\274<\205\313<9|\267;cD\317\274\221p\332<\363\017\013\275\365\270$\275&^\236\274i,\217<\213\004\265\272\342\317\020\275\306V\027;f\337\214<\235\366V<]\021:;\232\355R<\220\272\017\275\240\375\242\272\312\220r;\231<\024\274\247B\334\274)\007+\2715\233|\274\3052`;\336G\272\275K\365\271<\224\006\363;\267p\300\274\363-\347<\377`\\<"
      }
    }
  }
}
node {
  name: "conv1/Const_1"
  op: "Const"
  attr {
    key: "dtype"
    value {
      type: DT_FLOAT
    }
  }
  attr {
    key: "value"
    value {
      tensor {
        dtype: DT_FLOAT
        tensor_shape {
          dim {
            size: 40
          }
        }
        tensor_content: "\2337\236>`a\014\276c\355\207>fy\222>\240\374\224>\316\213\254\275\200]F=\357\320D>/\007J\275(1\024>3g\231\275\362\355Y\275\275\231C=\r\341\225>\272\253\274<\325\231\213\275\3158w>\334\272\224>\027\017\315\274Y\264b\275[9\267\2740d\227=$:\220>\033\264.\276\030\345\220>0,\310=\337u\204>\243\324\324\274n\351\254=\024\222\020\275\326$g=y\217\373\275L\235\356\274\262\276m>\014z\215>\037\212\217\275\261O\223=.\253\221>\257\246\341\275&\331\350<"
      }
    }
  }
}
node {
  name: "conv1/Conv2D"
  op: "Conv2D"
  input: "XXX"
  input: "conv1/Const"
  attr {
    key: "T"
    value {
      type: DT_FLOAT
    }
  }
  attr {
    key: "data_format"
    value {
      s: "NHWC"
    }
  }
  attr {
    key: "dilations"
    value {
      list {
        i: 1
        i: 1
        i: 1
        i: 1
      }
    }
  }
  attr {
    key: "explicit_paddings"
    value {
      list {
      }
    }
  }
  attr {
    key: "padding"
    value {
      s: "SAME"
    }
  }
  attr {
    key: "strides"
    value {
      list {
        i: 1
        i: 2
        i: 2
        i: 1
      }
    }
  }
  attr {
    key: "use_cudnn_on_gpu"
    value {
      b: true
    }
  }
}
node {
  name: "conv1/batch_normalization/gamma/Initializer/ones"
  op: "Const"
  attr {
    key: "_class"
    value {
      list {
        s: "loc:@conv1/batch_normalization/gamma"
      }
    }
  }
  attr {
    key: "dtype"
    value {
      type: DT_FLOAT
    }
  }
  attr {
    key: "value"
    value {
      tensor {
        dtype: DT_FLOAT
        tensor_shape {
          dim {
            size: 40
          }
        }
        float_val: 1.0
      }
    }
  }
}
node {
  name: "conv1/batch_normalization/gamma"
  op: "VariableV2"
  attr {
    key: "_class"
    value {
      list {
        s: "loc:@conv1/batch_normalization/gamma"
      }
    }
  }
  attr {
    key: "container"
    value {
      s: ""
    }
  }
  attr {
    key: "dtype"
    value {
      type: DT_FLOAT
    }
  }
  attr {
    key: "shape"
    value {
      shape {
        dim {
          size: 40
        }
      }
    }
  }
  attr {
    key: "shared_name"
    value {
      s: ""
    }
  }
}
node {
  name: "conv1/batch_normalization/gamma/Assign"
  op: "Assign"
  input: "conv1/batch_normalization/gamma"
  input: "conv1/batch_normalization/gamma/Initializer/ones"
  attr {
    key: "T"
    value {
      type: DT_FLOAT
    }
  }
  attr {
    key: "_class"
    value {
      list {
        s: "loc:@conv1/batch_normalization/gamma"
      }
    }
  }
  attr {
    key: "use_locking"
    value {
      b: true
    }
  }
  attr {
    key: "validate_shape"
    value {
      b: true
    }
  }
}
node {
  name: "conv1/batch_normalization/gamma/read"
  op: "Identity"
  input: "conv1/batch_normalization/gamma"
  attr {
    key: "T"
    value {
      type: DT_FLOAT
    }
  }
  attr {
    key: "_class"
    value {
      list {
        s: "loc:@conv1/batch_normalization/gamma"
      }
    }
  }
}
node {
  name: "conv1/batch_normalization/beta/Initializer/zeros"
  op: "Const"
  attr {
    key: "_class"
    value {
      list {
        s: "loc:@conv1/batch_normalization/beta"
      }
    }
  }
  attr {
    key: "dtype"
    value {
      type: DT_FLOAT
    }
  }
  attr {
    key: "value"
    value {
      tensor {
        dtype: DT_FLOAT
        tensor_shape {
          dim {
            size: 40
          }
        }
        float_val: 0.0
      }
    }
  }
}
node {
  name: "conv1/batch_normalization/beta"
  op: "VariableV2"
  attr {
    key: "_class"
    value {
      list {
        s: "loc:@conv1/batch_normalization/beta"
      }
    }
  }
  attr {
    key: "container"
    value {
      s: ""
    }
  }
  attr {
    key: "dtype"
    value {
      type: DT_FLOAT
    }
  }
  attr {
    key: "shape"
    value {
      shape {
        dim {
          size: 40
        }
      }
    }
  }
  attr {
    key: "shared_name"
    value {
      s: ""
    }
  }
}
node {
  name: "conv1/batch_normalization/beta/Assign"
  op: "Assign"
  input: "conv1/batch_normalization/beta"
  input: "conv1/batch_normalization/beta/Initializer/zeros"
  attr {
    key: "T"
    value {
      type: DT_FLOAT
    }
  }
  attr {
    key: "_class"
    value {
      list {
        s: "loc:@conv1/batch_normalization/beta"
      }
    }
  }
  attr {
    key: "use_locking"
    value {
      b: true
    }
  }
  attr {
    key: "validate_shape"
    value {
      b: true
    }
  }
}
node {
  name: "conv1/batch_normalization/beta/read"
  op: "Identity"
  input: "conv1/batch_normalization/beta"
  attr {
    key: "T"
    value {
      type: DT_FLOAT
    }
  }
  attr {
    key: "_class"
    value {
      list {
        s: "loc:@conv1/batch_normalization/beta"
      }
    }
  }
}
node {
  name: "conv1/batch_normalization/moving_mean/Initializer/zeros"
  op: "Const"
  attr {
    key: "_class"
    value {
      list {
        s: "loc:@conv1/batch_normalization/moving_mean"
      }
    }
  }
  attr {
    key: "dtype"
    value {
      type: DT_FLOAT
    }
  }
  attr {
    key: "value"
    value {
      tensor {
        dtype: DT_FLOAT
        tensor_shape {
          dim {
            size: 40
          }
        }
        float_val: 0.0
      }
    }
  }
}
node {
  name: "conv1/batch_normalization/moving_mean"
  op: "VariableV2"
  attr {
    key: "_class"
    value {
      list {
        s: "loc:@conv1/batch_normalization/moving_mean"
      }
    }
  }
  attr {
    key: "container"
    value {
      s: ""
    }
  }
  attr {
    key: "dtype"
    value {
      type: DT_FLOAT
    }
  }
  attr {
    key: "shape"
    value {
      shape {
        dim {
          size: 40
        }
      }
    }
  }
  attr {
    key: "shared_name"
    value {
      s: ""
    }
  }
}
node {
  name: "conv1/batch_normalization/moving_mean/Assign"
  op: "Assign"
  input: "conv1/batch_normalization/moving_mean"
  input: "conv1/batch_normalization/moving_mean/Initializer/zeros"
  attr {
    key: "T"
    value {
      type: DT_FLOAT
    }
  }
  attr {
    key: "_class"
    value {
      list {
        s: "loc:@conv1/batch_normalization/moving_mean"
      }
    }
  }
  attr {
    key: "use_locking"
    value {
      b: true
    }
  }
  attr {
    key: "validate_shape"
    value {
      b: true
    }
  }
}
node {
  name: "conv1/batch_normalization/moving_mean/read"
  op: "Identity"
  input: "conv1/batch_normalization/moving_mean"
  attr {
    key: "T"
    value {
      type: DT_FLOAT
    }
  }
  attr {
    key: "_class"
    value {
      list {
        s: "loc:@conv1/batch_normalization/moving_mean"
      }
    }
  }
}
node {
  name: "conv1/batch_normalization/moving_variance/Initializer/ones"
  op: "Const"
  attr {
    key: "_class"
    value {
      list {
        s: "loc:@conv1/batch_normalization/moving_variance"
      }
    }
  }
  attr {
    key: "dtype"
    value {
      type: DT_FLOAT
    }
  }
  attr {
    key: "value"
    value {
      tensor {
        dtype: DT_FLOAT
        tensor_shape {
          dim {
            size: 40
          }
        }
        float_val: 1.0
      }
    }
  }
}
node {
  name: "conv1/batch_normalization/moving_variance"
  op: "VariableV2"
  attr {
    key: "_class"
    value {
      list {
        s: "loc:@conv1/batch_normalization/moving_variance"
      }
    }
  }
  attr {
    key: "container"
    value {
      s: ""
    }
  }
  attr {
    key: "dtype"
    value {
      type: DT_FLOAT
    }
  }
  attr {
    key: "shape"
    value {
      shape {
        dim {
          size: 40
        }
      }
    }
  }
  attr {
    key: "shared_name"
    value {
      s: ""
    }
  }
}
node {
  name: "conv1/batch_normalization/moving_variance/Assign"
  op: "Assign"
  input: "conv1/batch_normalization/moving_variance"
  input: "conv1/batch_normalization/moving_variance/Initializer/ones"
  attr {
    key: "T"
    value {
      type: DT_FLOAT
    }
  }
  attr {
    key: "_class"
    value {
      list {
        s: "loc:@conv1/batch_normalization/moving_variance"
      }
    }
  }
  attr {
    key: "use_locking"
    value {
      b: true
    }
  }
  attr {
    key: "validate_shape"
    value {
      b: true
    }
  }
}
node {
  name: "conv1/batch_normalization/moving_variance/read"
  op: "Identity"
  input: "conv1/batch_normalization/moving_variance"
  attr {
    key: "T"
    value {
      type: DT_FLOAT
    }
  }
  attr {
    key: "_class"
    value {
      list {
        s: "loc:@conv1/batch_normalization/moving_variance"
      }
    }
  }
}
node {
  name: "conv1/batch_normalization/FusedBatchNorm"
  op: "FusedBatchNorm"
  input: "conv1/Conv2D"
  input: "conv1/batch_normalization/gamma/read"
  input: "conv1/batch_normalization/beta/read"
  input: "conv1/batch_normalization/moving_mean/read"
  input: "conv1/batch_normalization/moving_variance/read"
  attr {
    key: "T"
    value {
      type: DT_FLOAT
    }
  }
  attr {
    key: "data_format"
    value {
      s: "NHWC"
    }
  }
  attr {
    key: "epsilon"
    value {
      f: 0.0010000000474974513
    }
  }
  attr {
    key: "is_training"
    value {
      b: false
    }
  }
}
node {
  name: "conv1/batch_normalization/Const"
  op: "Const"
  attr {
    key: "dtype"
    value {
      type: DT_FLOAT
    }
  }
  attr {
    key: "value"
    value {
      tensor {
        dtype: DT_FLOAT
        tensor_shape {
        }
        float_val: 0.9900000095367432
      }
    }
  }
}
node {
  name: "conv1/BiasAdd"
  op: "BiasAdd"
  input: "conv1/batch_normalization/FusedBatchNorm"
  input: "conv1/Const_1"
  attr {
    key: "T"
    value {
      type: DT_FLOAT
    }
  }
  attr {
    key: "data_format"
    value {
      s: "NHWC"
    }
  }
}
node {
  name: "conv1/Const_2"
  op: "Const"
  attr {
    key: "dtype"
    value {
      type: DT_FLOAT
    }
  }
  attr {
    key: "value"
    value {
      tensor {
        dtype: DT_FLOAT
        tensor_shape {
        }
        float_val: -0.7593595385551453
      }
    }
  }
}
node {
  name: "conv1/Const_3"
  op: "Const"
  attr {
    key: "dtype"
    value {
      type: DT_FLOAT
    }
  }
  attr {
    key: "value"
    value {
      tensor {
        dtype: DT_FLOAT
        tensor_shape {
        }
        float_val: 0.9280202984809875
      }
    }
  }
}
node {
  name: "conv1/mul"
  op: "Mul"
  input: "conv1/Const_2"
  input: "conv1/BiasAdd"
  attr {
    key: "T"
    value {
      type: DT_FLOAT
    }
  }
}
node {
  name: "conv1/mul_1"
  op: "Mul"
  input: "conv1/mul"
  input: "conv1/BiasAdd"
  attr {
    key: "T"
    value {
      type: DT_FLOAT
    }
  }
}
node {
  name: "conv1/mul_2"
  op: "Mul"
  input: "conv1/Const_3"
  input: "conv1/BiasAdd"
  attr {
    key: "T"
    value {
      type: DT_FLOAT
    }
  }
}
node {
  name: "conv1/add"
  op: "Add"
  input: "conv1/mul_1"
  input: "conv1/mul_2"
  attr {
    key: "T"
    value {
      type: DT_FLOAT
    }
  }
}
node {
  name: "pool1/pool1"
  op: "AvgPool"
  input: "conv1/add"
  attr {
    key: "T"
    value {
      type: DT_FLOAT
    }
  }
  attr {
    key: "data_format"
    value {
      s: "NHWC"
    }
  }
  attr {
    key: "ksize"
    value {
      list {
        i: 1
        i: 5
        i: 5
        i: 1
      }
    }
  }
  attr {
    key: "padding"
    value {
      s: "SAME"
    }
  }
  attr {
    key: "strides"
    value {
      list {
        i: 1
        i: 2
        i: 2
        i: 1
      }
    }
  }
}
node {
  name: "conv2/Const"
  op: "Const"
  attr {
    key: "dtype"
    value {
      type: DT_FLOAT
    }
  }
  attr {
    key: "value"
    value {
      tensor {
        dtype: DT_FLOAT
        tensor_shape {
          dim {
            size: 3
          }
          dim {
            size: 3
          }
          dim {
            size: 40
          }
          dim {
            size: 80
          }
        }
        tensor_content: "\017\223G=O$\237\274\346\321!\275\203=\315\275=E\024\275\264VO=\364\243n\272\361\241\'<\262\266\203<\332\214?=I\356H<M@\375\272k.\225\275\334\274\022\274\022\031M<R\025L<b\333m<mx\203\274\241\262\376;s\307\202=\373\226\030<\344L\326=\363\033\n\275>\205\247<f\364\001\274\'X\366\274\031\346\204=\3758\344\274\351\320d=\222\360]\274?C\005\274\376G\n=\303\275%=jr\352\274$R#\274f\347\331\274z\250~=\261\301\243\275\241\177\236\275o\3174=7\322K=\225d\024\275q\216\263;\313}z\274\231\272E=\212t3=YyA=\014\356\036\275e\202\002\275Ev\305\275#\372\323\274\3001\010=:z\233<\211+\264;e7\250\273\274\225\253\275\371t\202\275\273\213\002=]]\226<\030\326S<\024\300!\275\211\0056;c5`:lU\263\275$\233Q<\221\250\221;\005\232\205<5M\302\274\360\220\243=\202\216\035=u\2110=\245\356\246\275D.%\275\366\306\340=\303\206B\274>\243\217=\303\"]=k\225-\275\362\322\017\275O\315\016\275-\227P=\236N\022<\275\247\004\274}K\007=m\211\204=\226a\251\274\361\372\r\273q\255\242\274\241\270\331<\337\256\001\274\236`1<\254s\016<\t\272\371\273\344\202^\274,5\300\274~r\235<8\263o\274!\265\273<\321\016V\274\312\314\013<,\300\264:\235\225<\275\301\355\347\274=0\215\274\245\327:\275\221\0032=\372\243r\271\375\210\324\274\263\3375=Y\3541\275\343-\356:\235\371\233<\346CB\274\262\023\230\273,\222\327<\213\034!\275\022\2262\275\276|\350\273\214\372\264<\246\237\022=\356\256\355;i\021q<\215\222\325\274\261\361\025\275^\357\027\274\335\340\\=\364\365\230\273\0240~\274\275\373\306;)\371\"\275\020\376\014\275!ND<\036\351\001\274\3243\341<\323\300u\274\t@3<\375d\245;\304b\002=\027n\307< \023\305;]\271\364\273\342r\211\273\270\345C\275\332\227\312\274\204\272q\273\230J\367\274\003\2671\275D\376\001<c\337\016\275\226\276\020\275\021F\371<\367\323\233\274\205\t\210\274S\246\034\275|8\261\273w]@;\333h\205\275\344Pw\273\037\033(\274\021\232\221=sPk=\273\004f\2755\377G<\212\314\257\274E/\232;g\324\004=\307\232*\273\33198\275\013\223\251;s\342@\273o!\333<r\203\313<\255.\226;Y\371==\251\001|<f\030\222\274\007U)=\256[\271\273z;\032\275Ub\033\274\3442o;\355HM;3\024(\275\rt6=\305)u\275\326LN\274U\3510=\300Z(<\213dX<4ml\274\262%R\274\223\343\305\274.\337D=\257\346\314\274\217\376\324\274Dj\234\272r-\361\273\243.\226\275y\275\273<c\2346\274\027\236\220=\036\345y\274\260\341\240\2750\3240<\217\"\311\274\277Hl=\007zU\274\331\244r\274\366\236\230\274\22596\275>p\270\274\353\007\023\275\177\375\341\273x\222=\275\250G\214\2740\016\223\275\226S\'\275\365\237\344\273\361\300\374\274\312V\365;\240\252\232={\345t\275\243W2<\234j\371\274i\214\276:v\324\205<\232\333\302<\'\035>=\004b\253<Q7\340<\000\037}=\021\037\272<\227\000\221<\262\2776\275\321\204X<\022h8\2755\343\230\274]\345\027\274#\251\007<\364\023u=\033X\204\275(\240\257\274\376\347Z:\226\375j\274\030v\225\275^:=\275IS\264\275*P\213\274\004_\023\274Qz\304=\330FH\2751[a<\0170\316\272\277N\235=ije;~\321\265<\3205\345\274\302\022\306<>Y\032=\177\'\033=9R\246<\220\331C=\n\367\272<\335\030\275=\321\346\\:\357!\035\275\277\324\014\275\277\311\027=\216Q\026=\376\310\220=\'\2442=\370?\202\275:\311#=\311\214\207\275\253\354\272\275U\236*;\327\356\347\274\352K\261\274\262V\217\274\226\253\004=\t\264\273=v3\024\274\310F\207\274\007\337\023=\364U\247<\3225\251\275\001\375.=\007\301r<\204\232\273=\016\367U=\346C\'\275\0354\'=Y\200\217<=\332r=\332\263:\274\2241\216:\222\362!=\200)i\275+\203T=\335\355\341<g\r\204=\034\351\036=s\356\016<\307\303\235=\235g\263\275l\341\217\274F8\203\274\032R+=sm`\2742\373\263\274`vU\275\347{\252\274\315J\364<\316\214\222\2742\"V\274\253\037\\\2746\n;\275\256\246\253\274\177\001[=\366\263\345<\010\306\304=R\260\032\275\023o1\275\233L\206\275<en=3\254\375\274\236\301\204<\230\251(\275\234b&=\300t\023:\355\177\212<\004\245i=\234\223\250\275r\324\206\275\347#Z\274~\237\211\275\362\344\212=6\016\304\273\337\311\234=\324\023\323=2\277\330<\010\205\267=\314\"\227\275\314\227\332\274\363!\206;=\310=\275F\020\001>43V\274\037y\326<\027b\024\275,\355\027\275\202\322\334\273!\244\266=!F\024\275+\240\332\274\007\256\n\275`\217K=e\307\364\275$*\200\275\027tR=\\\357E=\213/\021\275g\204\267<\201\334\010=U^(=B\030\211=\316\033\201=\025\314-\275Yq\025\275\317\032\253\275h\025\274\274\3441\226=C2\023<\216K4\275\343\026\177\275\204c\013\276g\036+\275(\\\222\274W`d\274\2060\254<]\030&\275\327l\030=w\021\010<}\007\304\275N\323\266<\263FV\275\030\0020=\223\020w\275\0143\221=\014\035>\275/\033\342=~me\275\020\032E\274\210\300\317=\252\215\002\274\013p\362<\212\344\000=\2072\253\275[\254~\275\303t\203<\267s<=\210\320\005<\361\312E\274\307\000\022=\026\373i=\354\027\214\274N\305I\274\334\002;=\233\016\"\273\212\302\207<\333\340.<\267lB\275\257k\210=\260\035y\275 \243\303\274%\211h;P\023\330\274\t\353$\273^\267w\274DB\002<\233{\032\275w\333,\275:\034\255\274\001\271\301\274\2040\231\274O\231\232;\027q\316<\227Ul\274\307\002\316<\217H\345:yL;\2727\242v=s\204\020\275\312~\354\273\301\376 <)\233\276\274\331\217\016\275_}&<\252\227Y\274\244\240\306<~\241\306\274\275ND\274\247\251\001<\022\014\022\275\313\237,=\335\370<=\330\262\222\274t\353\324<Mmf=\0248n<1Pv\275i\267\316\274\037\343:<\265\370\221\275\230\211\327\272j\035\376\273,\336s<H\310q=z\330\240<\313j!\275O\270\003\275\371\343\003=u\261\250\273\353\032\250<\223\353t\275\267\033\320\273\017\375\331\274\371\200Y\274\306\335s\273~\371\333;\t0\264<\033\334Q=\231D\236\274p\n\373\274\"w\342:\\\324\202\275\n9A\275Qd\310<\361A\024\275g0\344\274\361=\236\274-\2236\274)\323+;\300\277\342\274U\256\355<\356j\262;\014\315\265<\005\313\205\273\260\310\210;B\263/\274~\214\324<\276<\360<r\247N\274x\347\224<\014\005\235<$\240\003\275},\227<n\326\365\273\242\32309\326\216\n=\017\tf\274u\001\246;\376.\014\275\344\260\016=\324~>\275m&\017<\213)\363<\204\203\260<\257P\326<Y=\021\274\223j\022\275\260\317\001\275p\322\272<\311}\321\274\322-u<\341\266\301<\023m\221\273\366\272\021\274SQ\t<o\225\250\272n\026\026=\030\237\031\274j\236\t\275\321\021x\273\322A2;\305G\213;50I\2748\000\206\2743A\256<\253\025\007\275K\300\365;\375\205\023=A\362w<\327\030g;\311\235\345:\370\242\'\273\nX\361\274\334,\215\273n\255]<{$\375;\257\335\213<j\217\350<\274\'\216<\014\021\237;\340\204\003\271\302\270\270<\230 Z<r\325\300;8\371\3709oz\207\274\304\344\035=*-\203\274w/]\274\317/2<\360\323\007<Kg\317;PR6\274V\242(\275\243^L\270nuT\274GB\221<i*\232\274\302\327\266;\215\344\350;\356#\254<\354\273\264<\267\324B=a\236\207=\335\277\202;pg\030;$\024\226<\212\352\335\274`\230\007=\375XM=\205\210\263<\231\244\034=\377\260\250<)w\214\274U\235l\275\311[\275\274V\222\261\273\325\335\035\275\325\240\251;\263\267\314\274X\036\036=v\260\213\272\253\347i\274\370\254a\273.JD\274\256\262_=\271\252\224:~\342a\275\365\230\303\272\\;C\275P\r\321\274X\315\002=\"\356\003\275\003%W=hgI;\021\206\270<\343\002\267\274\022\377 =\356\340\304<>\020E<T\276\315<\324\334\216\273\226\233m\274\340?q<\205\314a=\224\002 <\245B\261\274\022\020\177=\327.*<\241\034.\275\201\341Z\274\251\234\313\272\321\016\027=*\367f:p$\242<\320\364\373\274\236;\275<\"\261\275<\241m\244<]\355^<\201\017*\275f\272\302<\342\235c\275\030\'\305<\356:1=I\024\261\274\231\207\026\275)g\203=f\201q<+}+\275\022r\271<\261\273l\272\264i\374\274Q\362\010<\306\322t=\212S\034<\241Y\202=\252\335\t<YoC\274\236Y4<\211{\035=0\365\302\273\376\333d<\257{\026=\036!\330;\361\266\026=\330\271\357\273\232\241k\274PL\330\273\337\343\251\274\203\303(:\014\374\272<\332\353\360\274\003\350o\274a \030\274\265=\243<\272\225:\274M\345r\2749\'=\273\305\227\006\272\203:?\274\360_\221=\346\312\232\2737\002\210\274u\345;<\2314m<8:p\274i\317\037=\223\372\215<\022\226\344\273\241\254\267<#\201N;\375\203(\275\371\272\342<\261m\272\273\245@5=\277\323`\2742i*\274]\377\253;\020\253/\274\365\302s<\303\035a=E\265\036\274cn;<\321\375+=\330\314?\274\201\003\010\275\275+\277\274n}\016\275\341\240\262\274F\330\363;@\014\263\272\303&\313\272\271K\370<K\307\366<\372}\257;\302\304\014\274[\245*=b\346\270\274\227R\305<\223\027\006\274\344\220&<q>\376\274*\335\315;\035P\247\274t\304\315\274(\315m=\\J\004=9\236\207:\336>_\275\\\201\014\274\033\340#\2758+J\275p\267r;[sx\274[\271\002=\255 0=\222b\024=O9?=:C\267<\3540`=d\240\320<\271z\357;\322\331U\273\315o\255\274\214`\332\274(\321\002\273r4\316\274B\254\r=\250&\252<\205\263\357\273[\366\246\274\262\007\235\273|\335\234::\367\037=\355Q$\275\345}\301\274\237\311\361\274\216s\035\275\024\003\016\275i\333I=\331\371\324<\205\002-<\306\311t\275z\201\360<\211qK<\274K\267\274\3779\321<\371\277\006<A\027=\275\367\300\243<\340\273\\\274v\334\000=\201\030:=x\3138=*\303\347\274\330\3379\272\252\023==9\363\237<\034FG<\342\307C<\0001\261=#\2776<P\245z;z\357\314\274\n\370^=\242\360\323\274agi=%\361\221\274]:p\275g\347\277\272\326\322\232<k\246\302<\353\364\0368)\313\215\273I\236 \275\240\301k<!U?=\005DX\275i\262\341<DH\236\271PV\243<\363\375\262\273\326\315\333\273\231\315z<\"n\242<\243\254\2529\032\370\372=5\375z=%\337\006=\261\014\275<\331RA<\254\032\365\272\325!\323\273\252f5=\n\201\265\274\355M\023=7\305K\275\303\376\032\274\201B\274\274\254\267<<\243\251\024\275yS?\275\256\263\"\274\023\202\330\274P\036\226<\310\215\373\274\310\3552\275\326\277\037\275\010\203x\275\367\352\002=\360 \254;A\2768;\373x\014\275\366o\317\274J\246\310\274m\220\035<\273\315\020=\014\304\254<\353J\303\274\302\300\025=\024\014\013=\344.\254;_h\016\274\"7\024\275q\320\001=\002z\260\274(S\265\272`%l<\017\331\331;\233\357\360\273\030im\273\035\367\230\275\314\023\211\274\244uj\274\357v\213=ZL\244\274\236(\204\274\213\317\233<td\256\274C9\222\274nN\272<\261\267\307\272\321\312D\275\251\367\222=6-\202<\227\020g\274\036\211\262:k\350C\274\204g\032:\017\370]\275s\326\367\274\214Z\357\272\361\330\211<\220\2609\275c\213\364<\230>\236\272\337Mr<\010\370\n:\222v\301\274\237\305r\275\302X_\273\300\304\017;)\257\342\272\020\246\317\272\333\373\"<\033\311\n\274\000\362a=\300vg=\223\333\027\274m\337\356\274\255*\202\274\220d\007\273\347\014\000=\363\272\246\271\272)\204\273\256\013\010=\321\315%\2732\360\243\273\"\354\320\273\360\t\341\273\316\235\323\274 \242\257\274\260\354\3449!\370\271<)\374n;\277\265\'\275\227\3012\275\315\303\235\275\300\223\025\275@\256%=\232\262\201<Y\215c\274L}\345\273\361e1\274\027\363;\274f\246\224<Nn$=n\026\267\274\265A\021;T\302\333;\205\\\232=\363\327\014\274|j?<\344\267m<\243YQ<\017\352\253\2749\351\246\273\2622s<\315uF<02\261;\362\357\005;]\334?\275,}\252\273\375s\016<2\270\250=\217\177S\274\242\0200<\326\221\303\272\372\222\321\274\312\247i\275\315\000\033=\264i\264\273\037t\324\274\376\214b==\225\007\275w\013\n\275N\336\317\273\251mC\275\003\354\002=N\263\031\275?\016.\275N\275\005\275\344\330&;\266\260\017\275D\310\317<\343\375\301\274\224\025\277<\215~\234\274\325 e\274\206\034<\275a3\275<\340 \317\274\315\016d\273\233\2233\275\013%e\274Q\234\004\274\203[C<\001{\311;v\272H\275t\307\266\272\255\037!\273G\3057<r\214\377<\246_S\274nGC=4\263\214\274^\355\001\275eK\345<m\n\354\274\347\332<\274\207\224\210\274\315e;<\215\254%\274+\245I\274;\355\217\274lU\273<w>#<4u\000\275\204\244\007\274\246Q\000\272\362\352\242;%Q%\274H\005\330<\233\227\242\274\003\347e<D\301\262<Q\333:<P,\324<\372\204\272\274\224\343\007\272\316\356\211;\010\346\016\275d\273E<\330|\201\272\260\233\310\274\330B\017\275\362v\370\274\343\037,<p\321\260\274ZB\247\274m\357p<\3400\237;srf\274}\266\370;\350\347\025<i\020\232<\ryQ\274\356B\323\274\351\305\013<\001QO\274\276\214F=\005\221P\273G\376\345\274\224y-<\213\313\265<5\220\022<\311\337<\274\314K\251;\2338@\273g\025)\275\\q\2059\032\276\340\274\206P\350<\253\3250<\250&\357\274\014\344\007\275Bt%=\243\225\216</\351\230<@\337\266<\367g\224\274\246\027\212\274\037i\274<\351\216\272\274\2261B\274\304u\275<?^\03795\346\231<\325yA:\007c\250<]\252\200\274\335\262k<\315\357\024<[\n\036\274o]\301\273[W\304<$W\332\275%U\004=O\202p\275c|U\274n}a=\006\255\251<r6\213:\372?\254\274\274\362#<\320\352\216=\036\261\266\274kq{\275\221RE=\267\000\t\275Lp\336\272K\211_\275|;\332\274\r\202\223\275\245\000\227=dp\274\275\234\023\210=U\316F\273\033EM=\r\265\223\273\2331n=\377\254\013<|Q\231\275\213\304n<\277\240\024=\307U\353\273\377\203D<\336\037\231\275\310\217\016>z\021\254;\252-\010\276\355+\025=$Se\275\323\007 =\367[\331\274\235\343w\275\377\267\203\274\2563\313\273\322U\245\2746\004\277<\221d\262<n\375\361\274\217\361r=\324f\201\274\353\327\213\275\301\t)\275\260-\354\273\241\2135<-I5\273\003oN=\222\250\211\274p\335<\275\250\303&=\004\214w\275\272[\207\275[\354V\275\216n\357\273/\352~\275\224\231\330<d\277]=\304\237\361<d\246g\275\361R\377<\311\272n=\250]\031=\032\346\"=Z\022\337\275I\211\033\275\304\336\314=\344\345w\275)d\371<\232\252\"\274V\0026=\035\2444\275\337\003v<\202Bn\274\350\223\006\275Y\000\'=\001\000\367<a\371\202\274\0314\326\274Z3*\275\023{\022<w\314.\274\304\021\354\273\270\017\004=0m%=%%\326\274\251\220Q<\302\232c\272\346\351\204<\264j5\275[\243J=\035\343\214\274n\017\214<\013\305\261\274=\344\306\274\3620B=\230\'a\275\027\355\246:Ds\013\274\245=\262\274\304j(<*\030\251\274\276QH\270\221\243 \275..M\275xv\343\271\264}#\274d\316)=\211\"|=YkI\274_\231+<\320Q\360<\303\345\213\274o\335!\275\"B\2328\211\252a<v\355\264\274\217\312\014\275D\323\327\273v\3102\275\037\357\330;\363\274+<\224\317\261\274G\352p\274\020\356F=\267!\r<\016q<<Te\203<9#\002=\261{\206\274\255\004\226:\337\2140\274\231\007\235\274>\230\352\274+E\271\272\370\021Q\275\213\\\300\274\375a?\274_H\253<\241n\027\2759\232\332\272\210\300\247\274\272\356\230<n\370\016\275\016\267w<\304D6<\200\025\232\274U\243\002=\365\010S;\322\036\234\274G(\335\273\310\3571<_\014y\275\235\004\231\2751\252{<;\267\356<s&\000<)\360\373\274\226\376\034<&\025\315<\007\200\346\273\324\215\030<\254\301>\274\274\235\273<\001\345-\275\316\305~=\200\226\201;\3076\232<b]\366;j\013\273\272i?>\272d\276@<\245Yp<\206z4<*2\342\274\212l4\273\351\277\274\273\201s|\274\344\2252\275[\211n\275\227\376\236\274\230\023\376<\314*\305\274\000Y\322:\375X\325;/p.\275\210(J\275\330[9\274J\303=\275U\330\013<\246\247\372<u\267G<\006\032L\275\375\356\026=\000\216\315\274$\373\202\2752\256,<9\273\274\274\362\372\264:\252\222\272\274\204\203\373\274\312^N\274\313\025\265<\304l\303\274Py\322<\235((=\243\251\353\274\377\022\303\274O\244\010=\252\345\257\274\304\321\"=p\365\225=>\351\n\275\372K\036\275\306\372\232<\365\022\214=\210\007\240:\277\032t\274\253C\'\275\227p \275lM\213\2726\236\375;\376_\n=3\377\367<,B\307;c\330\021\275\240n\347\272\341\022\242<e\352\352\272\026\260\032\275\2378\021\274K>-\274\263P$=zG\235<\366\204t\275\243\361^\274\022\002\340\274\n\376(=$\325s=\027)M\275\301MQ<\031\3641=\205\241\331<4\t\261\274\253\325\214=o\025\335<\316\222\220<\343\205\033=\025\244a<\333V\217=+\340\231<\373i\323\274#\262\'\275\266Ih\275\275l\270;\204b\177\275\352\221\216\274\232\276\226<\355-];\342[u\275\200\2100=\001Z\233;\247@\025\275\361\325|\275\224FI\275\361\263\373;\267\327i\275r\355O\273\312P\316\272MT\244;\246\254G=\204{\204<O\307+<\361\346\022>tw\320\273\242\301R\275\023\030\013\275k\363\315<\251\001@\275\211u\214<p\033\271<o\365\224=\344\336\361=y\267|<\031\201\032=\017p\037\275\242\265\205<\261\221\211\274\370e8=\213O\200<\031\227\262\275\373A\276<\312\347\310\272\363\315\207=\324\032\212=z\243W<\207\241\217\274t\361>\275ffA=\t\t\274\274\235\236\226;\350\342\020=^\302w\274\241\224:\274$~`<\340\002\357<$\037\257\274J3\255\274`\025T<r\275\351<\331\t!\274\021~,<\217\273\037=\263\207\006\273\333\330=<\200I\033\275\245(g\275=\010\314\273;4\363\274\374o,\275I\223\022\2735\017\r<\366\014{=\320\221u=p8\343<W=\321\275D__=\275L\215\274J3\247\274\2247\306\273@\2621<\377\211\303<F<2=A5\277<^\231\024<\357}\340\2729\212v=\\\203\031=M\266\232;\036a)\275n\306\316<TZ\206\274z\351\300:\002W\014<\033\376\365\2741m\021=\177\260\345\273\227\266P\275\321\374\030\274\355\364\366\2749\353\271\274H9<\275\341a[\274\203\257\026=\3320c\272\"\345\032\274Fn\\\272\321s\247<b0\375\274\037<\330\274\\!%=\317r\244;Ym\233\274\326\000D\275\020S\210<\377\241\255\272\003B1\274\362X\313\274\020\225\274<\334\006\315\273MW\245\274\335\245L=\324Y\031\275VHT=\207\374\'=\270\267\\\274\217\243N<\324\324\334\275\'Mw=\332\330\243\275\341\261_=7?-=D\271,\275M\335:=O\307/\2756a6<\276m\2169\212KE\273GO\014\275\357\005\234\275\313s\026\274\036\364\334<\203O\265\274\020j\2519\254\312f\274`\356>;(\307K=\000.\236<\326\330;\275\350al8\340P7\274\232\3644=f^\305;\343\023\251\272\215i\333\274\235\337\216\275-\240w\274\225\272\260<A\340\231<m\020\311;@k\267\274\266\370\022\275\033\256\277\273ym\210<\030\254g<{|\027\275\244\240\306\271y\027b<\300\363\026=\307w\352\273\344\326Y\274}>\322:r\273\211\274\353zA=p\340\230;\273\3313\274\267?\005<%\302J\274\371\263\230\274\254\300q\275\355\301\236<\363\210\256\273\266\217.=P\315[;\213\321\257<\371`\335\274\005\020\220\275f\312G\275\r\207\013<\374\3412\274G\313\271\274C\257\304<`E^\275\321$O\2754b\255\273@ \240\273P\246j<\352`\031\275\212\214\250<\317.@;/\306\315\273R\363\277<\234\236@;\036\262F<\302\312\220\273\356\343\033\275d\354\222;4,\271\274\177\010\330\274\"5\006\275O\210\246:\220}\r\275\004\327$\275\310\370\016:[v\006=\273{\013\275\266\316t\275\254\'\217<\034\234\350<]\273\231\274&_\035<\361\264\213\272]\200\363<\224)\032\275\247g\264<4\264\363<\316\313\251\274\354\270\245\274\251A\331<\023\360\353<\003\000\204<T\346\033\275o\3241\275\373\026\\;?\373\324\273\317\312\344\2734Q==\344\302\223<S\251\005\275\213\221\245<01\017\275\353J\322;\231\220\316\274,\350\263\272#\002w<\331\014\232\272u6\336=E8\'\274)O!\275\3361\340\274\301#\261\274\216\n\020\274!\241\254;\316\305!\274\"\377\351\274\240b\300\271\324\230\365\274\350W\3169s\372P=\356\314\014=\315;\322;]\367\343<\321\327f\275;\324Z;e\322m\274\374\024\375\274\025\333\t=\322\364\212\273\322Dh\275/\250\210\273<-\254\273FZ\274<p k=\360t\364\274\256\205X<\332e\341<\010\371\342<\241\256\217\272\177\352K=\202\017\n\275\212\300\247\274\356\333\276;c\210\242\273\275\216?;\014\260\002<o^\336\271\033\005s\274\310\2275=\330}S\275\320\032\t=\343z\257\274b\017\360\272\370+\321\274\266V\234\274\314)c\272\254l\244\273\265\315P\273\253q.=\362\267\301<\306\235\200\274\307R\302\272\3332\321<`4\021;\372\007Z\275\2212\260<\025:\\<\367N~<!\313\263\274\3269H\273\002\236k\274h\225\023\275\374M\315\273\322\300\340\273\342y\033\274\235\244i\274^\3453=\0004\375\273Fh\002<aZ\262\274\273G\264\274>\013\264\274T\325,<\264\223\304\273\241Z{<\365\r\366\274\241\316]\274\356\326\024\275\371\272\037\274a\276U\27570\207\274\026\263\325\273\033\222\273<\362s\266\274\333]2<\335\252\016<[@\032\275C\306\363\274\206\020\346\274C\327*\275\203b \274\257\340\330<\333\356\022<)\037?\275\272=\251<\271\317\007<\323\005%\274\320\030\325;\255\214\311:2C\014\275\340Z\014\275\035\260o\275\233\004\326\274o\305H<\367/N\274\025\365E\274\267wB=4\274x\274`)\004;Y\353\036=!\256\177\274\'JY=\317S\240=\303c\362\274ZG*\275\227\311b;\362W\377<\203\302L\274\262\262\277;\320\343t<r\006\317\274\254c\350;\336\013\267\274\006\313\t<\027\270\334<E\256\374\274\261\213\002\275\205Rk\273\337\215\237\274v\035\027\274L\266\270\274\325\216\004;\017\361\n\272\375\366f\272\315\262\330\274m\002\225;\214t\232<\032\327\037\275\004\255\177<!\003\276\272\343\342J={\366\252<\024\374\2138\233>4\2751\310\203<\240*f\274[\202\301;Q\037\033=\234\324\350<\001g%:>t\003\274\272\253\224<\311\313\240\274I\246d<S\273\273<7\365\033<4\361\345<\214y\237<\253\224\306\272\377\025\224\274\204\237\311\273\177\'\252<\300\224\016=\232*\337\272\360\203\013\274\206\334`\272\241:><Bh\206\274M\377\314<\225\177x=,\216G;\360\220\225<\261\371\245;\013\202\264\274\3111\222<\3520\001<\237\214\025\275\277\200\310<\036l\004;\262u\233\274\204\266\246\274\264\224\245;\201\336b=\322OA:\251\022\200<x9>=\310\2054;}\316/\274\005\304\032\275\355I\002=\020T\334\274B\364A<\267Z\364<\257\033\222;\301\271\234\274\321\273\034=\005\277\315\273u\t:\274\031:\272<(Sf\274\333\376\363\274\260@\006\275\034\200\271\274\375D\227\274Cg\263<\277\367\263;\202\257\177<rp\341\274\250\004s<[\002\235\274\232\005\234\274\357\353\313;_\374Q;^\027\251\274\361\355\370<\245{:=4\341G=CsI= \351\245<\3226\215\275$\r#\275L$\221<\220,2;C\030\016\275\362\0254\275\205\371\210<r\332\257;m\252\356<\245\255\010=eZ\016\2742\265c=\214\266\010=?\217\031=\371#\340\275h\347\233<6+<\275\233\246\203=\277\235\202\2752,\221=E\342\212\275\252l\345\273/\302\344\273\305\\\244\273\207\317\263=\036\340\t\275K\026\274\275n\376\010\275\3358\211\275JTX\274-\322I=\306\322\253\2741\326\337=\321L\240<\206\315\004\275\200Bl<\225wU=\370\305E\274\332\031J=\014,\303=\254\300\257\275\326\336+=\331r\000\275\256\360\373<\351\207\214=DIc;FvC=\2737\271\273\335\372><Ms\366\274\313V\216=\261P\262=t/\200\275\003\241.=\3231\036\274\013\2054=19\204<\253\340\216:\273\033L;i\206\001<2(\202\275\207\356\214\274\253\2254\275\377_\n=\361\310\242\274c\350T\275\355\360\276=v<\354<\220\"\247;Y\257\350<\223\263e=\304\210)\275\007\265b\275\223\026n=\215\307;\275p[\211\274|9\357;\263\\\321<X\255\264\272\330p\262;\204\316\n\274\216\363\025;!L\007\275\014\320\331\273\232! \273yR\377;\356k\204=\025$R<\273\0270=M\"\t<6\342\325;\361\363)\274\314\020<<\3359\316;wK\233;\377\306\316\273\177\226\\\275\217C\001=\216\331\255\275B\257\275\272\351\345\'\274)\203>\2751jM\275y\227\237=-\252\365\274\351\233\313\273\265\370\226<(\243K\275\360[\216;3\211\267<\177W(\274)Q\227\274O\332\206<\234\251-=\024c\004\275\256 \355<\350\323\233<]\360\320\273\370\010\t\275z\306\333\274\313\223\201=\305\\)\272\330 \360\274\307\340c\274@)g\275>\320\202\274\2326\231=\370\315\213<r\201\310\2740\304\r\2755\002\370\272%\252\000<\313\230\351<_\213:=2fd\274\25420<\344\314\035=\r\332A\274N3\032\274\373D\n;\001\242\t\275\004\357\216\274\352Ul<\221\334\r\272\317&\262<\251q*=\243|\177<\375\203,<%z\r\275\221W\036\275\200[\324:\262y\326\275\023\363\237\274/\021\024=M\t\306<\374\371\224=\217\325\305\274\014^\215=\242k\204:\365J+=\215\227\310<\221oW;\221\241\026\275Q\255R\275\336\324\025<\343\010\231\275\007i <h\033P\275K\304\216<\362\337\203\275\225\357g\275\010\007\\\275\221\333\236;\312>[<a\037\261=\240U\030\275MC\356;i\346\331\274@\035\332<\t8\031\275\264X\016=-\250\213=!\253/\275\311a$;\244\2007\275UG\230\274\036\016\245=\304\270Q\275\233n`=\013\335\034\275\205\327\335\275\311\033J\274\246\215\374\273\371f\026=pW\243\275T\242\270\274\014\n\025=\244;\342\274\336\245$=\001aM=g\351\331<\336\355\276<\230\200.=bH\212<O\223\347:F|x\275\256\226\006\273\022\211^=u\246n<b\020\274=\027\236l=\305C\205<\342\265v\275\320\032\267\274\200\201:\275qL\266\274o\241#<\200].\274hK5<\003J\345<\'v\352<\035\033m\274\242(\315;6\223\201=\342xt;\267\341\271<\2556\261\275\225\314\343\2747\355\322=\270\333\"\274[\230=<\241\360\001\274lW?\275\235\364O\275z\301\206\274\033\2776\275\305\023\307\273>\275G<\370\276\026\275\315\230\215\2721\317A\271\326\256\320<\341\330\264<\356\035)\273)PZ\2757\004\025<\376a\227<\255\301W<\005j\037=K_\240<\200b-\274\340\017\227<b\313R\274\217+Q\273\203T\024<\371c\r\274\214\2535;\276\256\236<\2565\313=\326L\022\275\001n\036\274OZ\315\2743K\225\274C\361\023=\356\244\236<V\375\017;\267\241N\274\334\207\343\2739\343\211\271q\220\362\273\365F\217=\301QT<\320\220\271<\n\256\274<\312%\310\274A%\010=\350\267x\274\361<\335\274\326\330Q<\362C\250;\324\022I\274q\021\372\274\354u\231<\245\246k=\265\3546;\232\321U\274 \022-=\365\374\303;\253\243M\273\003\223\213\274\246k\244<\007z<\275\354\357\"<\021;)=A\232\350\273R\241\315\274\323\010\337<\361\215\323;[4\222\274Y\022o<\307|\t\275s\333\301\273\355w-\275\215\355\365:3\257D\275\n{%<\345\270p;\337\006\247\274\306\226\317\273\323\226\253<\201\241.\273KY\362\274\266o\374\273\316\023\014\274\241\356\317\273\375\336w=/}\025\275\335u\211<\203\\6=Z(\224=W\201\t<\306\371\310\274\362\252\305\275\271L\352\274\022t\344;\223q1\275*\332\262<\3537\324\275x\342\334\2743j\365\275s(\226\275\226\230\036=\224P\022\275gI9=\362\304\253;\355C\037\275.\223\016=\3365\254\275\016\343\210<QV4;\315\317\350<\213\'\334=\277\361\224\274u\013\202\275y}\202\275\022\r\274;\272\202%\275k\267D=\004\242]=\233\3527=\221\363\254<\221\365\203=m\007\317\275[Q\205\275pW\233<\377\210\350\274\022\200\213\274v\263\023\275]\200\252<\310\002\343\274\300\314\372=\337\270\212<\200\320?\2748t\016\274\376w\234;\007\001\031=6\267\250\275\306\334\035=\307\026\344\274\211\364E\275&\257U\274m\003\274<\310P}\274E\227]\275\252\025q\275\\\342\340\274\263\313\203;2g@<\013\262\223<\022\017\341\2730p\324\2740\206\026\275\377\017\274\274l\274\006\274\206\340\200\274\n]\267<\374o9\274\327{T\273\237\324\357=n6\037\274:\204\204\274\206\245\261\273c\"\217\274e}\354\275)X~\274_\2154\275^\307\245\273*W\231<,\260\206\272{\310R\273\256\223\244<T\376f;hR0\274UX\263\274W\354M\275\236\017\241<\370N\273\274\231\202[;\324;)=\250\027\272<\367\231\362\2741Z\031<+\253a\274u%\221\273\333\227\373\272f\233\203\274\254\236\016:8\202`<\211\t\231=\302\026\266\274\245&\344\2743\247\215\274}\204\271\274\035\354h\274y\217\216;\226\214\323;\177\033\251\274dH\271\274\031\205\363\273\262\323\307<R\200\010=\317\251\300<\017\005\323<MK\365<\360a\365\274\226\276\327<\312\316=\274\255%\001\275\000\330\010=\302B\006;\017mT\275\222Z\300\273C\224\303\273\025\232\210<$\217\335<-\353\t\275Y\234\353<h\373\200<\032\226\273<\317\020u\274\252\220\373<t\344\340\274\021\036\243\274\313L\025<\354\377\024<\332N~\274peJ\273\315\254\226<\330\024\216\274\322~\247<\"Jj\275\214i\033<4\000\233\274\250M\230\272\240\302\310\274\234\263\370\273D\200\313<\370\220\016\275\344\377\240;\323\032\025=\243\000\353\273\266\273\n\275\374cU\274\260Z\332<\260\313f\273R\3435\275,\243\211\2748\177\301<9\272\r\275\271Oq\273T:\322\274N\374\024=\265\230\241\272\342\201P\274\007\210B\275c\336J;\314\310\016<\006b\274;\367\034\006=7*V=mY\225\273\363\273\035;$\274A<\351\271\027<3oh;\001}\342;`\215H<U\373\323<\243\241\314;\022P\206\274\354\333\000\274\272\024\007\275\261T\212\274BB\323<\215?\246\274\025\013\212\274mQ\264\274Jq\227\274\341\246\361\274\203\213\217;^\274\204=\363\255\305;D\336\236<~9a=\037h\316\274\007\223\212<\'\246\217\274\210\265\026\275\242\313L\274O\232\245<\370\202\221\274\300\376|\274w\237\232\273\217\332E=\010\322F\274\037\264\037\274\375@\024=\204|\221\273\356%$\275\n\346\373\274\350\341\220<\277&\037\275E\246\250<\364\250c=\366\030\244;\361\214 \274E\213u<\266\363\376<h\204\257\272\372\017;<m\376\224\274v\306\241\274\206\222\276\274\037\270\017;\010\r\004\275\254\343\335<\3651\256<;k\316<i\031\364\274i\332\243<\215=\272\274s@M\2752o\322\272\026\334\036=\017\254\267:\312\016\r=:\321\006=X\202\315\273\264@\013\274\\\255e=x]1=\312\347\225\273B\244\343<=7\021=3\346e<\256\034\317:\234\362\010\275\007;\251=\014\273e\274\000\322\236\274\035;\367\274*[\003\275\307\032\223\273\377\246-\274\272\200\'\274$L\361\274\'\377\327\274\342\233\244\274\202\240M\275\217\233\206\274\344q\362\273m\313\316\2736\377\031\275>\t,=\214\240\252\274\340\242d<\360\242\014=I\244\301\274\021U\262\273\017\240\"=\235=e\274\\&\343\274\363x\306<\2224\344<\032\313\035\274\351X\314\274\273\364\272\274\365\240\212:\346:\252<E$;=\346\223\355<6y\243\273\034}\203\273\034T\243<II\033\273v:j\275Sy(\274)X\020<\002\352\373\274\320\031\216<i9A\274\263q]9y+\205<\231\260^<U\325\276\274\242\035=\274j\252\200<\017K\312\274E\3415\274\2111B\274\366X\202\274\207\'\211\274\210i\026=\311LL<\247)\270\274OF\217=\254f\333<[\263\364\274\034\321\312\273%\333\346;-\324\345\274\020#o\275\027a\222\273\372\276^<\326\364\334;\251\337\212\274.\323\230;i\275\"=\302/0=\373,\245\274\000\250\235\2741j\252;\242\225\221<,\301R;\037\246\337\274\235\234\371\273[\317\376;\272\243\305<_\217W\273\375\332\354;\326R\034<\021Q\264<Xx\217<\235\250\347\273Nq\352\274\333\2378<\254\277\234\274,\247\204:\227\370\226<\305ic\273\305\203\264\274\313\245\224\274\3470\311<\334N=:\346Q\335\274\237\265\242;\231\357\362\274\263T\033<\027I\001\275*\373\r:\360\025\264;rxc\274\273\020\216=9J\223;\330|\242\274\014F\020<\337h\327<\237%?\275\336\355\347<\332K\313\273\232\004f\275\037\277\230\274\312$>\274W\201B;\376\345\343<\034\324\306<\027\014\026=[e =`rE<\215\'\274;\310\264\203=)\307\211;l1\261\274cV\202=F\255\'\275\310\250\245\274\256\356\017<\373]\336<\277\0165<,7\314;\t\356\037\274\203\255\002\275\305\000>\274\366x\272;\223\361~\273;0\230\274\361\034D=\341f*<\t)\211\274\233n\251<g\221\346;\024vy<\024Qn\273\217\366\223<\326\310\033\273_BK\274(=u;lG\3439b\340u\274 8\022\275a.\361\274JYL\275$s\037\275\211M\276\274\356\324\013\275V\212C\275hRZ\2754\364\332\274N\221#\275\254\361\014=n\254\311\274\2328\347\272]\221<\275[\363\225\274\371\031\010\275\342\221\014=\0134$=\211\263f;\310\3607\274W`\303<\205\350\024=\270D\227\274.\327\214<&\234\007\274A\355\"=D@\340\274\033\243\\\275\335\016\225<\373W\350;]#<<\337\213\234\2742B\014\275<)x\274IwV<\230\032Q=\'\0357\275#+\377<\017\034\301<\304\322\234<\020\023]\275\255qS<\376\351\227\274\375\203`\275\037\267\020<\225U\275<]\355z\274V\340\221\274\204\336,\275\346\332\020<\212\022\021:\207IH\275\223\344\221\273\003\r\020\275\327\017\214\275\360~\356;\351O\224<\031k\254:|Xh\274\n\303?\274~f\n\275Y5 ;\002vN<\010?\037\274\305R\021\275:X\201;\360\237\"\275\010\377\r<\362\2259=\211&E\275b\227-\273\317E\202\274\325B\246<\254\270\000=\014\006]=\263B\247\273}O\341\274(i\2609\032\022\264<\310z\264<j\352\224\274\260D&<\247!\177:\233\203\271\275W|$\275O1\007\275\202\340\226\275\321\023\237;t`\023<T\246\022\275C\002\256\274N\240\307\274\204\377\364<\317\325\020\275N\tS\274\246 Q\275\305\003\225\273\335@j\274\337\366\037\275\004p\316=%\346\'\275\241\206\035\273\027\337\346<x\316i;\037W<\273\001\330\3126\364]\357;\370\372\354\274\216\375U<Xy\r\274\216q\345;h\307h<\324W\234<\256\306\224\274\236q\315<+/\007<\3302\202=\270OP\274\tF,\275\026\240r<\254\271\362\274\313\251\206:\344\352\331\274lT\027;\003\343\"<Ys\331\272*\373W\275a\345\276\273\200\354O=_\306v<*\372\024\275p\003\325;\242\315\315\274\356\361\035\275\276\342\314\274q\263\220<\024/\022<2zH\274\227\264\304\273\377a\302:\323.\324\274\303\202-\275\037\352\n<\025\315w<\232\316\340<Q2\\=\005\271\206\275\205\365\017=r\034\020={\010\261\274\300\320F\274\301\345\312<\364%/;\360\'#;\327p\253<z\263\016=@\366\206\274H\273\t\275\272y&<eV\"\273)\032g\273J\326\014\272I\340\324;7\264X:v\325K\274#\372\216\274\240\322L\274\030\216X<\230\355S;$\025\244\274\253\036\026=GGT\273\335\256\310;+\262\246<\013\271\365\274\343\306\034\271\022\366\006=\201\2777<h?\214<\350\017\233\274\362\353\233\274rG\200<1\246\210\274/fc<\261\276\272<\223\022\352\273\212\253P\2750\036\202<y\204d\274Fw\337\274r\364\026<\272\300\n=P\303\242\274\221\241J<\350\341\366;d\376}\274\376\275\356\274%\2021\274D\312[:;\236\200\273=\177\346;\305\357\033\273@\362\303\273\034B\266\273Y\350/=\332\366\373:\221\253\311\274\332\257&<\367i\303\273\220\3717\273(*G\274-it\273\365\237\250\274\222?\344<\255\005\215<A\024\236\274}1\366\274\240\336\317<\335\302\323\273vE6\274\373L\277\274(g\204\274\333U\335\274\225\324\205\274\373\274*\274\177?,\274\001,\263<w#I<C\343\327<\371\0038\275\312\272\327\273\367M\365\274,Fr\274\031\357*:\376z\t\274\311@\"\275*\271\250<s\257\000\274L!\364=\213X\306=/\316h\275\345X\275\274\221\216\014\2741[q\274\343\007N\275\316\322\007\275{\207\033=\247;\352\273\210l\372<\234k\204=o\202\360\274\266c\300\275\024\324!\275f\031\365;\200\230\037=\025VZ\274\225B\302\274Lry<\225\307[=\343\205\203\274e\373x\2754J\035\275\023\303\021\275\204\313O\275\232_\206<\275\270]=\022\345\220<\000/\337\273\230\342\263;\245.\271\274\222\222\255\275BG\024\275V:\221=\277t\376\274\336\246`\274\336\020\217\275m#\221\274z\207K<hij<j\031\001\275\033]\345<Z \223=\344\243\013<\317\234\374\274_\260\212\275\364\344\222<\325\237\177\273\351X\232\274\034\231\264\272\264)\223\275\316D\370\273\274.W\274%\016\221<x\206\322<\301\274\227\275g\243*\275h9\334<:\372\235\2755nU<\226(J8>\245\225=\000H\304\272\311\315\247:\365\353Q\275\3116o<\224\221\036\274\237\014.<C\211u=]\314\201<G\271\327<P\317\250=\203\006\264<m/X\275\254\037\271<\177\036\003\273bPJ=\323\333\231<+\3118\275\261y\023\274\r\244\231<*\242H;$\t:\274\327\234H\275\342\317\235\273\204\252#\274\236M\301\273\232\352\206\274\344\024H\275\243^\301\275\235\025*\275k\373\306<\224@{\273,N\327;\210*\022;\217g\243\274\235P\270\274\227\364\004=t\261\017=\373i\016\275%N\357;\035\341\1779\3210\221=\302a#\274\022\372\324<= ,<\277c\306<\331\211\302;^\177\332\274\253\316\025<\356\031\3039*\317\216<\006\331\311;\016S`\275aH\304\274\347\250\212<O\227\231=\303\232\263\274\241\250\336<\220\250r\274\001\244\353\274b\n\026\275\300f\324<\277E?<\361g\007\275\022A\235=\354\357U\275\222\367\345\274\257\274=<\315\206,\275N\021\021=\340h+\275E\374\314\274\213\036\214\273\031\252\275<L\231\362\274\217J\273< \375H\274f\027\021\272%\205\231\274\277\361\226\273V\'\r\275\257\267\016<\371B\204\274\342p\177<\350\300\014\275\366\252J\274\nN\205\274\277\363\354<\264U\353<\226\203\240\275\363\231E<A\352G<\226\205\000\274\006g\300<\235?\241;\311\321\177=\221\316\027;\017\326\301\274I\330\243: `U\273\275ZX<\0351\t\273\366\266\276\273\345u\274<C\241\030<\267;A;\360\373\"=\365\220\003=c:F<+\323\303<\3331\345<\353M\252<\227w\264\274\\*\016=\177\036\254\274C\326\034=\243\327[<\326\231\243\273*\360\240;\202\350\035\275sG\014\275\214@\311\2744\350\030\274?T\027=\360\370\315:\325/C\274\372\035\016\275\335\370\357\274\005\222\346;P\315\261\273\321\037\023=y\222_=\202a\r\275* \227;\031\267\017=;\2630\274N\326\237<\341\316\026\274\004\336\025\275(q\332;A,\204\274\001\334\n98\331&\275\241\034\335<\232\353t=@\355\360;b\270\204;b\200\334<\210\202\313;2\270r\273\t\303\n\275\256.\004;\245N\211\273X\027\376;\234\303\347\273\331a\022\2759\2164<\001\226\212<>\351\221\274|\263\003<\264\237\267\273av\034<\333\212!\275\215*`<\010t\020<\323\221\353\272\265+`<\362}\201\272\342(%=@#\227\274\277{\206<\304\257f\272\360w\343\274@$\265\274a\245\017<\3224\357\274\234\311(=\224\246\224=\271/\240=\2104\244<\007G8<o\335\326:j\331`=\237\330\246\274\320\350\246:\352\216\014<S$\376\274/\300N\275i\nG\275\005\367\273<\032\013:=i\004\022=\264\357R=\203\271\330<\213\262\004>\326.Q\275\311\262\216=%\232\214<AK\351<\272\307B\275l:\240=\217\320\260\275\267\242g=\337\257|=Y\360T=\226\206\212=\367\367+\275+\323\201\275\035>\007\275~\302(\274.\221\314\273\321\371\313<)\021:\275\254\236\277\274\344l\344=B\244\202\274\rV\366\274#\t\224=\345U\004\275\355\037.<\271`\271=\000e\203=\325\030\251=8\354\214=\355\355D\275\017\224J=\240L\330\274\234b\324={\346\237\275\202\277a\274z\200\234=\'+\202=OT;=\247SN\275\216\246\362\274]1\230<+^)\275\304U(\275\177\364\267;\352\325\261\275\\\353\003>#\315\020\275\316\355\200\274\234\224\2429\r\0035=\271\220J;\253\302\217\275ph\275;V\337\202=\027\304\223=MD\247<\351\n\205=m\265\206\27300\237\275\312\367\307\275g\263e\274\010= \275\036?B\274\022\336~<?\205\222<3\367\302\275q\311\003=\332\\*\275\215\374\255<\t\311\344\274\212\210\236\274\233\225C=\203\367\255<\323\021\023\275va\225\271\034\261T<\030\203\200\274\025\330\"\275\230\225\205<^\010*\275\224\253\037=\340?s<f\207\251\274\276x0=i\202\255\274 \021\217\274\314\357|\273\266\014\211;:A\201=\254z\010\275\241\210\032\274-\353W\274 f4\275\021n\316\273\334\2517\275 \003\244=\'\301\205<\355<$\275h\305\307<\273!T<G\236\236\274$\261\005\275\260\013\244\272p(k<O\006a<\313\246n\275\272\356=\275\303\336J\275\262w\201\2740k\005=6\354\256\274\362\305\343\272\272\2734\275\031a\273<<+U<\251\231\311<\217j\337<\205_\031\275\244*\244\274l5\206\274\340\250\035\275\276\223G\275 \000X\275k\364:\275e\374\004\275\273\271\371\2747\277\373<\353g\200\274?j\014=\315\033\343\274\337\365\243\2740\260G\275\251\317><\214o\356<-\365\320;\267\345F=\030<\334\274\035PP<\31716\272\000\2321=\200\007\321\275\017\315\276\274\327k,<\002L><hl\022\274(\271\034\275\031s\340<\021f_\274\317\274c; \017\355\274\330\357\233\274\001 \025=m\301\225<\210YK\272L=#=*\344\376:\363\022\246\273\020*g\274\265\001\014</\000\241\274H/L<a\325(;\231\020\3057\277\371\n=\202N\340<uZ7\275\023E\001\275x\014\323<\241\016J=\370\034\355\274\371;\247<@\213\035\274J\346\226\274\215\270\362\274G<n\274V\222F=-_\316<\272=9<\350\3647={\233\235;\257\006\360:\017\023\026<\036\320\340;1t\375:?/\314<\216\333\333\274BVN\275E\225>\275m\216\334;>*\022=e%a<+\276l\274\253-\272\274\245\304\270<\207l\206<\342\261 =\310\372\306<\231\014\365\274\240\215l<p\t\252<g\326\357\273\332\306\003\275Z\r\306\274\316\371\243;\022w\357\274\023}\335;P}\347;\200\315\320\274\350\212b\274\263\236\370\274\243\r\337\274\345i\027\275\315bp;\177\335\002=\353\324W\274\004\241\022=\317\177}\274\216\352\000<\212\232\203<p\023X<\307\004\207\275\036E\'\273X\377\353<6f\031\275\342\335\246\275\027\230\030\274\035*\007=Q\032p\274g\230M\274\342\304V<aT\t\275\332\365%\274\264\016\024<\004\020\235\275~o \275\365I\272<6\305\226<[\261\215\273IA\030\275\366\003\002=\274\373\203=\253\020\222\274B\037\036=0\350x;*|\030\275\302\013h\274c\323\365\274M\212S\275\004}\253\270\300\222\026=\332\304\354\274/7\205<\366\2760<\225\371\n\275\323~\224\275N\345\"\275\321<\227<\211w\250<\261\216\302\275~\216\210\274Z\373I=~\023\260<M\317\271\274\024\277\235\273\350\316\262\274\031p\"=\334h\000\275JFc=\'\254\003\274\225\007\325\2745\241\002\273HG\341:\215}\237\274\225\254\324<\017\223T;\271\256\217=\300\371e\275F!\007\276\300\252\224\27447\031=\366B\320<\206N>\273\272?\025<\252\360\236<\343n\322:8H\215\273\217\\\317\273\0251\035\274\327H\031\275\024\305\232;\310\225\256\274\004\324\332<qW\317\274\224\026\016\275]4`=\005\023\r<\336a\203=l\320L<\215\240\210\274\251{\247<\000]\206\272\307\200\005\275\255\224\325<\323J\222\274U`E:\355\353k=\024;I<\372N\007=\274\270$=\235\270\301<\245\010\202<-/\2216\366\245\303\274}9#\274k\312I\275\264\347|\274\016\245P<\334T\203\274\2277\021=\363r\005\275\377\325C\2735\232\342\273\231\025\322\274 l\332\274\205\022\026\275h\006\374\274\324\302\202\267cC\361<h\031q=\3325\237\274\266\017{;\013\317\272<\3158\370<\266\265\274\274\223\365,<`\003]\274\242\343\266\274V\034;\274p\027Z=r\223\310<hN\206\275\371n\260<A.0\275\017~\242<\275\326$\275\311\222?\274\202\340\003<\316<Y<\316^\332<]\246\321<G\376\032\275\232\275\340\274z\350\200\272\251G\300\274Jn\272\273\032\031\t=\254G\275\274\217\244\004\275\321\343\236\274 \245U=\212P\320<\277\337_\272\016}\373\274\221\233\313\273Lj\207\274\305;3=\030\332\306\274\020+\257\273Htn\273\363\244A<$\031\217\274\0046\235<\264\"\036\275\243\325\261\2747\316\226\275\277\207m9\234\355\341\274w\342\337\270\341\'E\275\256\0054<0\346\243=:\034Z=\032F\002\275_N\263\274\342\371A\275\315\204\316<\t\r\r=\\\277\351<\226L1<\\\254\202\274X\320\211\274\031& \275\177V\210<\265\221\027<\303\251\205\275\315=&\273Kl\267<S\027\204=#$\332<\0232\222\274\334;\001=\0062\245<\374+)\275\245\371\216\275\344\317\203<-j:=O\361\206<^\260\037\274\377\351\201<3O\275<\001s~\274\271|a\275\234qj\273ja(=\202\206H\274r\311\244<G-\026;F#\002\275\217`\034\275\216\022\227\274[\3718=\343\245\320<)\361\270\273<Nr\274K\031\263\274\232\245\027;\225\316\020\273N\320e=\372\354q<\026\263b\275;\301\037\273\211\260\\<\237v\027<D\356\021\274\265{:\275:Q\305<\n\266]\275\223/\024\275@\204z\275\311\314\262\272a\323\220=Nr\007=\331a\256\274c8q=\033\360\010=\357\342\027\274\252\313\350<\306\302\304\273]\274\253<\273\3666\274\312w\215\274\371D\261;\212\352\235\2741\374\177<\010J\225\274\376\001\265=\r\254\014\275cj\334\2743\346h<e\261\241<\357\336\350:\t\326\372\274\352\234\022<\231y\333<\324\301z\275G\224\251\275\3025\327\275\267\361@\275\333\001\211<B\304_\275F\002]<\247\025\364\27310\035<H\220?=\\`E\275;\016\214;J\t\005=\320)\331<\253\226h=\007\2101<\360o\323\274ffl;\365\255\272\274\303v\322<\220\315\235=v+\345<\316\207q=\326\257\332\274\323E\231=\005\221\177\274\226\361\243;\276\006,=\n:\036\275\357\327C<[0\r\274d\332R\275\345\236\254<_ q=\377\037\'\274\027\r\343\275w\265\320\274\200-\336<\000\356-\274@\307\244\274\330=\226<\370\360!\274\"8\200=}\263\355<\341\231\276<S\023\212<\242t\350;\334\365\232=\212>M=\r9\034<\252\237>\272\341\314\307<\003\220\325\273a\025{\275\205\312\207\274Sg\221=\237\203\227<\037\274;\274\323\023N<\034\210\214<\276\020\247=\222V\226\275\\!*<\360\007g\274E\267\004;\216:\205=\356J\267<\342=\014\275\360\247\022\276\316\241 \275\214\200=\274\305\200\311<\200%\006=\033\277\267\275A\260\202\273\244\032\374;\322\324-=(M\267=\370\337\302<\233n\216\274s/\305\2752\224\001=\213\177A\275\3446r\273D\016\020\275\033\210R\271O\305\336\274\267\342\255;\210\021\027=\265\2216\275\254\340\004\274\221\203$\273\335\354\036\272*$\030=\025q\226\274\235\303\341=su7=\3722\334\272Oo\332\273)\210\236:\021\204\310\2749a\355\274by\216\275&\305|\275\334H\377<\246\rW=a\275\317\274\360y[\275\367L;=\324\277\304<\177k\217\275\370\335\202\275+\344\026=.\265\327\274\025\251K\275\361\006\222\274\326\275\227=Ns\333<\273\254K\274\2025\320\274\316\201\357;Ch\317<\373H\264\275\225\004\237=\201\332\263\271\316\316\232\275\324\207\006<z\206\344\274\226\013\243=\272\235\361\273.\231s\273\212\224\025=\025\255\242\275\323\251\014\2769>\177\275R\216\016<\221\017\245=q\202\007=\367\234n=\224\344D=\"\225\003\275\356\222\034\272\231\324q\274]F\205\274G!\367\275N+\261\274-Yn\275W\035<\274\272\321\026\275\303\355\021<\250\035|=!\324g<ke\273=\371e\005=D\307\034\275\271\3452\274MZB:\271\244\325\2745\"\234<B\262\315;\017\302\025=\360\330\321=.)\020=\222Mj\271\355\237\010=\243\006\010<\365tG\275\214B\022<>q\343\274\275n\274<Y_F\275\275\316z\275\366\335[<\375Z%\274}\316\031\274a\242\315\274|\373\224<5M\346\2735\3274\275|\2551\275\213:\371\274]4\026\275\262\351x;\302\030\033=\333\256\367\272\32450\275B\213\277;\205\202\030\275\345VH:\267\023.\274 I\037<\216\371s\274\037\2458<\327\246l\274\372\322\"=\332JM\274\325\037\253\275\203\"\261\274}\322\261\273q3E=\031\2322\275B:\016=\002\020Z\274*W\225\274\301\264k=\362\226\033=\261\000\213<\366!\026\275W\227\241\274\342\312\"\274\272,\250\275+\332\'=\004I\023\275\356T\343;\235\320|\273\227\376\257=<n\265<\225\366\325\273\304\247?;fY\'=\207a+<\014\246\001\275}\251\371\272\257V\034\274\025\320\211\275r\276`<\264CI=\000p\214\273\273\240\334\274\022\373\035\274\362\222\000\275Z,\253<\013\363N\275Z\224\325\274\251\251\244\273\313\031\\\272\250f;\275\317\252\276\274\032j\225\274\334k\366\274\026\246\\\275\346/\006<G\350\276;\365\341\003= \241\302<\375\210\234\273\'\347w<\205\376\336;\264\252\354:\312\3769\273u\320\271\2735\034\243\272\223\177\247\274\006\010h=\033jN<\253\334$<\232\262o<\307W\'<\027\315\233\274\372d:\271\032\n\021=Y~\303<\364\310&<\3560\246\274\332\n\320\274\305\340\231\274f\232\347;\004s\213\274\005\350\267\274=M\300\272\351V\275;\255\242\177<7\2471=\272\201\271<?\032\211\275\010\177U\274\220\377,<`\241\243\274\356\320\332\274\241qz\274\366T\244\274\356\244\334\273\372\243\242<\341\010!=\343\324@;\205]\225<1\312T\274\211\002=;\356F\340<3\370\324<\014\340\016\273\262\355\264\274\252\321U\274\034\340a\275\031\366Y\274\332\005.\274\235O\265;\000^T<\316\033\234;~@e<\203\025&=\373\016;:\276Xb\273z\3359=\030*\004\274{\221\250\274\002\037j\274.,\036\273\033\002\241\273\307\255\263\274\032.f\273\233\314b=\267\023\222<\330\352\341\273^\342\335\272\3057\037<\271\367\240<f\203\'<\352\252\000\275\315\230*<Vb\304<}\005Q<0\302\016\275\261w\377<6\302n<@->\2740\222Q\275g\307\220=\006\263\3019\003\020N=;\001\n<\205J8<\347W\317<\214<`<\234\026Z<\372\ry\275:\312_\275\013\361\242<c\220E\275\027\343\216\274[\272}<RM8=)\306\035=$\026 ;5\210\356\274r\270\177\275\256\275\t=\357-\232<V\366h\275Ww \274\371\363=<\341\345(<\345\342\253<\227!a\274\027 /=\037\247c<zK5\275\364\035\254\2741\020Y=\r\256r<\245\321\017;\300y{\274dr)=JE\354\274\002\262\234<\342y\017\274\360\352\310;\03775=\355\315\365<\200\234\\<#\322m\275\274Y3=\367\217\030;\246\337\t\272\367\233[\272p\231\231\274y\317K\274\370S\300;\321X\032=\002\007\236<\013\220\343\273\337\310\321\274\307\026\257;\222\005,\275e\251N<Yy*=\361\236\211;\357]\305\274Y\252*;\222\207\247\273\033\202\002\275v\210j<\035$\321\273~\2670\275\206\310\020=y\262G=\335\034\362\274&;\006\275,\233\247<\254\327\224\272x\245d<\257I\301=\257\341\352<\323.$=O,R=g\326^<\276\326\227\2724\340t;\024\277\007\274\270\235\347:?R\037\275\2476\262\273 \270H;`\375\323\274\021T7\274\335\2771\274O$\003\274\333i\272;\2354\224;o\000\000\275?\272\001\274\035\267\242\274\324\013\214=\3750b<\255.\013=\242\254\251\274}{6\274m\273\376<c}q;^2\022\275n\337w<\253\032Z<k\370\033=bn,<\020$h=\207\213\220\274\251\003\014\275\026\030\305;\025\210,\275|\357\026=\035\337Q\274\203\024\220<\206c\202<\027\221Q<\252\257p=\030\n\004=\240\315\020\275iW\273\274W\243\277\274\213w,\275n\316M\275\031\266_=\200w\224\2742M \275\206\245I\274\320\317m=\312\201\343<\374\353\344\273+\212b<~\260\304;\336\252^<9\340\323;\265\220\231\274&\242M<\306\240\036\275ZT\000\274\377#\016\275A\335A<t]\202\274\234\240`6\026\360r\275\244\362\230<tVL\2753N\n\275\004m\313\274\207H\352;\016\030\266<0\354/=\352\034\364\273\025\322G:M\263\\=\346\266j=\314FI<\307\310\364\274\036N\343\274\200 \'\275\017^\247\274\r5\n=V\324\233\274\027\2020<G\305R\273\3641\375\273d!\370\273E\004\213\275\224\241\370;\216_\315<\324\200\252\274^\372\004\2728\247U\274\355\300K\275\244c\273<kg\225\274\366\201V=\277D\334<j\034l\271~\026\331\273\261Z\372:\270\317\233<\223\205\002\272\321\024K\275+\336*\274\227\265\031=\270\224~:=\177\277<J\301\034=\204\3250=\030\302(\274\365Ia\272\223 \323<\261\226\220;\341L\274\273\352\267\276<\347\251\243\273\317C\204\274\030\006\255;\344\251<\275@G\222<\335\'-\275\357\024\302\274\220{\002\275\262\2102\275\177\327\216\273\270\254\336<\010@\336<\033\272\315<\253e`\274b=\375\273\313\"\r=k.\257\272`ku\275\242\356H<\215A\030\275\367\016\313\273\357M0<\261\233\210\273J\330\233<\310\r\035=\246\313\036=\243\220\217=v^\002=\277\256*<=\227\327\274<\330\243\274n\343R\273\206\017\200<\331\301\253<m\374<\275W\242\301\274.)I\275\357\303\201;m\363)=ro\217;\034\312\351\274\251 ,\275\n\027\262;\335\246\324<4\205\342\272\243\345\240\275\310U\260\273\227\023M\274Q\203\227\274\235\304\320<\3059\006<\014\250\374<\366\330\236\274\3639\t\275\020d\'; \217\2348\345\305 <;6m\274\325oj<d?0;\2619\207;\366\200\372\272\374\003\357\274\375>\037\274\374V\257\274V\220 \275\256l\213\274S\265\006\275\343\237\332<iF\000\275;Bj<\210\266v\275_\3543=x3\031\275\'\213\203\273\330\004s<\252\016Q\273\023\3414=\037Ei\275\303\037N\273o\020\317<k R;\270\230\315\274\0149\342<)/X\274\252q\251<*\014\001\275\341\274\374\273\311\005>;\344\023\035\275P\002\317<\275\t\200=\253\234\230<\030,\265<|\027H=d\365b;\336\201\307<`\370\320;\3507a<e\374\273\273\353\202\210\274^;\305\274\034\356]\275\325\201W<\277h3\275\3005\237\274t-\207\274\256\241\032<\201\036\000\275\347\000\215<R\214\014\27540\261\273\007\340\305<>\'b<b\030e\275\222Z\245\275^]\001\275\302K\307\274=;\323:\317o\313<\'\220\374<\004\211\273\274\003ta<-\314\030=\007V\350<\252\026\315\274\215\221s\275\343&\007\275H\352\317\2748v%<\360\347\035<X\304D<\346A%<\227\001\224\274\247\302o;D\353s<\013\032?\2739l\346\274,\200\";\005\237\337:[\335p=\300Z\313\274r\204\274\274Or\366\273\3429#\275\3551\303\27401\335\274J\331H\275j/\316<Z\200v\273*\312\241<\002;#\275\017Rp=|\226C\275\024\377\302\273p\201\036=\022\374\234\273\267C\360<D\302*\275\267Nc\275Y\257\362<\267\354@\274\1779\317\274p\321\035=Pw\223\275E\263?<G)\365\273c\022\016\275\312\032\353<Lm\227\274\247\266(=\2719,=[\313A=B\335\036=K\2039=\366\365]<2\363a\274\t\303\276\274t*\004\274\'\352\204<I\2153<dz\206:\243\304\347\274\226-\227\273B\315}\275;\275\035\272\030\243\r\274\361\3762=\266P\204\275\202Q-=#E>\2743\021\004<\007<D<\022\253\214<G\0235<\345\260\312\274\031\027\245\274\336\301\t\275\236W\235\274\346\362\002\275-\334\237<\361\352^<h\341\225;*\352K\274\365j\235<\265g\211\274\212&$=\031/\027\275\016UR\275{\377\373\274n\255\276<)\\&<N\010\034=\317\342A<\301\260\021<I\373\221<<\240\035<\225\252t\272\204\241\036\274\014\255<=\205\331n\272\345\003\212\275!\017\261\274eR\370\274\002(Y\2750Kg\274\251\242\216;R\220\267;U\223\327\274\272\306\t<\214mD\274S\205G;\365&E\275\352Z\026\275\206\251\"=\207\222\243<\240\331\027\275\304\225\036\275\307\332\343:A\002)<\003E\230<y\370\250;\232J5<\245\357\"<\313NZ=\201\017[=\374\024\336\274!bG<\255\030\332\273\027)\037=YTj\275e\375y\274YQ\314;\254b\221;p\016\031\2736C\277\274?7\246\272\361\210\237\274\357\372\215<\351\325\312\274O\001F\274m\331\010=p\252\000\274\213\373\360\274\272\224=<\320\252\222\272\201\307\370\272g\353\370;\247\r/<\237mR=O\3452\273\010\273\262;=n\360<,\336\275\273\264\031\236<\370\353\221\275\034\034\275\275\250\205\016=\2025\3339:s\024=\213\0176<y]O\274*q\247\275\010\237\330\275\216rj=\005D\203=/\332\023\275\217\2756\275W!u\275R@\006\275f\035:\275\354\204\307\275\314-\226<\310C\254\275\372a\203=\360\3240\275\207\317\001=\361?\334\274\276=Q=\226h\326\273\376\265\245=\376\367\023<\276F\274\274Ig\243\274\352\\\002\274\356\374\204\274\345=\034=@V\276\275s\362\302:\305\354\211\274}\373\356\275\317\271\236<,\2115\275\347@\n=t\222K\274=T\214\275s9r\273w).\275\375M3=\237N>=\3302\017<\266\261[<\217\017%<\210Y\301\275\036\005\027\275\027\251h<\232\2450\275\337O\231\274\303\216\302<\276\210\352=\322nv<\303\252 \274\2656@=@\347\224\274\346\374\334\274H\263\007\275&\033\232=\372\346\217\275[#;=\021\224\014\275\002iS=\201\352\310\274xY\327\274\347W\373\274I\350\276<\016\350\370<\372\255d\275\360Ey\275\263\033\241=nR\303\273\n\366\n=Y\203\315\274\301\344\003=Z$4<\305\004R=\372@\321\273\010H%\273\225\267\014\275\265\276\r=V\352\271\274\366\263::w\332\373\274\310\331\234<~\r\325\274\215\217|\274\346\027\025=\361\372E=\246R)\275\265q*\275\177\274\233;\253\377\372\273\222\362\256\274\233\231:=\347O\335\2721\312\274\274\320\240\327;\361#\003\275\017\364*\274\r\244`\275D\004\213=(\210w<\301\264\304\274&\215\214\274\027\325K\275\217Mw\274\370\222\013\2755&~\274/\346\211\274\346\350\253\273\027*\"=\303X\213<\365\'\264<\020\242M\275\323\362\177\272@\347\371\274@U\227\274O\344\201\274\246e\202;\2352\t=\207O\272;\332\212\300<\207\330\244\274\314\366\215\274\031\222\272:S\217\272;\345\262\365;\276\276B\274\2553\020\274\272n\341<qf\375;\301\206T\274\025\r\037=\337\323\006=\334\023\323\273\005%\205\274w\363~:&\0307\274\027\225\267\275O\351c<\226\204\207\273A\231*=\337I\317;B\030\370;[\257#\274\010\227\212=\346\025U\272\'!\236<\375B3<\375\314\363\274\323\264\235=\021\367\265\274\200l\356\274\265\311\301\274\362\'&=\320\203B\275\004\240p\275\034\036\216<\215\215\334<\241\037\351\274*\303|\273E9[<\353\245\003=\213d\263\272}\033.\274\307\221\2548WY\312<\374s\336\274\227;\273<T\002\232\275B\320\242\275>\204z<\320H\343\272\245\022\030=\0025\312\273\367\336\317<\204\376w<\025\221(<\340\304\336:`\201\245\274Ae\017=\372R\370\274=\323|\275\305q4\275\255\n\313\273sv\265\274\003\213\233\274U\214\325;\242\342\n\275$#\234\274N%*\275\327A\"\275D\007\237\273\rw\272;\270\356\353<5\304\340\274\"l5\273i\330\326\274\274\\\336\274\333\225y\274\031\356\030<\313\370\246<T\356\244\274{\225)\274\301W%<y\335-=3\024P<\362\327\004<gBx<\220\203\305\274\006B\337\274\341R\346\274kc\271\274\242L\024\273y\343\301:\032\014\303;\004W\364\274\221\332\373\274\026\277\342<\217:>:-\313:\274\255=\203\275p^\034<\326\010}\273\263i\352\273T\260\342\272\016\301\021=\272\3453\275\310\323\031\275\203ED\272V\377\230<[I\254\274l7b\274\234%\004=\243\327~;\313\265\241\273v\255\314\274JQ>\274\276\365\253<g*\224\275\250\302\n\275\360\326\024<\224=7\2747\250\306<\211&\324;3B\235<\'\002\205<\247e$=[\363\200=\342\315\305\275\345\3433=\037\2105=\364oI=\1772\342<\334&\370\274$\335\224\275\351\302>\275\325\270\353\274\366\200\032\275\364\210\226<\r\344\256=1s\217=\263\216\212\275:M]<\333/\020\275er\247\275\203;\201\275&\254\200\274\320\225\032\275\035\221\362\274\000>\217;\\0\203<*h\300\273W\263\220\274}|\374\274\303\210J\273\251\037\032=C\277\322<6\210a\274\\bd\275n\355<=\332\226i=\251#\367\273f\332\331;\227m\214\272\005\362+=x\373\255=7\375\246=\212\237\004=8\343\202<X\003\031=\201\016\\=\"\032u\275(g\315\275/\014\020\274\321\306%=\334p~\273\322\276\'=\3074^<\224C\201=\345ki\274\215g\020=Q\212\231<\353\245\314\274\311\332\330<\024:\001=\362\331\024<Wc\202\275\256\364Y;K$\374<:\240\034=\266\347\277<#&\342\274\237Lk=\362\366N=\257\251*=\345-D\275:t\252;\225\347e<~4\215\275 `\314\274y\371~\275\315\002\365\274\033M\022=ep\217<p\023\001=)\314\330<d\270p=\203\277I<\372!\030<\320\210~\273&Z\227<\207\357\340\274l\215H=\224\031\217;\000c[\275Wc\241\274l\037\\\275A\\\252<\363\362h=\217`\347\274\030Op=\216\346\215\275\'\324\362<\016$3\2755\035L\274\255I <\301ux\274U\037\203\274]\327\263\274\020M=\275\271\274\211<\211[\\=AT$\275\365@\262\275\324+{=tC\360\273\350M2<\032~\005\275\205\302\010\273\220\327a<Z\025\020=\204\370e\275\001\026}=\360\270P\274\220I \275\316\356\230;\217:p=`\303\255;3*\305\274\013`\212\272\335\233\033=r\025\304\275\377\002\377\274\353\030m< b\256<\345\260\300\274Ap\252<\216\310f<%-~=\323MU\2751\310\034=\372\033\351\274\344\337\007=\217\362\225=\261\347\021<u\236\t\275\006W\340\275\307,\364\274<E\036=A\2214<\274\326\340\271\300\nn\275V_\270<4k5\274\332\355\244<\363\333=\275\0311\021<|\237\343\274\235\367?\274KY\203<,