node {
  name: "Const"
  op: "Const"
  attr {
    key: "dtype"
    value {
      type: DT_FLOAT
    }
  }
  attr {
    key: "value"
    value {
      tensor {
        dtype: DT_FLOAT
        tensor_shape {
          dim {
            size: 1
          }
          dim {
            size: 32
          }
          dim {
            size: 32
          }
          dim {
            size: 3
          }
        }
        float_val: 1.0
      }
    }
  }
}
node {
  name: "XXX"
  op: "Identity"
  input: "Const"
  attr {
    key: "T"
    value {
      type: DT_FLOAT
    }
  }
}
node {
  name: "conv1/Const"
  op: "Const"
  attr {
    key: "dtype"
    value {
      type: DT_FLOAT
    }
  }
  attr {
    key: "value"
    value {
      tensor {
        dtype: DT_FLOAT
        tensor_shape {
          dim {
            size: 5
          }
          dim {
            size: 5
          }
          dim {
            size: 3
          }
          dim {
            size: 40
          }
        }
        tensor_content: "\316\352\022\272\370/P\274\215\330q<\260^\371\272\260K\313:d\227\"=At\306\274M\220\240\273>\365\255<\277\271@:\232\001\334<\237\231R=\343Q\n\272\235`\234\274\316\334\216\275-\272P\275RS2;Ds\223\274\177r\267<\016\030\223\273H\310\262\2735\256\277:\274!E=\317m\362\274\211\301{<\375@\340\274bi~<_\331L\274N\325C\274\225\235\'\274\3410\223\275\261\374%=\202o\003=-eO\274\'%M=43\255=\250\025S=\030b\202<\005\342\337<\004A\222\273j@\017\274\344`R\274\212\026\353<\377\352\355\273?v\255\274k\020\013=tJ\r<n<\272;B*K\2742\005q\274\255\361\277;\212!\272<&[\350\274\250Ij<\007\023\372\274m0Y<(\3057\273\276\247\216<8\247v<\367\211\006\274\336\246\224\274\230y\206\272\326\316#=\266N%=\376)\001\275\020<\375\274\237Q\243;\241\221J\272k\360\3049\251\223l\274\303a\230\2728a(<\177\020(=\227\000\243\274[\307L=\363\257\245=i\246\205=R\276-<\317\212d;x\264\262\275\013g\002\274\217\374\221:-\313\374<\343\371R\274}B\345\273\264\221T<\007\255\003\274\233A\207\274b\366k<m\325>\274\203r\207<\371^\265:\331\216\231<\246\217\027<\373\003\333<l\033l\274\177H\003\275\201{)\274<\244\224<\205\002\201\274\t+=\274\007w\350<\373\364b<\rz\270\274\214o\312;\274x\'\275\0378;\274\301\267\223:\257\022\260\273*\266\004<n\312\206=\321\266\013<\307\263\177\273\3363\340;J\363D=\007\255\246=\025\312\201=\017\n&<\356\016\202<\233\263\220\275\307\257\002\273\347!\212\274\026\002\246\274\221\342q\272pt\317\273l\312\007=\002\324\034\275\240\032\341\273o\367\315<o\265\001\275\355\312\351<\021N\200=\334\317\376:\231\\p\274\223\037\254\275\343N\234\275\r\262\023\274$\353\312\274\307^\347<\207\006\233\274\304\364k\273\033\271\352\273\271\237\233\2750\303\207\274]\266\301<5/\371\274\212\244\t=\010\311\220\274!\207\221\274\276sb\274e\267\235\275y\230h=Ts\005=\337\342\261\274\316\2746\275g+$\275\210\317s=,\215\352;\266\330\230<\214\270\217;\022x\230\274E4h\274\370\262\027\275;Kz\274$e\362\273\000\257\373<\025\246\024<\247\331c;~\002\200\274\036\0221\273\005E+<L\265\347<\222\212\257\274\324#\334<\257\350\024\275\017`\275;x~\221\274\312\225\204<V\300\206<D\016\212\274@\035\227\274\312\265\307\273\335n\203\275\320\260\200=su\024\275\223\224\014\275;\343I<\301y!\273\0217Y\273\272\233\213\274\371\241\256;g\212,<\311\n0=\257v\333\274E>$\275\326\036\002\275\303@\237=\374e\004\273J \025\274\365Y\266\275\342\355\276\274\276\024\213;\014\277\277\274Zm\340\274\000qu\274\004K\244<\277\023\264\273\364&\321\274D\025R<\221\334\r=\355\335\325<\265\270d\274>@\003=\016`\314<\001\237\003=\333\374K\273Z\217_\275\277\210\232\274\035\020\255<\321\311\301\274K\245d\274\016\365\016=%?\226\275\025\330$\274%\236\317;\342\336K\275L\232\017\274M\007\025\273]\003;\274\353\335=<8\304\260=\2730\213\267\014\316<\274#v%<\353\365 \275\234\233\002\275u\006\236=\232<\260;W>+<\022\355\237\275j\251?\273A\266\211\274\016\341\300\274\376\032\3017K|A=\022\220\262\274\253\360\006\275\373tA\274u\025\257<\301$e\275T\"\246<0\362\220=\246Q\350\272<*\224\274\356\034\240\275\257<\321\275q\331\227\274]g\233\274\242y\315<C\2315\274\201t\244\272\"\'\t\274M\357\236\275\251\026\027\274]\003\370<=I\255\274\346\260\t=V\317\223\274\265\343\217\274\277\375S\274\026Z\254\274Jo`=\273\303\304<4\037\235\274~\262C\274\231\271\265\275\201\321,=fH\303:\207Xc<t\027\026\274-\336\313\274\331\316]\274\2326\r\275\363\016\252\274\265\317\247=\224\323\n\274\014\\_<\347\347&\272,\204\223\274\207M\251<\202\272G;\362\257\001=\201\020\267\274\207 \250<\200<\014\275\247&\205\274\037\020\354\274M\035\253<\354*2<Z\213\236\273y\212\205\2741\036\346\273\377ym\275da\203=r\307\t\275[\006\344\274b\006C<\\\336\302\272J\2624\273\353o\203\274\207\271o<#\330\232;\234\301\033=\243o\311\274\220P\361\273:\335\240\275fhz=\272U3\274@\325\210\274.\353\317\275G\306\376\274\n\3466;\366\245\r\275\201\204\017\275k\\>=\3009\013\274{*b\273\016~\003\275\253#\334;\025\016\274=Y{\313<\r\355\307\274\3501\372<\014\315\276<\275\315\300<\027\363D:x\013\212\275\231r|\274m\260x<\270\320T\274\364\355[\274\2418\023=\330\251o\275N,\035\274 m\004<\311\354H\275=K\036\274\301\212\221\273\234pN\274#L4<\246\3166=\336\\\"\274D0\273\274\222\237+<U~s\274\207\026\242\275\216pu=\272.{;\231\361\324;<\201\275\275\316\3651;\341\306k\274\221\211;=|,\007<4\221\262<\360\361+\275y\346\315\274v\273\363\273\360\t\244;\037\375^\275\220\027\214<\240\034\207=\307\277\2139\252[\276\274\333eY\275\366f\324\275f\277\301\274\031\222@\274\036\362\027<\206\3646\274\350\341\023;\347\006\371\273\324\336\225=\267j\223\274\377\313\317<\354\'-\274\331>\021<m\267\232\274>\353\216\274!\216\020\274,\322]<\036f\013=\307(w<\305iY\274P\211\026=;\252\225\274\377B\350<\036~\215\273\341\345b<.\310\244<\031\220\225\274\022\3713\274\tUS=\343>V\274`f*=\223Lr\274j\032r<P*\275;\364\024\306\274\347%\227<\207\t.\273\\\367\361<*\371\254\274\250a\031<\036V\223\274\344\271\276\274>=\024\275\305\250\274<\256\037\242\273\326\366\260\272\024G*\274!)\024\274@L\260=\2452A=\0205\375\274\3325\247\274p\356\266\272\333\340\276\272;b\375\272E\225I\274_\036\204<\275rT:Z(\030=y\373\246\274\257C\032=(#&\274*\202P=\240\t\266\274Bp\212\274T\243\202\275m\235\262\274\337\266M;O\032\016=J.\326\2741\260\322<\200\257\236;T\240\335\273;\202\301\274\306*\325\273`\251\253=\246\370}<\230|\016\275\312\334\276<\030\037\031<.3\221<\\\301V<7\026\223\275\355\215\017\274\210\017\303\273\376z\376\273\357\020\360\273\033\357\330<\032\357\302=\267{\232\274\217\326j<\030\270V\275_`\215\2748,\303\273\277L-\274\371\373G<\262\207\340;\312S\005\274\3508\257\274\006K0<ha\326<\341\253\320\274\276\2116=Qe1\272\253T\034<\334E|\275Mj\271;\203\302\205\274\222\262\213\274\377\025><\335\215\003\274\221\273\201\275T\345\250\274\356X\366\273%\253\307\273\014\330\233\275\304\035\"<\021\301v=\032#\313\272&\006\357\274\251\251\354\274\266\253\245\275\303-\215\274\214\350q;\326\353\330;\361M\n\273\024\350\310;%\247\345\273#@\241=\331q\t\274\324&\006=\264\305\265\271\341\355\3709Mp\230\274\001\301\207\2749\306\347\273\3228@=\2513\301<\240\350\000<\340\332$\2748\323o\272\344\326F=\222\207\310:1\255J\273\327J\236<\3775\300<\273\301q\274c\340<\274\311\016\340\274\334v)\274\322{\263\274L\177\366\274\256\030K<\247\024\264;5\350\325\274A\234X\274\244\357\275\273tG\316<\372\316\213\274n\316\001;/\343\265\273\221z\215\274\"\360\375\274\335E\005=\235d\246\273g|:<3\335\244\273U\341\325\273\335\256\255=\200\3724=\235\202\211\274\000\3138\274{\277]\273\t\240\220\272\252\304\234\271\241j\020\274\374U\300;,\032K\273\006\033\004=;Kn\274l\2364\273(\2042=\001~\315<q\005\304\274\316\220\030\274.\372:\275n\274\206\274H\002\3139\322q\246\274Q^\257\274>\034\001;m\360\305\272w\252\033\274\342\360\245\274\000\311\204\274}\240\007=8x\212<0T\027\275#\263\305<n{\r<w\002\371;\023q\222<\014\276v\275\277\260&;p#\013\274S\024\272;Czs\273v\177\322<|2\321=\247`L\274\230\216\253<\335\2559\275\203\312\203\274\366\002\333\273\350F\010\274\324=><\3732\201\275!\374\017\274\020$\307\274\020\377;<\372\227I\273\252|i<n\270\205<\3515\370\2727\246[<\024\333P\275\017S~\273\237\002~\274\033Wc=\337\022\001\274V\261\344\274\363O\211=\350\3217\275bg\204\2726\351\010=\256(\002=\247\025\263<q\253\327<\223\303)<\3141\345\273\324\267\225\275\210\017]\274\210\350\002=D\224\255\274(\270\202<Xc\201\274C\036j\273\314\037f\274\013\354\310=\217\305\246\274o\304\267<|\372\277;3\350\345<?0a\274\025,X\274\212\0244\274\271\365\305\275\234\371&=\235\211\306<\177 \200\274\262\237i\274hU\'\275\272V\204=\265;\207<RP\332<\236\343\330=\372\360\247\274Hhg\274\301\265\223=\202V\252\274\223tE\2756\034t=\n\330&<\260[=;\370E\':\327\027\304\274\025\021\006;L\243\004<\244L\226\274\302Q\323<\224\211\326\274\"c\034=d%/=\3030i<\242\0333<\\\337\036\274\227\033\234\274:\255t\274hp\257=\335\030i=\005\211*\275\340\260;;\202\241i<\017\n\253\272\201\314!\2734b\207\274B\200\336\273\224\370\215;-\211\036=G\214\276\274p\2141\274j\177\363\274UB\227=m2#;+\322,\274G\311\307<\372\240\314\274-U\031;\333`\211=\037\224\006\275\004\264\366\274\353\245\357<\224\323#\274\013u\342\274\266\272\340<\206\rh\275#]\275<\010}\025<Y\271\n=\332\377\300<\374\235\372<V\242\\\274wN)=+\002\240\274\332j\177<\346Z\231\274\231\005l\274\267x\315<p\023N=K~<\274\263t\354;\334\310\003\273.\232\026\274\301\037\200:p\356\027\274X\231\021<\3235\244=\331\013%\2740\223\237\274\315\024\004<\353HV\274v\025\"\275\377\021\244=\004\260\330;\304t\370;\337\024\314;\377\261\206\273\274\030\242\274!\244\203\275\025H\266\273fx\027\275\204\231x=~\nj\275\310+F\273{Z$=%<I\274\311\226\270<\216\006I=\302w4<\212\013\234\273/gr\275\021x\"\275\016\257\226=3V\374\2741z\343<Y\271\331\274\371\313(\273\345\007\265\274O\3563=\ts_\273#\300\000=\3254i\2744\233P=\233/\234\274\036\027\225\274\005\305j\274\260\256\231\275&\002s=E8\250<\375\246\314\274\264\2736\275\321\032\034\276\371L%=o\034\000<G#\240<\301\022\n>\237\236\365\274\272\327y\274\243\021\231\275\271\266\346\274K\"\r\275\211\210f=\267\200[<\001I\231\272\307\360v\270\220E|\274,O\260;7\344\277<\375\267l\274\"%\026=\014\263L\274\366\256\031=q\340\252=G\316 <\304x\223<\210\375_\274\276\331\251\274b\231\233\274;\026==\2173\254=>8?\275\030v\262\274\223\352\327<h#Q\273W\002\267\273\'q\231\274\337\214P<\023n\264;S\035\026=\n\374\365\274%o(\275\016[\t\276]\223]=@Z+\274>\203\267\274L\240E=\304^$\2759%\227;\260\343o\275\217m>\275\005\024:\275`g\033=\244I\272\273\0349\"\275\304\323\346<\233DO\274\377\244\005=\0136\211;\026\370:=\312N\036=\177\320(=\252O\2018R\033\235=L\260\003\275\002\367\306<Q#\257\274V\251\227\274*\222\007=\256\\\317<@\004\211;\016\341\375;\204\366\001\275P\216g\273\202W\205\273\001x\201\2747\311D<\331\'\303=\314\250\243\274\253$\372\274A\201.<n\0214\275@*\022\276\365\\v=w.\273:\247\376L;\265d\326<o\267\026\273\230\345\244\274\312\211\377\274\377\352\226\272\364\373\232=@\3359\274K\305S\275\3667\361\273,\376\036=\357\351.\275pB\233<2Vu=K)+<\0234\367\273}\344\014\275\367F\225\275\005a\261=\326\023\321\274\341\246\352<\324w\206\274\177\200I\272\036t\252\274\342\244\007\276\352\224\250;\034\r\031=\251\025\202\274XTS=\267\203\230\274U\256\211\274\021\377g\274\005\264.\273\013Xi=)L&<L\"\306\274\361 \222=\337\035\336\274\272\373\260;\2578A;\323\\\212<\023c\006>\3750\010\275\016\364{\274;`\031\275\341o\361\274\016\317\343=W\'4;\016\207\223<\3778\261\273\005uT\272\320\245\\<KA\030;FX\323<\rZR\274}\263\000=z\026\353:Cy\243<E\304\306=(\363w<j|x<\036\220\251:\3642\237\2744C\223\274\332$\364\275\262!\256= \2619\275~5\275\274\304U\323<\312\365\347\272\271K\201\273`\300\232\274 \254\223<\216\003e\272\247B\367<S\313\361\274j\324\222=\266\'\251\274\276\t\255<=?\227\274-\212\342\274\201\333N=0h3\275gZ*;\276($\275O\224G\275\340\036\214=\367V\353\273v\213Z\273:K?\275\033$\303<.R\217=Gc\017=M$!\274\265\303?=<\033\035=4\255\001=\3665.<\006\230\261=\023\301\343\274F}\256<zF\324\273\377\260\224\274\257\363\025=\344@\376\275s\342\224;\250\336\017<\363\007%\275\336-\233\273_\030\274\273\255\252\177\274\277\023.<C\356\343<\017\245\371\274T\243+\275\305[\036<X?y=\326\251\"\275\232\016\336<\371\360\t:\017\311\311:Ne\331<\306|\t;\351\207\220\274\367$\360={A\325;B\214\373<\0345h\275\302(*\275+\217\303\273B\006\254<\271\367<\275\364\275\211<\t\211\223=4\2275<\224\025\206\274\334\203j\273)\202\302\275Z~\216=Yo\245\274\324\267\225<%\020\211\2746#A:8\337\220\274\214X\273\275\246\341\237\273D\020\353<=k\220\274pm\317<\353\376\232\274\352\274\212\274\033t%\274\"\323\016=\310\273\023=&\0253:@\243\226\274\031K\003={\217\312=\323\034#\274\021\305&\271\273\231\210<\305\266\367=\273k\334\274g\004M\274\305d\373=\'B\255\2740\237Q=$T\322\274=\246\250<:\235\345\272\367s\021\274q\373\013=\355t-\273\006R\016=\253\266c\274(\341\211<\352y\221<\257K\215;I\002\237=\365T\211<\360\361Z;pj\203;F\300y\274\267_\215\274\227\377\254\275\263\350\206=\354\0218\275\315\321\351\274z\254E<o\317\247\271k\n,\273\013\315u\274\237\014$<R\316\202\273<\000\353<\361\332\322\274\030%\007=\363\207\316== \004<\207Q\336\274\211\365\337\274\317\177j=7\276\n\275\006GA;\2066\307=\177R\034\275\023\234\371<\022\0344\274K\024\273\273\210R*\275h\354\026<\001\271\334=\346\226\325<\014vq\274l\331\030=v\004\256<UG\214<\347\336\275<\230\313\215=\375\226\253\274W%\226;\343\254\223\272fIX\274-\246\356<J\230\246\275\373\n\213\273\251\007E<\223\310c\275\251\367B\274s\317\304\2739\262P\274\346AB<\345\321\032\275{q\342\274\210\203!\275\234\036\027<\251\031\375<\034\021\215=$\034\356;\030\343\335\272\355\310\302;\352\220#=\211>\213;Y\363\250\274\262{\275\274\n\276\024<@\325a\275Nr\223\275o\255\014\275V\207$\274\262;\005<9De\275&\340.<T&\236=\346\000*<C\307\302\274\312n\247<\365\224\262\275\251\304K=\033\314\001\274\373<\234<\017\'\303\273\225\002\003;\006sl\274|\0307=\314\351\244:\\,\005=#\253\314\274$\316a<GA\235\274\016\n\211\274\262\313)\274=\200\216=\0311\307<\376*\201\273x\375\204\2744\250\275\274\316\t\201=\217\335V\275\361Yh\2704\343\224<\354\266\265=\326\246\274\274\002\302d\274\205X\033\275=i\220\274\003\277\211\275J\344\r\275\351\035\233<\030\021\241\273\247o[\2742\274\000=\230N\246\2735v\024=5\235\t\274s\256\350;\274\265\343<\303\336\337:R\000Y=s\272\312<)\377\235;$\037\213<\300\304C\274\213\203D\274WSB=\237\234h=A\315\010\275\354p\t\275e>\304;\007\236\2738\330\315\206\272\264RW\274\361\233\343\272\357s\024\274\305\204\320<\n\256\252\274\226\224\257\274\267Y\210=\243\271\005\275@\226\356\274\313\310\257\274U\3661=D\313\333\274\224l\2429\351\027\347\274\272\322\377\274d\2530\275\352\207\023\274\363|\373\273\031g$\275e3[\273\326n\322=%\364\341<,P\214\274;A#=\035\267\222<Ov\237;\241\256\335<-{N=0\226#\274\266\004&;\211\202[<\320\325#\274\335a\374< \252M=1\200\030\273\220\335\200<@\363}\275)ga\274\330/\260\273.\340\027\274U,-<W\"\340\275m\267\346\274\nc#\275%\360\032<v\220D\274Z6\024=\225c*\275\'\321w\273\235?\n<=\034\333<\000D\'< ,[\274\315\207\200=\000\177\256;F\037\t\275\212\236\215=dyD\275\315f_<\236\200\030=\371v\202=%Z\"<\321\251>\275\031\014\207<Y\275\336;\326\305\\\274\333\016\t=\031j\261\275\367\314\265\274O\323#:P\303\253\274\001q\2049O\303\260\274BIE=\223\210W\274\324d\300<\240\351\254<Yl\355<\235\332^\274\270r)\274\367+2\274\227{\247\275&\260*=\2336x<\350\377j\274\343d*\275\013\265\333\275\n44=,\027\026<\301jv<\257\027l=d\237=\2742J>\274\316\034\225=\235|D\274\334\302Z\275\3563z=/\276\245<\021\222\204<\233n1<U\306\245\274\251\264\303\273:\344\034\275\207\245\021\274\360\037\013=\017\367$<\357\2545=\375\262\225\275N\2011<\364\267\3109\251Y\334\273#3\\\274\264\275\260\274\037T\232<\036\001W=f\353?\275\275\347i<\224\223v<\325\337<\273a\220D\272\353\327\221\274g\327\034<\373:D:\232\347\031=c\353\265\274/\033\"\275\272J\313\275\037\265<=\260\227\"\274(\242\306\274\365\217/=\377DN\274\232\322\265;\262\223\177=42\257\274f\031\004\275\210X\234<\0247\2317\002\366b\274\300\021\016=m\265\273\275\274\260\306<\327\231j;\232V*=\331\243\r=\361\357\034=\233j\224\274\370\037V\275\334\036\304\274\316\376\022<\300\013a\274\261\002\301\273\221G\221<\364\312\003\273u\323(\274\372C\251;\227l\004=\204\350)\274x\337%\271\245\034\255\273\313\244\006<\030\244\331=\250\224\242\274*?\362\274\001\3640<\252\330(\275\300[\373\275\261sY=i\rS:\310\204\267:\007\206U<\310/I<\334\030\212\274\223~\265\275{\243#<\2538!\275DK\230=\247\003y\275\245\305C<\354\346E=g\355\331<X\006=<\270\255\t\275\035-\241<@\n\346;\312x0<\373\243\201<t\221\340\275\002\253\357\274\200er<06\347\274$\245\347:X\027\362\274\276\323\">#-\243;?\323\017=\354\221\342:\225\331`=|\352\214\274i\\Y\274\206z_\2746\337;\275\034\004~=c\330$<N\263\275\274F\375V=K\275\372\274#`M;\343A\177;\246\231S<\331\032\177=g*\231\274\020\303E\274\240t\321\275\235\202\207\274\030\326 \275\354\232\216=r}\301<3\2714<\241\024q<=A\255\274\007\271\004\273\004^\373\274\310O^\273\252j-=D\330\327<L1R=g9\302\275\271\345\003<\340\371-<\204\337\364\273]\247u\274\302\361\315\274\013\272\013>a\255\241=\377*L\275`\211\020\274\220.\371<\322\261\201\273\206\271\037\273(\340\236\274Z\003\366<Nw=;\212|\016=\207<\345\274\270\213Z=\310!\256\274\373\014C<Qp\235\274\322\342\000\275n\345V=\310\360\306\274L\373\010<c\201\252\275k\364\373\274[b?\275\035x-=\317\323\240;Z+\334\274\n^!=g\217\205\275W\303\020=,\211E5N&e=\034\324G=\330\231\027=>\003\314\273G\\\226\275\263;\r\275\340~\251<W\301H\274\366\242\034\274\014\252\325<\314c\370=\377\244\240;\253\342\363;\005-\306;#\006K\273\367\337\220\273-\276%\274\010\325?<\272Q\326=\317\233\365\274C`\'\275\2767h<\302^Q=T\007+\275\204\214\217<\243\225\201\272\010\333\217:\341\361\325<\240,c<Z\270\215\274P\334&\275\336\202j<\364\312\312=\313\201}\274\272\025Y\275\205j\340;\221HE= \2110\274\354\313\352;e\244\257\274F\022\212<q\324$;\n\253\361<\341\266c\274tt\267\275\373G\345\274Z\022\264<\257Gg\274\222p\005;s\'\347\274I\233\325<a\334@<\324$&=c\364?\274\251\"p=\216 \216\274;\303G\274a\017V\2745\037\377;\351\014{=$=\371\2729\026\262\274s\377\206=\275\013\364=\356~\013\275\310*\236:xZ/<\200s,=\256S\257\274\023bB\274\240\260M\275p\365\207\274\346\220\t>\245V\204\273\037\024\365<\312\374\240;e\332^<\332\001\312:<\202\336\273\307+\360\274\037\271\270\273T\271\021=\327\376\370<\316\341;=\243c\234\275\003\232)<9\233S<\306\253.<I\241|\274sY\303\274Bl\254<\245\241\241=<4I\275\245\320\240\274\2771\005=\231\2022\273\302\230H\272\365L\233\274`\254\020<\n\025\'\273\367\232\327<\340Q\333\274\211\301\206=\013\323\332=et\300\274\376\271\304\274\027d\017\275\027A+=t\263\335\274\\\244\330;t\014J\275Ou\376\274\205$\274=p\315\232\274\177\177\004<\245\372\026\275\254\340\020=\245\333t<\'|\024=8\367\213\274\262\270_=\3401C=\307\236?<\361wO<$\301g\275% \013\275\203\\\302<\321\202\277;\020]/\274\245\262\355<c\235\355;\033\377\257;\361x\000<j,3\274\2201\373\272\354\342\330\273\201\337 \274LU1<L\271\253\2734J%\275`\364X\275~\201]<4\347\206=\032n\245=\244\237\243\274G\314U:\355$\225:$\025\272<\366\250\200<\256\313u\274\026\237\033>\024v\234<\254R/=/\016\207\275\301z-\275\235\334\261;\3116\001=C\002\207\274`\234\347;\177\226\324\272\322\356\230<\300\177\027\274 \004a=\365ui\275\353\231\200\275@i\313\274g\206\202<\0130A\274\025\270\r;\304\260\277\274\240\304\314\275\355S5\2739w\007=^\347\315\274xI\374<\375\226\221\274\265\321H\274\242\"!\274\210\303*=\311\316\035=\362\\+\274I`\204\274J\245>\275w\037\310=(\2256\275o\035\001\272\330L$<\2317s<pN\213\274\314\330!\274\316\226\033>\236\331$\274\t\320~=si\014\275H\246\006=\3619\234;\"\361\342;\244\275\n=\'\303\"\274\247\237\213\274\346\313\310\273\236\034\226<\204\334)=\221\325\246<t\320X\275\300EA<\220\016\226;\006jp<\337\003Z\274\002\333\266\274\003\260\307\275b\'`=\270\253A\275\206R\r\275\322H\215<\245\006\007\273\351\337\0059\3348\207\274)0D\271b\247\357\273\316T\314<\254(\303\274 >8\275\032\215\257=t\014\376\274\024\000\365\274\325\275\n\275\315\\\376<\276*\234\274\345\224\324;\347\321\001>&\344\263\2742\3770=\375\346\266\274\325K\322;\303\265\026\275\016j\275<S\226\250=KI\351<\177\317\260\274\230$;=k\333\337<9\307\367\273{\314\234<+9\000\275\252\336\335\274X\270+<\026\006S<\245\251\365\273\007\210\272<r\242\331\275F^\344\273<\020I<6\177\020\275_\027!\274\313\211\344\273\370\315\350\273j\0278<@\177\236\275\310e\035\275\200\313E\275\321\023K<\353\020\000\275\017\267\201=\031\313\025\275q,\205:ov\336;\353\325\242<\252\304\207<\360/\235\274\030`,\275\234\250\256<\013+l\275]\341\266\275 \201\021\2752\256\237\272\261\226\253<\263z\376\274\"\026-:\036!\202<\005\031\221<\tQ\233\274#:l=\314\274\221\275@\201/\275Uq\211\274\004\264\254<\256\265K:V\020\236\271\206E\260\274\266\201:\275Rc\221\272\217i\021=\3025?\275]\241\257<\231\371\244\274\\I[\274\177\033I\274\367\221\220=\313!\355<;\327}\274:\324i\274\342(\"\274QKU\275T \240\275\210\222\235\273M\253\213;\245\222\317\274\204\246_\274\r\346E\274\t)p\275\356\013\276\273\317\313\220\275r5S\275\333\n\357<\257\355\034\272lX7;\030\321E=\022\353X\274\200%\370\273\266\203\223\272\370\320\333;\'\333\021=\370\242\000<\277D$\275h\000\221<mF\t<\330\270\336<\036\221\\\274\312\256\224\274\244\2168\275a\345)=9\030\030\275\254\214T\275\233rO<W\037+\273p\203\213:\215\277\205\274<\335#\274\237M&\274k\257\244<\273\204\234\2742\377.\274\303\321.\275Y\t\177\275\337a\016\275\020<\n\275\245S\376:k\254L\274\n-k;\035MM\275\272Nf\274\200e1\275I\352\306\274[,\321:\035\355\035\275\330\2148<v%\354=\321\342\353<t\350\275\274,\265F=@d\262<\327\247\321\274\351\210\243<c\324\304\274% \224\274\030\3151<4\004\333</\310\351\273\204\246\272<\213TB\275<_\004\274\235\352l<\367\376]\275+\350\"\274\227]\335\273d\027\203\273\t}\020<;\224\010\276\233\'\031\275=\361G\275\215\277O<\001{|;\230\346\025\275\345J\237\275\275\362\240\273\034\024^;\367\303k9:\342J<\252\227d\274\027\225W=\312\016\327;{\354\n\275\037*\210=\372$&\275\005D\251<\271)\257<\007\207\241=\230k%<e\n<\275\307\356q<\222\234\366;\306?\227;\3145e=\377G\323\273\262\306N\274\235RG\274\034\307\310\274\235\232\001\272\331:\263\274\366\016\216\275^\274\277\273/\016*<\2253\005=\016k\001<?\215I\274~\222\021\274\270\005:\274O\257T\275EF\200<\347,\223\2739\216e\274\314j\342;%\324\r\275\311d\027=\216\204e;+\216\356:W\235\002\275\201\036\367\273\237\357<\274l\243\204=\344\353\335\273\0256Y\275\211\002j=\230\252\303</\235\251<\037\221\336;\332\223\r\274\216&\206\2737~\332\274.\000\257\273uC\250<\264N\312;\241w\260<\033\237\024\274^\246\017<\237z\002\274\316\016C\273\215|<\274x\342\277\274\255\300\275\275g\242\024=\336oO\275a3\307<\177\314\255;\342\324\243\273\342\377\237\2723V\225\274=%\261<^\2239\274\206\n\004=\027`\242\274I\250\300;\201{\336\274\351\300\003=dks\274A\030\376\274\267\035\224<\353\031\216\273\365\263^;\340\245f=\231k0\274\302o\372\274<\'^<u\250\022\273\254\202\017\273\344h\301<;}\266\275\370B\334<\017\244\000=\030\256\003=\030\005\260<\221\006B<d\202\021\275\206\002\211\271aE\256\274\212\244_\272\021S\r\274^Hg\2733\377\027<\210W\255\275\320\355H\274\213~\233;\334\\\210=\272\026\204\274\347B\035\273\236.y\273\355>\221;\323!\325=\306\361\345\274T\332\007\275},\n<~$\220:A\273[\275\005\342\367<\350nW9\t\205d:\251m\340;\377\032j<+\351\217\274f\251\306\275\3069*<\275\3621\275\341I\216=~\345D\275\314\022\225<\304\030\n=\332\263C=@\251.<^O\010\2758\371\202<\303_\217;^\370\304<\326\343N=}a\343\274\255\230\240\274\232\237\260;\251\321\346\274\020V\237\272G|\355\274E\247e=\317\247;<;\024\262< \277\336<}\230\t=\225\\~\274m\242@\274\020\220{\274\201t\351\274$\234\031=\023\210\022\274\302\007\262\274\347\245H=@\221\271=5\257\2319\252\"\231:\013 \242:\221\200\203\275B[W\274\260T<\274\363M\324\275\027\325\036\274\003\3753\275X[\207=\315{\000=}[p<J?T<Zk\017\275\034\376\260\272\027a\217\2745\320\035\273;s\321<\224wh<\274\270\023=\262\242\362\274\201\356\224;\340p\333;\360K\201\271\005\225u\274\316\373\322\274+\300\342<\330\263x=L\273V\275\241p\222<4\276\265<\007@\300\273\024\3568\273\276\304\246\274\025w\246<\222\237\334\273m\276\371<\2015\304\274\372\240N=\010\266\264=.\022\237:\265\026\250\2744\211\021\275\n\"\321\273\353LT\274EX\273;\331\312\252\275\004\'\207\274j\316A\275\t\014#=\2663\264;\235\026\177\274?\271\367< !\337\275\235\337\026=\021\241\024=w\3643=\264\305\004=C\372\320\273h\336\321\274\215\366\220\274\\>\004\275\344\223v<\204\254R\273\024\027\022\274~]\205<\014\020)=\177\251\273:\n\216\014<.Xg=\3011\371\273\356\374\347\273m\277\007\274\346\324\311;\016m\214=G\230\016\275$#\'\275\223ME<\250\321V=.\"l=!P\367\272\211\031\t;\300\016J;\355\224\202\273\364.\210<5\344\221\274\231\336%\275\2278x<^\270\220=8-X:sI\'\275\247\252_<\323$\014=\323\332~<RQ\334;\024$\357\274O\217\211<&f\216:M]\010=\226\211\021=FQ%\275\306\353\225\274\242\233[<\001\020\177\274\315+-\272?#\355\274\245\337\006>Q\263\230<\202w\335<1\215\311<?\345\022=\027\363h\274\234\315\005\274@\340\200\274$\343*<\254\224\036=\322C\200\274\023\014\251\274\007\\/\275\300\225\342=\213\225\216\274pxA\273X\367\354\2726?\252\2759\013b\274L\2276\274\005t@\275\216\240\367\273%\257\324=\r\035?<\362\363\025=kX\023<\324\303H<\034\207\013\275\224\235\303\273\001\263\245\274~{\316\272q\371\241<Y\2621<\336\3470=\237\227)\275\017\234\334;G\020*<T\212m<\010\257|\274C\213\322\274\243\214\347=o\334x=\237\036U\275\343\252\233<,\316\271<\2039\200\273@\020\203:\307\355\251\274\251\323\033\274#\210\'\274A\243\327<\356\313\271\274M\371+\275\321\367\302=\330Qy\274\2140\321\274\246\236\037\275\216\251u\274+\256N\2747C\236;\017\2450\275@&[\274\200\343\177=\017\021_\273\226\212\021<\262\214\314\274\\\202\341<\006\177\204\275\275\263\030=\027\342\254<|\343;=\203\240\005=h\270\021\275p\n\253\273\250$\376\274\216\353\001\275!\347\252<joC<\306y\035\274uB\220<\230\363\343=\021!\203;|\230\003<i\244N=t\026\377\273\035\252\010\274\276l\257\273x\242\247;b#<\275\3115/\275\256\3749\275\261hH<\200R\370\274\177\253\225=nf\247\274q\021|;6\206I;s|\204\273v\005\207<\265\200\214\274\263\261\000>on\227<\237\274\363<\230p_\275w-\000\275\010\016><7\321\241<%\331\020;\304>\332;<Q5\274\263n\225<\224\303+\274Q\334P=3\010\023\274\26616\275O\036\221\274\313G@<\263\300g\274\220\365H\273x/\264\274\205n\220<&z#;\350\n\254<\'j\377;F3L<\010\024\201\274\260Q\'\274i\254\\\274Q\3232=\t\374\240<\232o\306\274\000\203\206\274\357\217<\275\014\001+\275<\177\270\274\252\254|\273\253u<\273\024[\262\275\265\0032\274\343B0\274\\\232\000>\357S\341\2726\312G=\356R\352\274\nY!=\243\372\371;w\337\305;wn\013\274\376\314\020\274|\3312\274\304~%\273#\023\232;4\345\245<\237\016\275<\242\0148\275%q\345;\254g\274;\230\215\204<a\366\202\274\252\316\254\274\317)\213<:b\027=&gJ\275\316\244\247:\023V(<\372S\204\273\300\361q9\323\265\236\274\361D^\273\244p`\274\312c\275<d\037\257\274\233\203A\275\206\n!\275ab\243\274\327\247\360\274\243R\033\275\356\017\016\274\303\201\335\273yGQ;0\233\331=6\332\265\273\366\027\346<\377\322\211\274i%\001<\004\320\345\274\3553\217<\242u\247\2723\247\370<\325\250s<\205a\034=\204Lp<Gc8\275u:\215;\212\034\006\275;\366\334\274\260\351N<#\365\201<\226\263\017\274q\205s<\221c><\224\366\003\274\335\326E<@\031\327<\322\236a\274\213\350\031\274\201\033\216\273\345e\226;\334/\261\275\017\377)\275\255\344\'\275\340D <m\335\010\275,7\002\275\001m\010\275Z\242\271;c\362\010<\203\331\357;\3720x<\031\275\246\274\275\362\037\275\236\253\223<#\0049\275\267\327\222\275\202x\305\2741\3722;xH\030<\320A\006\274\252\346(\273\236T{\273\244\030\202<\2445\231\274\'\365\022=\010\306\273\274\312\357\020\275\244\360\\\274\025d\221<\247^8\273\377o\344\273&3\262\274\322(A\275\2042\300:\266f\256<o\023S\27453\235;\331\243\225\2742\302:\274\260\204\202\274\320y\221=\0169B<\224H\317\274\243\316W\274a1?=\346+\003\276}\227\021\275x\246\025\274\037\007-\274\343\224\251\275\221\223\030\274\270hM\274g\006k\275\302\033\3249\237\276c\275\001\232%\275hF\022=Ts\2379\022!6:\224m\234<\024\033\202\274M\274D\274\2762\2239\244=\270\273lA\265;\316\013\240<\371\307\023\275X%9<\353(\030<\241\004\321<3\205\221\274JG\235\274\3658\034\275\016-\263<\305\302,\275\230\230Z\274\247\247\304;\325`\242\273 pp:\177\311\240\274J\017<;\314%\201\274Za\244<\226O\203\274\234\366\035=Q\030\331\275\250L\004\275\rH\r\275\014\272!\275\022\353\361\271\t\224\351\272]\300\215:\245\2452\275\377\026\032:\343<\007\275]\013f\274\013\031c;0l\006\275\327\014\226;\306\331\204=1\250\322<\262\300X;c\377 =L`\032<Z\260g\275\242\356x<\314\314\006\275\032n\236\274\245rL<h\020\317<\000\020\026\274\311VY<~\352\030\275\335\2574\274\376+1<\021t\021<b}d\274Xz\020\274|\215\233\272k\273\020;*\207\326\2750S#\275\367\031\035\275\377B0<\010>8=\252\010\220\27502d\275\021\354I\272ZHO;0\336\251<\277\337\231<\1774H\274\'\376\036=\177\236=<\305Q[\274\276~:=\225\222\372\274\214:\261<CD|<e\362\267=\351\313H\273\004?|\275\3548C<\"o\036<\311\211W<\003\260n=Sz\266<DBD\274(\024\024\275\360\307\302\274\251 R:\377\261\314\274/>!\275\326\223b;`\2603<f8\233<\334L\206:\"\362E\274]n\346\273\353\022P\274m\251\316\274-\237\200<\261C~\274G\345Z\274&\ta<s\276\222<\025\2178\274\255\245\2628x\311\372\273\030\020w\275\336e\000\273\252E\362\273\215\300T=\235\336\320\272\264\032\335\274\344n*=4\016\005=p7\304<\271\227\202<\255\227\366<n\232\t\274\001\035\003\275\314\266I:o\347l<\'6\244\272\276\002t\273h\027\264<\215\021\253;S$\274\274e\215\221;\207\032\343\273\327#\326\274\\\213$\275\315\002\252<\265\035%\275\307h\311:|~&;\312s\306\273/\316\2529y,\212\274 O\260<D\215\370\273\263\312\374<\000\335\200\274\022\201/<\037\034\275<B\336\260\274\035d\203\274\242\221\357\2741\300\365<z\316\301;n\346\010<J\330<=\037}K:P-\033\274\364\372\006\274\350\274#<\203\310\010<v\262\323<\035\262X\275_x\313<8\310\363<}l\357<\r1\246<\343\333\227\274\365\363?\275\237\343\300<\r_\250\274\247\325k\274\265+w;\300\246(;\237\266{9\013 \323\274\222>5\274\316\024\036<\016\177Q=\250\302\214\274k\321m\273,\300\3049Y\276\237;\025\337\235=o\213\300\274A\356\000\275\237#V<F\341#<Fd(<X\037\021\275\260K\3549e\002r;{\001\357<\0221\251<\372g\214\274o\323\215\275\177\017u<\255\226\345\273\270rE=X\020%\275du\240<>\276\353<\312\027\232=\271\207\233\272:\204j\275Bd\206<\314\013\330;.\221\370<C\003\213=o\214D=\222\302\211\274\247.\240\274P\325\324\274\233\240\227\272e\237\013\275\250\301\223\275\250t\274<\330\004\300<\244Z\337<\275$\316<\2427r\274\317\241*\274\376<\226\274\217\320t\274\202Y\034=^B\206\274\004%\265\274J\317&\274r\036\237=\202\001\341\274iG\205\272\352\312\364\273d6\257\275\204*\321\273\0137\004\274xe\220\275\315\327h\273\272M\037\274\0377D=\326\022\031=\250\207\233<\032g\307<X2C\273<[\215\273\003\036\353\274%\336\357;Gr\224<![\272;\353\360f<1X?=\233\1771;\325b\020\274\023h\010<b;,\274\201q\373\274\r\266\263\275Sc1=e\354#\275\340\302><\235\020\227<\313t\327\273m\320\231\272\277`\243\274\331\215\342;\3225\002\273N\022\007=\356M\245\274Dg,\274i\265\223=>\254\377\274\034\013\237\274\277\252\373\274\004\362J<t\376!\2728\363*<aAX\275\346\2253\273poH\274_\\\205<\341\265\203<\221\203\212\273 \201\n=K\236\302\275_\316\022=\316\331\021=\302\2456=8[\000=2}\013\275\333b,\275uF@=\351\201\353\274 \203\245:k[6<>\023!\273,\324\207;\342\274\204\275\214\337\037;\302\217d<\355\364_=Z\013\"\274\216\211\357\273\373\315F\273\220%\273;\350j\317<\200O\346\274\027\301\010\275\255\\\207<\"\021\026\273\264\035a=:l?\275p:\212;\377\275\372;gk\317<\201\005\263<k\376\222\274\314E\355\274jg\236<\231\276v=2\302\275\273\202r\004\275\212\205\213<.\332\016=\326F,=\325\'\250\273Z\270f\275\250C\222<(\246R;\026-\t=0\224\224=52U=M\233\202\274\n\275\237\273Y\2522\274\333\212\"\273\350\212\007\275E\233e=\026=\377<Kr\352<l\r9=%2\004=\361\205g\274\032\313\364\273J\203\231\274\325\325|<\302\230#=\243\276\263\274\361\305\253\274L\323\036\275w#.\275\352\350\353\274?K\275\273&\037#\274h`\262\275J\205\000\274y\"\371\273d\022\322\274{D\241\2722[\272=\267\365\341\271g\0231=n\335d<l\370\345<\213\201\342\274\370\321\034\274\245\226\364\274`L\t<\002\236C<\216\213V;\324\001\010=un\\=2\313j;\351\201\231:W\322\303<\364\301Q\274<\372\357\274 \204\341<\354X0=\256\301\037\275\360\022\006=W*\276<f\022\252\273\316y\373:\325\246\242\274\274\275\313\274\260u\235\273\246\263\353<\245\013\231\274\20212\275#sC\275\351\306\004\275bM\306\274i\027\006\275\026\025\206<\300PS\2726\302\034<\251Z\256\274\320?\224:8\004P=z\304\233\274\223\317\240<mO_\274\375\r\023=\256\332\314\275\323\333\017=\302\274\346<H\312B=Ua\375<\214WW\275\311\324\256\274\360\355S=\366t\360\274j\220X<A\254\331<\024N\231\273V\367\262;\354\300\016=L\374\240;\247\224\\<\377\237\215=\237V\323\273\257\345\021\274C!\022\272F\337\240;\342\252\243\275\177\217\022\2758\000\024\275%\215\206<\256F\324\274\264\357J\275o+F\275\274\256\256;\341\361\017<\242\377\367<\261a\245<\207\361\210\274`5\243=\344\317\244<\353\023\010=\023\251\014\275\033\025\306\274\263\337v<\031\272\250<\240L\357<\206G\347\273\002\374<\2752\025\235<\232\013\020\274\343\3060=\234\354\r=\025\326\372<\345\253k\274z\270\231\273\247[\017\274\325\235\263\273\2250\341\274\302z\202=_\277\225<X\267\320<| \017=\360H)<\300^n\274\266\306\014\274\006x\203\274\310{\r=q0\261<r$\340\274C\'j\274\030S\356<\030\334\261\275\243\336e\274\025\211\027\274\220\343?\274U\352\225\275\375a\301\273F\216\354\273\254\\\253=#J+;uFa=N8\231\274\376\3554=]\247J<\277B\263<O\306\237\274\032\310r\274\023\257\327\274\372:\313;\356\273\236\273\245\007O<7E\201<;r\031=\025\212\246;\317\236\331\272\246\250\310<\007tj\274b\020\326\274\212\300j=\177v\264<\201\365\n\275q\032\304<,PE<\224U\246\273\271x\304:\0375\231\274\344\336\212\274\301\001\t\274\255\237\333<\262\214\200\274\366r\251<\000\324\212\275\026\252\247\274\360-\353\274\243#\003\275VQ\014=Y\234\203;\235\r\003<\014:\222=\233\344\342;\t\310\007=\356\3602\274\201\n\210<\304\351\223\274Q\376\342<\020\356u\275\2122\314<G\356\263<\303\271\035=\250J!<\307\025B\275\346\006\226\274\r\\\030=\223\016\304\274\017\014\003<\252w\344<\005\006\214\273r\027\257:\316FJ=\274\033\232\273\330~\233<\003\016`=#\365,\274\350\207\031\274UN0:\347\200\213;QV\316\275\3311\r\275\216<\354\274\365\307}<\376d\t=\200^I\275\350\3210\275\274\362\273;Y9V<\214HG=\220R\244<\215q\236\274\265\220\334\274\300(\261<S\032O\274\301\014V\275\222\365\240\274r#\001<\3423T<\370\213\376;\233~\200\274\020\2107\275\374\352\212<#F|\274\2777\231<\236\025\367<\351\274\260<\2223Z\274\207\022\313;\372\327f;\347=!\274\035\000\343\274vQ\317\273\340\324\216<\203\342\322<\346\274\034=\004\214\346;\037*\222\274f\343\032\274n\005\222\274\203%g=\025\000~<F\304\342\274\217\036 \274\024\217\372<]\244\330\274\001]a\274\252\262v\2740p\231\274\222m\201\275P<S\273\361\324\020\274}\242)\2755\273\332;\211\223\232\274\270-\352\274\300e\032=\245l\277;\247E\215<\250\247\355\273~\234\272\274\237\t\006\275\365\313\366;\226\246a\274\003\316L\273\217\231\331<\001\t\372<a\025\345;\267\225\262;\300\377\007=3\340\206\274\251\350\306\274\363u\022<^=\014<\3553\337\274\\I\013=\217\2269<\230(\343\273\357\033\016;\213\254\231\274\364\343\000;\000\203\031\274\017\235\275<c\211\"\274\226\252\236<\324\311\336:9\320\247\274\344\032\t\275\030H\013\275\365\367%=Hd#<U\224\304;\002\271\323\274_\350p<Ye+\272B\243\205\272\350\256\024<\032\275\302\274)\201\212<\001NU\273Q\312\226<.\327\330;^\333\036=2\266\231;\227\226S\275$M\240;\367\027\375<\031\364\235\274\352\010=<d\235\021=\222E\233\273\204\362\2039\354\006\262\273w\371\353\273\014\301\224<2\362\203=7\367\367\273LF\034\274\222\240v;C\325\022;\214z\270\275P\226\006\275-\275\322\274\215\272\212<\277s\254<\300\260\010=z\236K\275\301\350a\272\3327\000<\000Tg="
      }
    }
  }
}
node {
  name: "conv1/Const_1"
  op: "Const"
  attr {
    key: "dtype"
    value {
      type: DT_FLOAT
    }
  }
  attr {
    key: "value"
    value {
      tensor {
        dtype: DT_FLOAT
        tensor_shape {
          dim {
            size: 40
          }
        }
        tensor_content: "\224\354\202\275\262b\323=\216\216\267>\220\355E\275qR\251>A\245\241>\203.$\276\"B\202=\177\241v=q\032\242>FV\233=\n\205\035>\007\024\021\275\013p\334\274uz\220>\023\306)>\0009\275> \177N=\360&\310=\276)h<\325P\025>\005\023\225\275\230:\266>\326\332\337\274GF\242\275}V?>\224\343\333\275g\302\010>0\032\263=\2656\232=\010\216\261>\314\035\215\275\024~4=B\330\326\275\036\216\252>\377S\277>\343\333\237>\210\327\016>J;\032\274~\374\232>"
      }
    }
  }
}
node {
  name: "conv1/Conv2D"
  op: "Conv2D"
  input: "XXX"
  input: "conv1/Const"
  attr {
    key: "T"
    value {
      type: DT_FLOAT
    }
  }
  attr {
    key: "data_format"
    value {
      s: "NHWC"
    }
  }
  attr {
    key: "dilations"
    value {
      list {
        i: 1
        i: 1
        i: 1
        i: 1
      }
    }
  }
  attr {
    key: "explicit_paddings"
    value {
      list {
      }
    }
  }
  attr {
    key: "padding"
    value {
      s: "SAME"
    }
  }
  attr {
    key: "strides"
    value {
      list {
        i: 1
        i: 2
        i: 2
        i: 1
      }
    }
  }
  attr {
    key: "use_cudnn_on_gpu"
    value {
      b: true
    }
  }
}
node {
  name: "conv1/batch_normalization/gamma/Initializer/ones"
  op: "Const"
  attr {
    key: "_class"
    value {
      list {
        s: "loc:@conv1/batch_normalization/gamma"
      }
    }
  }
  attr {
    key: "dtype"
    value {
      type: DT_FLOAT
    }
  }
  attr {
    key: "value"
    value {
      tensor {
        dtype: DT_FLOAT
        tensor_shape {
          dim {
            size: 40
          }
        }
        float_val: 1.0
      }
    }
  }
}
node {
  name: "conv1/batch_normalization/gamma"
  op: "VariableV2"
  attr {
    key: "_class"
    value {
      list {
        s: "loc:@conv1/batch_normalization/gamma"
      }
    }
  }
  attr {
    key: "container"
    value {
      s: ""
    }
  }
  attr {
    key: "dtype"
    value {
      type: DT_FLOAT
    }
  }
  attr {
    key: "shape"
    value {
      shape {
        dim {
          size: 40
        }
      }
    }
  }
  attr {
    key: "shared_name"
    value {
      s: ""
    }
  }
}
node {
  name: "conv1/batch_normalization/gamma/Assign"
  op: "Assign"
  input: "conv1/batch_normalization/gamma"
  input: "conv1/batch_normalization/gamma/Initializer/ones"
  attr {
    key: "T"
    value {
      type: DT_FLOAT
    }
  }
  attr {
    key: "_class"
    value {
      list {
        s: "loc:@conv1/batch_normalization/gamma"
      }
    }
  }
  attr {
    key: "use_locking"
    value {
      b: true
    }
  }
  attr {
    key: "validate_shape"
    value {
      b: true
    }
  }
}
node {
  name: "conv1/batch_normalization/gamma/read"
  op: "Identity"
  input: "conv1/batch_normalization/gamma"
  attr {
    key: "T"
    value {
      type: DT_FLOAT
    }
  }
  attr {
    key: "_class"
    value {
      list {
        s: "loc:@conv1/batch_normalization/gamma"
      }
    }
  }
}
node {
  name: "conv1/batch_normalization/beta/Initializer/zeros"
  op: "Const"
  attr {
    key: "_class"
    value {
      list {
        s: "loc:@conv1/batch_normalization/beta"
      }
    }
  }
  attr {
    key: "dtype"
    value {
      type: DT_FLOAT
    }
  }
  attr {
    key: "value"
    value {
      tensor {
        dtype: DT_FLOAT
        tensor_shape {
          dim {
            size: 40
          }
        }
        float_val: 0.0
      }
    }
  }
}
node {
  name: "conv1/batch_normalization/beta"
  op: "VariableV2"
  attr {
    key: "_class"
    value {
      list {
        s: "loc:@conv1/batch_normalization/beta"
      }
    }
  }
  attr {
    key: "container"
    value {
      s: ""
    }
  }
  attr {
    key: "dtype"
    value {
      type: DT_FLOAT
    }
  }
  attr {
    key: "shape"
    value {
      shape {
        dim {
          size: 40
        }
      }
    }
  }
  attr {
    key: "shared_name"
    value {
      s: ""
    }
  }
}
node {
  name: "conv1/batch_normalization/beta/Assign"
  op: "Assign"
  input: "conv1/batch_normalization/beta"
  input: "conv1/batch_normalization/beta/Initializer/zeros"
  attr {
    key: "T"
    value {
      type: DT_FLOAT
    }
  }
  attr {
    key: "_class"
    value {
      list {
        s: "loc:@conv1/batch_normalization/beta"
      }
    }
  }
  attr {
    key: "use_locking"
    value {
      b: true
    }
  }
  attr {
    key: "validate_shape"
    value {
      b: true
    }
  }
}
node {
  name: "conv1/batch_normalization/beta/read"
  op: "Identity"
  input: "conv1/batch_normalization/beta"
  attr {
    key: "T"
    value {
      type: DT_FLOAT
    }
  }
  attr {
    key: "_class"
    value {
      list {
        s: "loc:@conv1/batch_normalization/beta"
      }
    }
  }
}
node {
  name: "conv1/batch_normalization/moving_mean/Initializer/zeros"
  op: "Const"
  attr {
    key: "_class"
    value {
      list {
        s: "loc:@conv1/batch_normalization/moving_mean"
      }
    }
  }
  attr {
    key: "dtype"
    value {
      type: DT_FLOAT
    }
  }
  attr {
    key: "value"
    value {
      tensor {
        dtype: DT_FLOAT
        tensor_shape {
          dim {
            size: 40
          }
        }
        float_val: 0.0
      }
    }
  }
}
node {
  name: "conv1/batch_normalization/moving_mean"
  op: "VariableV2"
  attr {
    key: "_class"
    value {
      list {
        s: "loc:@conv1/batch_normalization/moving_mean"
      }
    }
  }
  attr {
    key: "container"
    value {
      s: ""
    }
  }
  attr {
    key: "dtype"
    value {
      type: DT_FLOAT
    }
  }
  attr {
    key: "shape"
    value {
      shape {
        dim {
          size: 40
        }
      }
    }
  }
  attr {
    key: "shared_name"
    value {
      s: ""
    }
  }
}
node {
  name: "conv1/batch_normalization/moving_mean/Assign"
  op: "Assign"
  input: "conv1/batch_normalization/moving_mean"
  input: "conv1/batch_normalization/moving_mean/Initializer/zeros"
  attr {
    key: "T"
    value {
      type: DT_FLOAT
    }
  }
  attr {
    key: "_class"
    value {
      list {
        s: "loc:@conv1/batch_normalization/moving_mean"
      }
    }
  }
  attr {
    key: "use_locking"
    value {
      b: true
    }
  }
  attr {
    key: "validate_shape"
    value {
      b: true
    }
  }
}
node {
  name: "conv1/batch_normalization/moving_mean/read"
  op: "Identity"
  input: "conv1/batch_normalization/moving_mean"
  attr {
    key: "T"
    value {
      type: DT_FLOAT
    }
  }
  attr {
    key: "_class"
    value {
      list {
        s: "loc:@conv1/batch_normalization/moving_mean"
      }
    }
  }
}
node {
  name: "conv1/batch_normalization/moving_variance/Initializer/ones"
  op: "Const"
  attr {
    key: "_class"
    value {
      list {
        s: "loc:@conv1/batch_normalization/moving_variance"
      }
    }
  }
  attr {
    key: "dtype"
    value {
      type: DT_FLOAT
    }
  }
  attr {
    key: "value"
    value {
      tensor {
        dtype: DT_FLOAT
        tensor_shape {
          dim {
            size: 40
          }
        }
        float_val: 1.0
      }
    }
  }
}
node {
  name: "conv1/batch_normalization/moving_variance"
  op: "VariableV2"
  attr {
    key: "_class"
    value {
      list {
        s: "loc:@conv1/batch_normalization/moving_variance"
      }
    }
  }
  attr {
    key: "container"
    value {
      s: ""
    }
  }
  attr {
    key: "dtype"
    value {
      type: DT_FLOAT
    }
  }
  attr {
    key: "shape"
    value {
      shape {
        dim {
          size: 40
        }
      }
    }
  }
  attr {
    key: "shared_name"
    value {
      s: ""
    }
  }
}
node {
  name: "conv1/batch_normalization/moving_variance/Assign"
  op: "Assign"
  input: "conv1/batch_normalization/moving_variance"
  input: "conv1/batch_normalization/moving_variance/Initializer/ones"
  attr {
    key: "T"
    value {
      type: DT_FLOAT
    }
  }
  attr {
    key: "_class"
    value {
      list {
        s: "loc:@conv1/batch_normalization/moving_variance"
      }
    }
  }
  attr {
    key: "use_locking"
    value {
      b: true
    }
  }
  attr {
    key: "validate_shape"
    value {
      b: true
    }
  }
}
node {
  name: "conv1/batch_normalization/moving_variance/read"
  op: "Identity"
  input: "conv1/batch_normalization/moving_variance"
  attr {
    key: "T"
    value {
      type: DT_FLOAT
    }
  }
  attr {
    key: "_class"
    value {
      list {
        s: "loc:@conv1/batch_normalization/moving_variance"
      }
    }
  }
}
node {
  name: "conv1/batch_normalization/FusedBatchNorm"
  op: "FusedBatchNorm"
  input: "conv1/Conv2D"
  input: "conv1/batch_normalization/gamma/read"
  input: "conv1/batch_normalization/beta/read"
  input: "conv1/batch_normalization/moving_mean/read"
  input: "conv1/batch_normalization/moving_variance/read"
  attr {
    key: "T"
    value {
      type: DT_FLOAT
    }
  }
  attr {
    key: "data_format"
    value {
      s: "NHWC"
    }
  }
  attr {
    key: "epsilon"
    value {
      f: 0.0010000000474974513
    }
  }
  attr {
    key: "is_training"
    value {
      b: false
    }
  }
}
node {
  name: "conv1/batch_normalization/Const"
  op: "Const"
  attr {
    key: "dtype"
    value {
      type: DT_FLOAT
    }
  }
  attr {
    key: "value"
    value {
      tensor {
        dtype: DT_FLOAT
        tensor_shape {
        }
        float_val: 0.9900000095367432
      }
    }
  }
}
node {
  name: "conv1/BiasAdd"
  op: "BiasAdd"
  input: "conv1/batch_normalization/FusedBatchNorm"
  input: "conv1/Const_1"
  attr {
    key: "T"
    value {
      type: DT_FLOAT
    }
  }
  attr {
    key: "data_format"
    value {
      s: "NHWC"
    }
  }
}
node {
  name: "conv1/Const_2"
  op: "Const"
  attr {
    key: "dtype"
    value {
      type: DT_FLOAT
    }
  }
  attr {
    key: "value"
    value {
      tensor {
        dtype: DT_FLOAT
        tensor_shape {
        }
        float_val: -0.7868555188179016
      }
    }
  }
}
node {
  name: "conv1/Const_3"
  op: "Const"
  attr {
    key: "dtype"
    value {
      type: DT_FLOAT
    }
  }
  attr {
    key: "value"
    value {
      tensor {
        dtype: DT_FLOAT
        tensor_shape {
        }
        float_val: 1.0713095664978027
      }
    }
  }
}
node {
  name: "conv1/mul"
  op: "Mul"
  input: "conv1/Const_2"
  input: "conv1/BiasAdd"
  attr {
    key: "T"
    value {
      type: DT_FLOAT
    }
  }
}
node {
  name: "conv1/mul_1"
  op: "Mul"
  input: "conv1/mul"
  input: "conv1/BiasAdd"
  attr {
    key: "T"
    value {
      type: DT_FLOAT
    }
  }
}
node {
  name: "conv1/mul_2"
  op: "Mul"
  input: "conv1/Const_3"
  input: "conv1/BiasAdd"
  attr {
    key: "T"
    value {
      type: DT_FLOAT
    }
  }
}
node {
  name: "conv1/add"
  op: "Add"
  input: "conv1/mul_1"
  input: "conv1/mul_2"
  attr {
    key: "T"
    value {
      type: DT_FLOAT
    }
  }
}
node {
  name: "pool1/pool1"
  op: "AvgPool"
  input: "conv1/add"
  attr {
    key: "T"
    value {
      type: DT_FLOAT
    }
  }
  attr {
    key: "data_format"
    value {
      s: "NHWC"
    }
  }
  attr {
    key: "ksize"
    value {
      list {
        i: 1
        i: 5
        i: 5
        i: 1
      }
    }
  }
  attr {
    key: "padding"
    value {
      s: "SAME"
    }
  }
  attr {
    key: "strides"
    value {
      list {
        i: 1
        i: 2
        i: 2
        i: 1
      }
    }
  }
}
node {
  name: "conv2/Const"
  op: "Const"
  attr {
    key: "dtype"
    value {
      type: DT_FLOAT
    }
  }
  attr {
    key: "value"
    value {
      tensor {
        dtype: DT_FLOAT
        tensor_shape {
          dim {
            size: 3
          }
          dim {
            size: 3
          }
          dim {
            size: 40
          }
          dim {
            size: 80
          }
        }
        tensor_content: "\376CL<\\\232\355\274\213\\\\8(\260\255<J\327\300\274\202S\001\275\220\250\322<K#?=-JP\274\2449\244<\034\251\022=\177\300\275\275\307\367\253\274\370??\274Bw\037=\036.V=\240\224^<\202~\016\274\212\035\260\274\341\217U;\2349A<x\272\324\274\357\255\321<\326\275\200<.l\363\274\240\006\222=\034\264-=\244k\236\274>4\225\273\223\312\376<\330qz\273\317\261u\274\305\374\372\274\206\321(=\356\205\210\274[\325\316\274\204\363f=Zs\374\274Z\315\272\273\032\232\341\274\243d\301\274\265\231\240\273\332\302H=\025\366L<N\266\3759KB/\275\362\014\236\273\257\263\t\273\275\254\335\274\250n\035\275(1\343<\241Ty=\nt7=\n\020\017\275%\204\r=w\220\370<\227I\250\273V\343\225\274 \235S=1\354\201\274\373\234P<\212\3009\275n\020\273<_\035\034\273\02594\273\007\r\032<\006%\n\274\363\207\020\273\233\365\345<t\2579\274\n\352;;\244\364\273\273\340\'\004\274xp/\274p\022\276<\232\265^\273\233\370\215<v1\003=<\205(\275u\260\027=\355\343\001=49\222\274\377R\201<\322\ri\274\224f\350\273<9\231<\202\346\177\274\2103\335<Y\225\346\274\2644\362<\225)\031\274\272y\254<\370\230E<8\0326\275;\271\373<\n\221\330\273\364\202\027\274\374\316a<\253\333(;\024\213\230<\033\r1<\305\014\246<\321\335\251\274\001\201\246<\200 \313\274\315V\267\273+\032\217\274\345\200\327;zJ\300;r\326\033<9:\254<\277\222\177<\214r\357;G\021\201<\004\346\024;_dM\274\203\005\244<`\316a<\013Cl\274\310\252\014;\035A\306\274(:\355\274\200;u=\315\r\\<\010\260\313<\310V\203;\300P\213\273L\370\205\273\001\322\355\274g\3026;\255\026&=C\220\325<\240Y\017\271\201o\210<A\016\242\273\2560\341\273BM\276<\021\344\333\274\032\037!<\313\347G;:+\356:O4K\274\366w\177<\025\215,8\262\010\354\273\223\342\357\273\006\203\226\274{m\n=\254bz\274\313N\351\274\262]V\274\324\213\030\275nd\375:Z\004<\274\221\256\013\275\242\0105<\"x9=f\342\002=(\324\010\274\013q\204\274\0260\313<\234^\225=F|Z\273E\247\317=m_\322<\221(\031\275\373\375\377\273\027]/\275\341\212P\275\210\254\212;e\226\230\275;a\367\274\200\232\341=\312\006\274\274\225\004J\275Z\276U\275y\332\350=\0173\201=+&\274\275#I\\=&wr\275o\231m\274\364m\242\275\305\340<\275~\0338=\177\240\270=b\326y;l\\\016\275\371\343\251<\251\353\215<\'\376\375=\332oB=O\202\020\275:\274\223=\240\005\317=5\014\037=\356#>\275u\264\026=+\200~=\nx\352\274\356\322*=x\016W=\356/\330\275\200X\013\275\266mB=\213\255\260\274\315l_\275\255,g\274=\216\261<_\202\034\275]\016\204=&\362\300<>[2\275\022\371\313<\276\001R<w\252\250\275}\003\222\274I\241@\275\022\\y\275\314\246B\275G\327\344\275\360\262l\274CF\000\275e\331K\275o$\352\274\222/\201\275\014\257\031\275I\tS\275\177D\220=X\3516\274\221B\031>H\336(\275\240\036\346\273p\244\022=Y\365\202;#\271\245=\301n\'=\370\266\353<\364\232\363\274\301\244\267\275a\006n<\366\304\270\274\244!\304:K\374\224<7\203\374\274\250\016\n\275\r\364\n=@\021\000=i\230\377\274\204\366W9\244%\354<\221&\304\275p\002\222\274;;\240;\336:\325<\220\376\032=M\324\265<\235\241J\274\t}n\274\031#\025;E\242Q<13*\275@-\304<\t\206\230<\207\010\006\275\243\352\233=Z\343\302<y\255\226\274\301o\210;\211\254\317<\364\347\361\272:\271\335\274cC\340\274Y{\275<\033\373\243\274\325.\237\274>o\\=\264\000\315\274U\235\244\273S\302\032\274\010\311\256\274\363s\323\273\001\3121=\234e\330<\3621\247\274K\253\021\275\227\215\261\273\3140B\274RT\306\274r\303\254\274\255\345{<\251=U=\030\310\353<WyE\2753\217\000=\307e#=\031\3761\274Z\031\370\273\243\273P=z\033\031\275=xy<3!\017\275r\327\027<$A\344\273o\301\220;E`\010<\350K\324\274\3023m\274\374\260\036=\316E\363\272\257\247\343\273\237c\310\274`\313\352\273\273\261\206\274\215\353\277<b\255K\273\261\006B<\323FS=+\344\220\274\317\276/=\006\260j\275\266~\210\275\203\343M\274\236L\374;#\260\243=/A\216\275B\332\010\274\316.\202\2732&G\275\003\313\t\275yx\002\2754\336\255\274QQ\303=\000\231\006\275\2350_\275\177\337\213\274\314\270\266=]\030\316=\024\006k\275tK\264\273\023c+<J+\272\272\260\254\315\275A\003\'\275\323\311J\274C\211\314<\213cr<d\344}\273\300\254P=\344\207\276<\211\306\267=\360\023\236=\211\"X<\nl\200\275\205\372\246=wp\345\274\311\234\217\2705\373\271<\357R\343<-\335\030=\310\243Z=\0258\271<\031i=\276\365ON<4\001\354<ij\357<\3667\'\274\233+\325:\324e\320=9\207\233\275\013\2073=<w\t\272\301\017\343\274F<p\273\177\353\025=\367\246\246\274y\272\250\275c\324\333\272\326\205\003<I\017\020<fMW\2758u\037=e@\032\275<\000\251\275\204\215L=\304o\310\275l\264\330\272\373A\322<\244E\317=\273E\273\274o\236+=\203R/\274%\313b\274\371\373\026=\244\345\265<_\245\251\274\374\020\362<\366\007\252=\326\322\037\275 <\261\275\2472J\274r1\';`Y\265\275\324\327D\274\321)*=\033\274.\275\307\342\225\273\020\221\202\274\031YY<\244\237\253<CW\305\274U\322\027\275u\301\025\274\360%\332<\303\377d\275\246\217\334<\237\037\032=\266\003\024\274\0009\026\274\354\037\351\274\335\365\006\275v\371\335<w\252}<\327Q\331\274<\373i=I\332\306<\274\336\345=}a\350\275T\322\001=\270\003\300=J\367\355<\3057\262=DQ\320\275\204\332L=\256\034\242=oO\034=\036\212\037\276sjY==`\254<\361\200l\275\357\327\007\275R3.=\3303\221\2751\374\027=\206\206#\275l\322\320<-\221\037\274\322\365\246=\014X\324\274\335\016\207\275\014\221C=L\373\370=b\222b\275\020\356i=#o\333=\214\317\252\274\t\261\300\275\022\225N\275\377\n\024\275,\030e\274\r8\233=\330L\031\275\027\332\246<^\231\333\274w\357\203=C&<=\236\244G=\354\230\244\274\205\300\246=\332[\203\274\302Y\275\275\212\330\361<\2576^=\364Gn=z\221\372<\300\037\221;\255\005\003=\371$\262<*\377\216;\r\211\032\274\021\325\375\274\027\037 \275\031\nZ=\034\311Q<\356\023\271\274\266H\356;I\310L\273\244J;<F\024L=I#\177\274\220\376\276<\323\216\237<W\rA<\237\362\223\274Xr&=\340\315t<\r\323\371<|\337\3409\220\222\204\274\235\242\227;\225\213N<%|\277=\231\363\313\275\375~\234:\202\014\031\275 25\274\020\210\241<\361\007\354\274\277\347\005<\316\006Q=\343q\217=i\031\030\274\264{P\2748\344\224<#\3359\275\264\326\t<\177\214\'\274RA\350<\005\363\301<\304\220\340<d\272\206\274-\353\001\275\263\000h=R\207q\274S\331\020\275\33724<\230\3063\274cj\322;Mv%\275`I1=\031\234z;7:V\275\370O\273\275?J4=\313w\024\275\331\303E\274l\307[=\207F\327\272\2372\203<\\NA\274\202\tN\275\245#\342=\247\017\252=^\333\204\274\366\300\246<#G\242<\216\302\233\274\255r)\275\373$\212\274\254l\237\275:\323m\275\377\316Z\275\253\220\225:\312/\216;\274z\230\274\216\300v\275\2261G\2740g\242<\274\342\301\274\343\311\027\275\211\254\177<\366>\025\275\212\304\315;\3124A;\244x\311\274\231l\266\274\315L\335<\342c\355<\303\377\220\274\215v\214\273\235R\211<\377\002\227\275\263h\246:E\016I<b/ <O\311$=\222aj<\323G\232\274\253g\264\274\2505\247;\301W\\<LW\02298\252\317<vx\000=ne\027\2750|\221=\216\247\003<\370\347\275\273\307\215,\273\361\262$=\204\222d\273\'|\002\275\342\332\234\274w#D=\323\372#<\225\336\245\274\211\365\205<:\335\354\274{\330\2309\206\256\227\274DX\t\275R\n(<\261l\256<\336\356\315<\302\245.:\231D\035\275\001O\233<\3748!<\373\374\361\273|\321\254\274\363\003\267\274Z\202\212=\343V\300< \321\r\275\350*\016=d\240`=\363\010\230\274\016\376\252\273\352sW=\030\341w\275\257\000\336<K\251\313\274\006P\307;\302A\201\273al\315<\321\nV<\311\206\354:\233\006\325\274.d\355</\'\310\273\351\302\267\274\332B\261<n\027\205<`y8=\204\205\302<\223\370\234\274[\341%\274\302\020\261<1<;\273\257Z\277<\305\314X<j\201\257<!\2710<\2445\216\273\242\257]=g\021\341<\373\207\016=\373\222\006<\275S\341\2734\310\356<\353Z];\0340\252=T\026\007=\213U\322\274LE.=~\346f\274t\000K\275\243\244@\275*$+\272?\254\033=\353\254\036\273n\327\001\275\257\207\207<0\347\370\273\240NL\274\005\305\2739E\214\"\275g\3003;A\350.=SJI\274\004A\033\274a\231\001=\313\024Y=\037\276\232<\327-\334<[\345>\274\370\235\235=\234\200\362<yn\211\275%9\302\274\005rH=\347\n\221<@\335\"<\2409\204;\007\276q=\243\237\031<\202cw<\032\235\240<\251\245Z<\363\032\350;)\332\021\275D\350\253=e\205\360\271\332P7\274\027R\264<\273%K<\344\277\261;\202t\264\274j\307\023<\350r\330\274)y\336<\274\331\010\275\252\007\367<Y\370\223<\357\300);:w`\274\250\243(:\013n\212\275\023>9<\230\302\206\272\324\305\003=s\202<=\355\223\023\275\035\335,=\334\010(\273\024\024]<\321\2747=\312|A\275\020\n\320<\345|\005= \222m;W\266\327\273\'|\031<\303\256b=\357\346\336\2748\315\267<\020\350\027\272\206\340\002<j\030\226<\343\364{<\366S\342\274\n$M\275\222\336\226\273/N\250\274\027z\320\274Wa|<\334\024\371\274\215\341H\272lu\252<5\035\016=Q\327\243=K-m;Xf\032;\"\265\204=\002|J;\336\0339=\275\235\217=m\267\311:\231=\202=P\210\'=ph\026<\353\357\231=\216\030a\275\002\232\272=-\321\001=kl\262=\032p\365\274\023\232?\274\005\323\214=\364\035\270<a\256\230\274\252K\320\274\206q#\275\276\r\005\274[V\314\274l\245\261<\243y\253=?\0072\274\370\020\271<\007\1774=\364\013\205\275H\215\021\275IZz\274}q\351\274\007\014*\275\r9f=\237\232\225\274(\3714=C\2755\273\354\357\215<\021/\327\273\231\037d9\323\346\236\275m\216\013<\254Qd=\326\016\030=\217?\216=j/>=w\372|\274\330Ld<\3566g\275\266UV\275$\006p\274\266\3413=\034F\247<\037\250\356\275\267`b\274\013\263\357\273\215\315\377\275\300\250\227<S\"Q=\204p\271<Z\3762\274\263\201\315\274\202B\377\273R(\231<W\225R=\205\307\266\274\306\233\203<\310I>\274\"q\376;\027\236\027=\302Q\223<(\233_;nu\001=L\376%\273\242e]\275^\366L;l\236\031=f\376\374<\002\016\004\274\354{2<\347\333v\274>\004\372\273t\231\363\274\275\375\021=\245\201z\275/w\211\274{!\345;T\321\214\274\201\037{\274]\t\276<t\020\337<W]\276;\245W?<:4\317\274X\006\253=\\&\300\274\262\r\223\275\316\235U\274\324 \033=CT\376<\231\375\r\275*\235\321\273\366\0303=|K\244\274cd*<\334\304h<\340W\346;RO\206\274Q\337\376\274E\2720=0.G=\260\202\315<\031\215\211<qN\227;z2\200\274\375n\216<\374\337\367<\3338Q<\006Y\243<\216Lj\274\376\010\275<\235\242\302<\276\351\303<\364\2222\275\311:\"=`=\027\2752\235u\274\236\026*<^w\357<X\177\027=\224\325\240;\371\213\374:\214jv\274N*\315;\212\316\261;D](9y\177\000<\376-h\273\261\307\223\273\240Q\007<\315\326\233\2742E\243\275\277\026\220\275\356A\006=\263\t,\275yc\324<\346\000\030<\025\205\024\274\022;\305\274\003\263b=w\225i\274\323c\002\275?\243W<\251\205+<){[\275K\245h;\006\235\022\275\360=s=\255\016\t=\350\240v=\246U\024=\250L\345<eb\224<\255jA\273\372\362E\273cZ\225=|3;\275\261\347\036\274\001\027\275\274\317`\367<t\371\237<B\3238=L\314\304<\324\230S\273\206\006\034=\353\316!\275DA\027=e`\362<,\222,\275\206f\274\273\355%:\273G@#<\0174O\275V\367\237=\375\204\210=\035\325\343\274,\264Q\274\300\350\016\274\001\205Y\275\212\225\205<\220\201#\273~\313[=\332\326\004=A\036\310:,\005F=\2003\014=s\020I\275\213\336\343\274\235s\353<{U[\274|\354\275\275\263\0257=\020b\030<^\340P\275z&\205\274\331\032\255<\323\367a\275t\304\\\272F\004~;\241\346w\275\342@1<R\226\215<h(7\275\246\277!\275^\251\033\274\310\251\'\274\370\027\336\273\346\014J\274\021k\223=\000bU=1\365y\2739V\037\273S\333\007<\357\212\260<\n:\013=\027\030\206<\\\334\246;\360\020\242\274\211\341\334<\201\211\220=K\270W=E1\202=\206\254\225<\242\213\375\272s2\337\274\341\365\361<\301\232j=\230\252\323<md!<\362l\r<\303\342%\274\3679\250\274\347\217@\274<\352M<\231\023N\275-W\212\274\230\235\317<\272\225\027;dvV<\360\242\037=\223\337(=\352\241\222\274\306\375A\274\211\037\366:$\n\240=S\307\347\274RB\022\275\345\002\220<\231\242A<\n\\c=\237\353\231\274\370vd\274\tx\220=\345\252!\275\333X\027;\034^\'<\203\253b\274\rh\306;\200j\37477\205\311<\316\250j<\241\202\237<\375\n&<\265\337\353:\364f]\274\227\250\364\272\005\035\005=\333E7=\000\'\220\271T\"\027=\245\tN\273^\264\004<\340\371\002=3uH\275P\363\230=\365N\003\275\254\013l\274\363\010\2209*\353)=P=I=\362y>\274`O%=\334H\302;K\303\255<\345\252\027\273\177=\362\271)\304t<\261\022\014\274\350\002^=\374\t\263<\300\337\247\2739\001\334\274B\344\267\274)\025\210=\224Qt=\265\234x\274\221\227\270=\003\323\303\274\330\335o\274t\377\350<\244\222\373:\360q\032=dS~=\352O\212\273Z^\202\274\262\273\034<zc\305==\030\201<n\216\317\274\357\246S\272\220\313\032\2751]\255\274N\177\240\274\250\350\206<;\353\t\275\257\236m\275\264\340 <\301\214\210<\204P\217<5\363\332<\027rO\274\376}s<^\370\236<\210\005\000<;B\010=Y_\252\274IFD\275\3050\231<\264\010y;\276j\n=\276u#\274a\316~\273\370\262S9\301\031\020\274i\031w\273%\006\243\274\343m\250<]\231\305\272\247\177p\275\376\001\235\275e\270X=7E\237=\336\202\n\274JJw\274\330PY\274\335\265l=\371\014?<\245\r\326;\'\307\207<\326\332a=\2557\022=\253q\206<\362\216:=p\010\025\275\305\3337=\323c\216\275\016G8\273\335$F\274S\336\201<p,\217;_ \"\274\364\271T\274\020\022\207\274\251\023\217\274V#\037\274I\326\322\272\312<\371\273\253\340H<_\276\356:1\304;<\3628]\274HW\346\274\354\210\347<\322R\264<\256\217\003\274t\376\210<\236 \362\274\364\267\031\274\034\371\245<\213\"4\275<\211\037\2753b\273<\235\276\351<\031h1<\276\201\n\275\251\005\017\275r\302\245<\205T\272<\373\232\222<\252\260\366<Qv\264\272\360*\240\274R\233w=\246Py\274]#\036<)r\346<9l\253<,\025\030<\023\260\246<\264\343\243=\335B\223<\256\354\254\273T&\r=\333xh\274\341_h=\214\344\033\273 \363\327\274\032F\024;x\203&\274\271\255\270:ST\004\270\374\360\006=\347\370\251\274B\311\032=c\204\005<\302\034*<\032I`\274\326w\225<k\3611\275\201\225u\274\240\275$\274\206\321\030=\356\256\233<H\203D\275\362$\275\273\215\"e<\221\302\272\273\022\335\213:+\235\253;\345k\274\274(CD\275,\200}=I\265\270<\277\271w\274\177\210\237\274 \277\257;\361\020\351\274\247\007m;PB\030<\210\243h\275\336\227\033\275\322p\213<\305\234\211<\361\211\366\273l\272\221<\336\264\313\274zv!<n\325\340:\217K\016\275\204Px\274\366y\206\273TC\267<\261\215e\275U\001\271;\207n\002<\227&\231;w\344\r=\325/\024;\374\373\000\275-pL;\350C\000\275\347\017\262\273}\221\360<\357\014\030\273!f\242\274V3\232\275u\2033=\265\302{=\264Ir=6\205%=,\204\370<\246\300R\272\001\215@=Q\262\005\274\350\251E<\200\225\246<\031Tj=\024\3652=q\277\'=E\002\226=\320\032\232\274\202Q\303<\t\314\227\2746t\224<\236^\017\274\253rb<g\366r<#\262|<E\027\014;y\307\033\273\3105\026=\321k\211=\025\222\263\274\277\343%\273\372\"?=q\253\205\275\244\310\354<#_\031:\220+\207\275\263\263\214\274}\307\000\275\336\325\257<\031\333\034\274\r|!={\035\270\271_\274=<\257S8\275Qs\324\275;!\313<\255I\034<\356}y\275\212\021d<\204J\021=\0178\t\275\004\346\244\274!7\027\274z\031\\\275\004\361\222;\310\207/\275\304\360\264\275\375\303=;\316\232\323=B|\366:Z\016d\275\3722\213\274\364zp\274}\031>\274\231r\234<\023\306\000\275jS\013\274t\311F\275\003\351\235\274\370yl\275\204w\261<\330\017\346\274\335\304\027\275\247l\273<(&\224\274\331fJ<\231\251\210\273\316\236\374\274~0,=\364XA=\014\223><\207d7\275\032Z%=\245\365\377<m \177<\257\274\t\273l\234\241\275\277\331\306<\025\264\205=\312\216\255=\023\254\304\274Vzg\275FG\326:\331\356\303<zy]=%\321\354\274/\224\004\275\004\215\212=\244\305H<\314\265\270<W\241\\=@\247j=Wf\211\274\260oM<\250\202\347\273\245E\336<\201a\303\274K.}<jSy\274C\210\002\275\365\333\313<Z\336T<\314\310\324\274\375D\373\274\022H\224<\301\242\252<t\025\200=\204\3269=m\342\221=\005\010\206\275\230\214\t\274a\347V\273\216[e:\000!\370\274\221\n\'\275c\2114\275\034\367\341\272e\0175\275\"\327\335\274\365J\222=\330\337\241\275o-L\275\271W\201\275\241.\210\275q\301\273<\356\032\214</V\371\275\332\245(\275\204Z\233\274\305\350I=Q\275\371\272\374\322\002=\377\211\335\274y\005t<\000\263*\275\344\006\234\273\255\006\360\273\242\307\255<\t\001\010=1\241K\274P\014\206\274\344c\217\274\245R\352<\272\3129;xj\267<`4\n<\177\250\251\272\340\351\033:B!\214\274_\366\272<\277\217\002=\033{G\274\023\335\255\274J\"=\275\3376\224<He\271;h\315\305<\037\374\213\274\"\210\300<PqX\275f\371\025=\333G\307<G\216\234\274(?\210\2748\255N=uB\361<s\322\262\274>\236\356\274\315\272J=\235q+\273\221J\034\275\327\220*=\337\270\022\274\036@\221\274\317\t1\275\335]y<\035\323\004\275\206\353\001=\247\232\321;m\2160\274\245~\270\274*\370>\273\253\000\312<\377S\217\275\270\202\216<`\343\226<\022HU=(%=\274\210\207^\274\371\206\265;\332g^<\323\251\254<Fg\300\274\014T_=\032t\345\274u\201\224\273|a!<\235\3323=L\365R\274\370\032(<d\251\207;l\2021\274k\372n\2749K\201<3\276\210\275\337\374\352\274\033\2261<>\215\225<\262\\+=\206\206\233<\233\202\203\274\231\007\270<\363A\327;\351\272\021;\304A\256\274\234\241\r=\212\265\216<\217G\231\273\255\'\360\274cq\255:\356(]=Hi(=1m\211:\014\342\277;\036\000\262<\000\350\203\274rGt=\367\236\324<r\373K\275\342\034V=\316\221\216\274(Ke\275j?\002\275\267\270\307<\211\241==\303A\026<i\035\001\274\366*\301<\333\320\037<\277T\363\273\261\222\235;;*>\275\025\242\336;\262\307F<\24034\274Be$\274\301x\032=\233\r\243\273\3122\256<\3553\270\273.\277[\274>\352k=\242\352\365:\000x\230\275u1\037\274\374\2669=Kz>\274u\306\212\274#\315\006<\335\235V=\327\004\025\274T\272\r=z\253\030<E\353[\274\335(\214<\330|\014\275\0374\n=\347Rv<\003}\266<\251\244 <\261\334\230<\257\215\231\274Y\362\302<\206F\252<\207\205\000\275\013\371\261<\237\245T\275ZE\222:-\351\034<\364v1;\356|\325\274\236\241\201<\325\365G\275\250\351.:H\353\010\274\225\264)<\322/\037<\267\363y<\207\221\237<~\366\330\274*\205,<\243Z\035=\261\270\357\274\203\274\216<m\246\353;\204q\240\274WW\320\274`dZ<\233\350\t<ON5;\362l\230\273qO\200\273\324\237\357<w({9\375\032\315\272Z\034E;\233\237\341\267\267\355\352\273\016\240\303<]\233\265;\014]G;[\335}\272\361\262\275;\277\021?<\313%\206\274\332RC<\335\212Z=0C\014\275\240}\313\273\253{F\275\207\256\003<\001\226\242<\035\324\334\274\261\303\201<\343u\212<\237\340F==\330\215<\3726\'\274\2776p\274\252O\357\274\241\307\301;\327\314\203<\311\232\322<w\246\022\275{\237\'<\026\t\r;\362\304r\274 \212[<\202M\224;\212\231\026:\022\223\266;\210\327-\275\264\3367=\245\233\310\274N\370\277;\374\214\037=\203\343\350\273\027E\214\275\307.\340<\263\360O;e\010\356\274\260\316\211<;\350O\274\321E\326;\006\203_\274al\026\274\266\362\031<s\257\266;\316h\025\273v\236\000<\351\204\312\273\352\231E\275\n\036A;\376\020z\274\222\324\230\274\222\245\265\274\345U\371\274\237K\332;,\357\337<\372n\360\273\321\nF\274\027\312\017\272$6\261;\241\360\267\274\215F\335\274\256Q\236<q\242?9W\302\210\273\243\n\025<\361|\237\274\330\330\253<>\021E\274<\3545=\264\267)\272\314 \226<[\203\326\273Z\315\016\275\327\021<\274\305\033\027\275\235\273\017=t\342\225<\315t\225\274g\267\"\273\215\276\251;\226\317\272<\241\261\013<\323\262e\273\256\226\004=a\222\330<\3006\'\275cJ#=\253\264\261<k\216\227\274}7+\274\275\211\221<z\253\036<\307\326I;\257<[\275\3600\212<\020\314\252;\376\002\253\274\344\205`=\351l\267\274\006\314,\275g;6\274{}v\274\031\023\010\275\302\237\r=A\306\276<\001\226\275<\234\256\271\274Q\333\033\274\302\356p\273Kt\255\274\305\311\223\272\310\275\265<\306\224D=\024\034M=\034\2269\274\2012H<\266\202w<\007\216J\274\201\306R\274\316V1=_\244\264;\004Sn<\340\001\316\274\241\'\005=\004\365(\274\006\277\336\273R\316\210;\026\327f;\247pU\274\337\007\357<\253\204)\274\020\243\331\273\201\217\230\274MQ\207<b\331@\273.-\217\274\320\350\221<\320\233G=?\227\362<q\"\351\274;\212[:\330\377e=KHq\274f:\347<\204\276\2509E\005\367\274\241\320\005=Y:(\275\201\220\251<\250\223\200<\264n\316<\205\343\234\274m\372\220<\245;[=O\234x<\305\243\211\274 `7\2740\337\322<\215u\222=\301\016 <\327-\306\273[\342-:\374\016\010=V;\032\275\330`\343<\177\022m\274x?p\274\320\277T\274\252\004{\273\275\263\274\274\300\006\003=\2370\340<\303\263\2469\344\343\225=xO\236<@f\333<\371\321o<\023u\325\274\342\344*\275\'^{=IR\312<\036!\304\274\270\221\377\273\242\025\227=\201\222/\275\025\331\273\274\234H\n=s\342\257;8(\302\274\036e\001\275\210HK\274ib\006=\027\311\203\274\255.\026\275\013*\002=*\022\301\274\022t\345\274\261M\214=Oe\203\274v^\336;\363eD=\340\255\363:\361~~=p\016\215;n\016O;\030\244\267<)6\260\274\356\213\243:\262\020\020=4mr\275\214c\005\275D\334\276\274\314;\'=\234\243\004\275\2010\017\274\343hJ\275\305J\353\274T\006\344;\213\317~<^3\274;\343K\037\275\375\315\250<\023\314W\275\303\014\246=i%f\274\273\254\275=\213\246}=l_\227=\317\000\020\275v\322\225<\023\374\357<v2\225\275\3608\005\275\007\267\210\274-O}\274\376\247\255<\324j~\275\220\361\001\275\277@v=\301\233\231:\354\227\036\275\254K\246=C\246\326\273}RO\274\316<\304=\022\310V\274\304\243i\275\262\267\177=\260?\267=X\256\301=t\375]<\267\003\302\275\366\267\023\275P\371\230;8\021\264=\374]r=D\210t=\360\267\016\276?Z\220<I\255\376=\367\2229\275Z\301\267=bu\033\275P$\253\275\255I|=\312\251+=\250\226%\2759\n\373=z\375X9\224N\367=\331\365\212=\323\247g<\230\332\260=\271\362O\275\211\022\230\275{\311\216\275a\230\"\275P6d\276\0363\315\274\276\340|\275\314\232\252\275\252\263\216=\217\270\225\275\212\343\020\2750l\340\275\222P\010\275\367E\n\275\265EV=\247\247\226=E\r\364\275s\034c\275\270\3759\275S\324\013=\025\n\265=\363\344\227=p\225\335=\240\353Z\275\370\327\007=\273\350\374\274WZ1=\233+\207=\351\3043=\267\311\327<\325\026\002\273\343\357\000\275\360L\223\273\336\025\236=\265\261\217=\322K\302\274\372\314\377=\351$\206\274\n\301\366\274\241\207^=\323\2070\275\360+\316\274E4\267=\237m\365\274\313\330z\275\362\267\324\274\232@\353=\n\027m=\304\014?\2754\336\'\275Xk\257;\334>\035<\352\311p\274$;\345<!\030\367\274\315v\277\2740E\202;\247\365`\274>3\260\273\236j\221=\233\025\234\275\231)\364<\360r\034<j\037\344<\026\'\024=X\260 =3\310\304\275=\201c<2\374\233<\320\2463\275\237U\230\272\t\226M=7N\301:+\321y=F\266\r=\207\350\314\274\257\223\364<\270n\356\273N\0313\275\341\234\320\275\334\330>=\3428r;~i\261<\341\325\036\274\371\312(\275\2141\373<\344e\374\274\222\026*\275\246\r\n=\340\031\027\274[z\221=h\221\265<\257n\366;oH9=\375\365\365\273\232\365}\275\255\236\204\274\312\247z\274\274S\222;\322\364d\275\253\311\223;\226\235\322<\326EY\275\002\'`\274\314\306\334;[~\017\275\033\274\020\274\343\311\204<\372\007\'\274\204S\013=\326\225G<\304\354_=f\347\003=\250j\021\275q\020\033\274\027\027W;p@\211\272}H\002=\037wZ=\266\311Y\274/\273\224<\032\0358<w>x\267\354\307\014=\266\343\017;\250>\033=\376\003z\274\230\031\366<z{G\274\200\235&\274\2207W:n\365\347:4>.=\247\274\014\272P\235\270<U]\333\273\246\000\266\273\353d\t\275\301\367\031\275(\t\310<;y4=\035[\177\272@\034\026\275{\355\222\274v\250\234=\267G\311<T\264\271<\270\267\323\274L\256I\275S\322\250<\367\264]<\322V\201\274\271\354\215=\304N\315<\360\347\321<\007[d;\"\316\273\274~4\374\274^\352\270=\205\254Z=\243\200)\275Xh\026\275B\325\344;:\226\251:\n\341\232=\272Y\236\275\334\353\031\275\211D\034=\306h2\274I(\217<\377\250\020\2712\243\246<U\033\343\274\254\243U=C$\226\274L\207\207\274\343\207*\275\371\245V=\242*\206=\022\t\276;\337eC\275\360?\361;\240\003\177<\216\003\032=\235\222\360<\342\271\333\273;\317N<\362\302\027=\254\203\022\2741\214\031\274/M\367;\327O=\275\315\214\232\275\202>\n<\360\370\005\275\310D\274<\366Z\250\274\320\275\360;\253#\201\275\331!y<\020\362a<\t\323\r=\347\032\207\274\264\367\226<+X\t\275\rM0\275:\201\313<g\203\332<\016\310\255=\206}\250\275/V\234=\006v\203=<C\255\274\t7S<\304:]:\031A\263=\021\\\247=r\310\310<\336\355R\274\276\370,\2756. \275\311\331\021=\374\355\201\273\250\345\217=KXT<3K\301\274\\\314\033\275\031\024x=\251\t\337\274\262\244\323\273z\322\214=\256\001\256:\233\377\277\274-hG\275,5~=Us;\275\255\336\016=*C\212<\n\320\347\274\\\314\240=\243\260\001<\302\275\254;\317\276^\275\335\363\010=\264\\\007=4iT=\245\315\023=\2670\204\275]\332\244<J0\337<\263\365\357\275l_\000\275S\247F=\002\004V\275\314t\035=\355)\252<P\2513<{\300%<6\362\205\275\007CG\274\360hM=\241\367\257=}\307\377\274\032P\224\275\245\016\033=+\340B\275$\'\017\274\014e\261\273\255_\002=\214\336\205<\017\355\313<\202E\234\274\274\357\200=\037\263L=\304j\325<\257i\231\273\365g\n\273\004\343\245<\3131\255;\307^\035=\231\263\266\274L\247\010\275\021\305&=\177\256\367\273\337\265)\275\231yq\275V\013\315;S\376P==I\253\274J\324]\275\2726\220<\037\235\374\272\201\335\253<\021q4<h\331\004\274)\271\023<+\3166=g\032\274\274x\333\314\274A\276\254<\221;\302<\355\374\035<\262\270\361<S=\213\274\222\025\257<Z\022\301<\372!\276\274\272\345r\274T\224\035=\355\234\246;H\230b:\016\234\024:\0339\207<\320;\346<\\\342e<nY.<\177JD<\331\207\213\274y\022s\275>VF\274\034@E;\017\030\255\274\r\241\020=\231\226\005=\\\n\033\275\335\224\007\272\020V\371\274g\344w\275\376\352Y=\033\263s\2758]S8{.2<\317\222r\273\357\367\253<\331&\350\274\206\nW\275\036\277\276<H\374\270<yW\373<N\004\033=\357\n\026\275\001\267\374;M#\233\273;\032\317;\336\034~9\362K4\275\366(W<\336C^=\365P\273<\337-U\274S\007\230<5\3621\273Q\010\255\274I\240\200<mn\304\273\342\242\271<y,\000\273D\200\314<\273\213\205\274\347_\246<(.\240<V\226=\275nx\331<\357:\200\272\317&\372\273M\375P\273\251\276[\274\210\021N<\365D\207<\353\307~<\260\242\237\274\022\210\316<\262\323\016\275j\231\346;\304!\241\274\205\210-\273EJ\242\274wSs<\335\215\315<\177\224\335\273\2779p\274zo\377<\234/\274\273<u\305\274\330>\301<\335\036\237\273\206J\214\2742\240\256\274#h\027\273-\227@\275%\2408=\247\242\255<\267\230l<TT\302\272\244=\220\274\246\321\224:\006\262N\275\320\3675<\262\330\354;-\2376=`\206L;\254\315\274<T\237\365\272gRU\273\246\177\267<\277k\346\273\333u3=\220\346\246\274\244\033\307:kA\206\274\360\236\021=\235\t\n\274(\035\'\274\351\3649\274\005\330O\274i\037\361\273Z<\345;\351\301A\275\365\222\322\274\243_*;\351H,\273\310X\221;(6P\274=9k\274F\270L=\3205\251<\'z\010<\007\346\276\274\363\366\272;+r\337\274\240$\357;\341D$\2749oD\274\324^\321\273\326j\230:\310h\263<o\"\203\274\207\203T<\270\001\002\274\342\236\210\273\023\374\203\271\340\000\r\275\272,\004=\352gA<\342!\332\273o>k\274\357P\255\274m\215\036<\347\331\251<\032\247\210<f\316O\273d}\320<\366\211U\275\353\204y<\321\214\232\273\330L\030\274\254\301\313\273\3423A<@V\272<\256*P\274?\235\263\274}\373Q<\245\203t\2742\316\240\274\201\321X=\305>\362;\304[=\275\t\333\210\274\362Z\251\272\'\2335\275\247\345+=\311\357\303<W<\3559\366\\\311\274\260\014\"\274Q|b;\313\341\004\275\261\204q<\351\324\346<\236\3349=(8L<\300}*;6\340\321;_\316\3229\305\242\213<\352\216\300\273\324\304\036=\3477\273\274R\315\270\272g\302\324\274\326\351\341<\344\330\013\274?$\343\272\245?\307\273\202\001\214\274\327\242\2328\346\177o<L$\024\275x\t\265\274\331^\204\274<\226\371;\004\303\037\2746\344>;\322E\373\271_\260\025=+\211\007=\210\2658\274\232\345\252\274\343\223\035=\345k\016\274c?I<\234O\236;\366+7\274 \235\203<s\234\267\274\211\354\253<\001=\246\274qF\375<|^\225\274\340[\n<\355=\273<\n^\360\274\332<\242<\373\022\266\272Rp\236;\"\340\220<S\255/<\366Dw<\375\220\004<\201\0235<iu\330\273\343\032\274<\202}\271\274t*\020\274\330?\014\274\333\214 \272sK\037\274\3628\235;1a\337<\242\3458<_u\220\272\262n\264<\270\327E\273\351\246\020:8\200:<\225s$<\267\324\235;\322\n\':\321\357\267\274bQ\004\275%\020\220=\351v\325;\201<\251<%\340\253<-\307\356\272x\035C\274\307\006\032\274iY\360:r\307c=\347,\257<\211\320&\274\315Q\322;\320~\232\274f\207\221\273;D\230<\351\266\030\275\243\234\357;\333e\306<\314\345\256;\234|\024\274\226\3748<C\331\367\273[&\177\274\016LQ;9\316%\274j\000\377<\365N\225\274I\366^\274~\367\024\274\250A\373\274\030\227>\273\205\371*\274\301\317\222\274\267i\222<\323\200(=\344\327\\<\247\030l\274AX\232\274|M[\275cV(\275{C\215\274\204\025\257;\375<\202=BMX<\234/\347\273N\017j\275\021J\313\274fF\311<\323\030\031<$\325\210\275q\2469=\270\272\223<T\263\246\274\250\016n:\315/\365\274\273_A< \210\321\274\216\364^\274\301-8=\302\210\206\274|\202L\275\356[2\274L\356R=\366w\374<\356\343i=\370\263.<\334\035\030=\003\032\034==\202\325;\360G\245=\240&\273\274\024W\336<7Xm=,\207J\274\023D&=\265\030\024<\372\340N<\024A\272\274Zd+=P$\036=\341\3143\275\310\377\274\274P\013\201<\005\256\251<@\031\226<\272\300\275=a\346?\273\204\017\217\274 ?K\275m\233\236\275N\300a\275U0\276:\024\036j=\033\235\221\275\217\311\242\275\003(\242\275\0215\227<\304[6=\035r\2329\3751\224\275cB\331<&\242N=\211\220U=\r\352\n;\272*\331<\2007~\274\2702\266<\234\2543\274vz\302;V(!\275\360#\212\273\205\005\355<\314\257#=\264\333\223\275\365h\371;\347\200\227<%\325\261\275\367\300V\274\326\2402=\313\202\357\274\312\217l=\305k\353\273}\313\022=\376A\006=\361\203&; \261\000\274\376`\224\274}\225^\273\177\231`=\303\363R\275\226q\335\273\256\007Y\274\013I\252<\036B\253<\203\005\204=l\251];\2556\330\274o\216\304<y\3463\274\315E!\275\020\307!\275`\021S\274]\276\360;\"\302\033=\013\005_=\027\265\234\273K\016\017=@\034\243\274X\032\036\274\251\016\311;}\200^=G\220\205=\252\377\034=\017\371p\275\314\212\263</$/\275\355l\217=\347\367\273\274\030\3160\275\007\030?=\204\247\274<T\305\312\274\001\277\223<\2341\271<\300\343r\274\003\352<\275\320C\\<\370\031#\275\0359.\274*\001&\275\271\311>;\315\305\354\274\252\371\207=u{\241=\373Oq\272\313\214\220<\265<$\275\215Ir\275\215\200b=2\r\251\274\241\356\356;\352\257\366<j|\217\274\352\314\356<\003\330s\275\263\211H\275&~\020=\026O==\236\026]=\312\013\265=\262se\275?\243\204\274LlA:^\367\341:rC\000\275ZL@\275Se\256\274\221\225\202=[\235:=\255v#\274\247T#<\211\005m\274L\355><\226\352\3678e(\214\275\2318l\274\316+\370;\202\310.\272~)\r=\240\210\272:\253\275\330\272f\356\376<d\266#\272\004\035\003=&\031\247\272@\"j<WA\032\275+VD=\323\342)\275S\211\233\274&\236\301\274\302\321]<X\341\031\2754y\027\274\220\017\002=\024n\307<\337\237\307<*\330\341<\340\351\324\2740\014\232\274{-8=\355\025\t=\241\034\005=\302\026/\275W\200\341\273\227\373\334\273\344\245E=2\010.\275\3578\006\275\033\302\353\273\243\3760<\217\032\362;}\355\000\275)d\207=|\213\010\274]\332\244:h\275n\274\3479\240\274\013\270\035=^\317\332\274Z,\364\274\303\005\r\272`$\216=\357\246s<\266B$=zQ\001\275\260\276\275;\375<\231\274\257\217\353<\324\300\251<a4\002=c\005\243<\022t \274\032\336@=I\205=;\224\007x<\326_\254\274\253\005o\271\311\336.=\335\031\342<\257!\244<\240Q\207<ME\033=\263\371\220;Qg\002\275\260K\027\275E\314\306<\373Ma\273\205\313 =+\272\272\273\251}\373;\\qN<\026w{\274W\271\231:\321\223\020\275\354\t\035=\324B\334\2746\330\350<\232-\203\272\227\355+<IQ\367<A\006\033\274\205\262\025<?\2465<^,I<\202\010\020=Jt\355\271\276\227%;l\035\007=\262\355L=\222K\363\274\355\'\325<\323C\177\274\365K\210\274\216\356\306;\257\230\274\273u\236\346:J\343Z<\274\372\031=t\265\320<=\302\031=xwY<P\023Y:\346Y\313\272)\362c<\304% <^\360\232<D-+<\301]-\275\327\317\204\274\035L\235=\371Do<\311\324M<\334\227\222\274\373J\245\273\002A:<\354\271\256\274\374\007\231\270\303f\247=m.]=\273\264\362\273>\374a<\016\032\001\274\262\352\265\274\271QF=\274Fg\275*n\034<\217zX=\265\261D\274\031\245#<n\2301<\333\356\374\273(]y\273\371\256\210\274!\242\261\273\253\232\\=\370\235\014\275\325D\350\274\002I\033\274\373\213\016\275\202\333\3729q\327\213\274AJ\333\274\325\240\020<A\321\370<0e\027=\325\341\303\273\346\376\376\274S\344\237<\325l\232;\362\332\3459\276[\014=\301\024\r=\320\316\224\272~\362\177;\237no\274\241\244\213<\215\r\006\274\366\313\353<\341Op\274\022 v\274\214\272\307\274sq\275<|\323\364\274\337\311K\275A\032\210\274\374\313\320;\313\347#=a\370$\275\3253\024\274N8\375;\273\301\325\274\0054\331<\357Z\211\274I\323+\273\227\025\240\274\335mW<zW\030<\216],=\364\304\244<\353o0\274x\243\277\274\377\"\204<608\274\206v\231<\361R\006\272,\306\200\275P\\\343\273\002\025\337<\216\224\216<>\036\036\275\033k\366\274t\366=<\256\317\365<\333\371+\275\023\025;=\232>\213\271\336\223\022\275\355V\266;m\347\333\274\307Z\007\275\244\327\224<\271\223\267<[\0308\275\345Q\215\273\2111[\275\030\3528=\014.m\274\221[\020\273\207\372i\272RH\220\273S\206\310\274\211\316\240\274|\226\006<[z8\275&>\266<\014L\035\275\203\321\020=\202\371x:x\303\212\274\313\232G;\035\360\273\274\344_N\273\353\367E<\217e^<\330\362\020\273<\244#<F\257\322\273\006\260\204\275!\030\251\275\305\341\006=\r\247\233=\235Y\241=\231O\r=\364M\356\274\361\245G\274\322\261\207=\337\353z\275\221\350N<j\226\253\275Q;o\275\2354c<\313\260\210\274\213b\261\275R\034\264\275\223c\242\274\250\332\024\275\253b\226\274\3662\006\275\235\301\216\274\274\027\340<\214\207\336\275\376\r\023>[&\317\275\360\247\222=\264\306\014\2759B\274=\223\021\212=\362\021\230=\277\340\245<|:)\274\215\257\376\275\265\324H=\230\017\t<\322\214>\275\300\025\346<w\262\251\275\326\257\241\275\2419\t=\321R\200=43q\275q\367\271\275tW\243\275o\252\025>\2172\203\275\232\300->\3358V\275\254\223\247\274<D\224=S\272\257\275\327\035\256\275GCM=\305\360$=\351\364\020\276\303\301\225\274\227\370\243\2748\335\231=\032\237+\275\2267\016\2740\312\341;:\262\322\274\327y\310\274:\255^\275\265\247-<Z\265\313\275{\033\267=\277\344\340\2753\245\246=\344\335\016;OZ\036\275jW\325\274\270\263\255\274=p\217:\325\266\013\275NBy\274\001\237\014\275\270\206\022<\203\360\360\2742\366\004<P\001\017\275\023\025\310\274\227\310\r\274\024\345\247\273\251\033\212<\224g\206\274g\236\334<\262\034\271\274\033?\371\272]\314u\274)\324\302;\357\304\032\275D\240~=\0055\262<6=2\275\370X}\275\325M\027\275\352u\217<\214\027\213\273\222\036\013\275y\363\273\272\326/\231\275C0\273\274\366[V\274:\257\274\273S\241\257\272\016C\200;\025\360\376<\0025\267;\001\317=\275&\024\345;S\006F=\212:\240\273\022d\037=b\017\340<\222\362\037=Xa\203\272+\235\220\275\376-\204\274^\313?=\335tI\275\203\340\231=\004\257\371\274\244\016\344\275\036\373\007>\335\274W\2750\250A=CF\021\276K\221\005\275\305dv=\202\215\213\275a\203\201\274Uz\220=\240\201\006>\253\346h\275\200C\263=\307J\002>y\371\017=\376\323\221\274PE\220\272\352\021\036<Bju\274\345IO=\204\356\022=\274\"U\275\236\254\276\275\267\035f=\177\016U\275QW\302\274\372\311\025=\301\017\303\274\"\254\206\275\213U\241;x3\n\274\3647\212\275\247\230\010=\324)o\275\375\203\207=\340\350;\275\272^\247<1\025\211<\314\024\366\273f\010\272;>\374\373\271\227\211\030<C\255\022\274\270\2577<_\037];\037r\324<=L\021\274\312\023\323\273P\022?\274\036\304\361\273\221M\023=\0074\361;(}\237\274\252\250\362<\357\364\205<\360\352\254<\265\217\002\274\314\t\217\272\030r\332\272\027\206\204<?\264\237\273o\230\241<\313-\020\273\376\355\"\274P0\307\274v^\023\274\244\351\001\274o(\200<\327\024\302\274Q\323\363<\003g\234\271\t\241g\274g:\n=C\tT<\017#\021\274\t\017J\274\333m\004\275_\032\001\275R\r\031=\237\352\245<\010\312\241<\221\262r<\213\347\017\274\222Ad\271\273D}\274;O\262\274\234*z=2\\\217<w\312o<\342\302\n\273\006\303\326<\320Z\003;\265\346\'<k\001\036\275\220Q\313\273\003\271\003=Bx\301:8D\235\274x\224\020=?R\363<\234M\237\274\362\203\316<\017\376\020\274\263.#<\2160\'\274~\354B\272$\313\204<\242k\341\274\344\272\017\273Qp\r\274\373i\342\273\266K\252<@\020\324<\326^^<\242\232>\274\346\313\025:f\251\306\272\224\017/<\346\363\315\274h\313\006=l\025=\274\275\3379\274\342\202;\275\313\373\225<(\"\264\273\023\326\304<\'Y\034\273ruI\274Z\005\225\274\025\222\236;\222\356k;Uz9<\200\205F<\346\3533=}J\263<\357\354\202\272gl\210\274!\007s\274\310\231\305\273\347h\030=\230R\266\273+)\236:\277vo<\000OB<\235J\331\274\313\361\321\274II\253\274\214\253\257<\372Qh<\222\226u<;\346t\273\246{\247\273\372Z\t=\000\r-\274I\221\256<\266D\027\273\311\002\344\274\177\244\255\274\351\215%=\313B\360;\354\344\203<H$\373<\301\000\346;38\255\274\227\266\017\275\354\224\256\274H~\260=~\241n<\021\233\022<\3236\310\274\036\364\225<\311\224%\274\025\365U=M?\356\274nz\275\274{=\001=Q\013\004\273\271\3706\274H\210 <Vx\267<l\222\277\274S\233\204:\243\024\327\274~\300\207<\200\313\003\275\t\2653\273\376?\311<0\271\232\274\344\270=\274o\237\017\274\3256`\274M\003\302<\363\255\352<\006\3072\274`\3119\274,8Q\274_W\216\275\230\2374\273\300Oj;\222\214\027\274A)5\275\002h\226\275\304+\277\274\023\310\320\2731W3=\342\347\\=\266>\242<\272\3307\275N\231\271\275\n\260\231<[i\002;;P%=\n\347\014\275eR\236\273\275 \002=\206md=\2573\031<\325\272U\275\236\372\246=\026Z\2629s\3728=!p\002\275\023Q\032\275\203R\031=\025t)<\2265\256=P\210N<X\246\200=%\324\376=k\316j\273\332\252\377\273IK\245\274a\233R<\222\2161\275\230\260\005=\357\026J\275\221\364\026\275\256\007\377\273\211\177C=\257f\270<Dx\260\274\226\362\230=a\367<=C\327\316;\342\010\017\275Hl\351\274[\352\264=\367\205\367=\235\276q;9\363\243<n\267\t\275\350)X\275\257\"\004=P\225\202=\376\211_=\2413\003\275\007\206!\275\344\233\322<\253}\317;\224\231%\275>\240\025=\3764*<*\205\236\275[5\300\274e\313\277\275\370\031D<\312\273\003\273U@\241\275\031N\325\275\310M\220=\240\330B\275\232\203v\274$em=\002\304:\274\032\267\303=\2757W;9\222C=\311\370\037\275X\272\034\275\230vS<\036\344)\273\234\247A;5J\200<\325/U=\354\346}\273\360\211\270;\356\237A=\r\017\233\275\016A\322\274\363_\003\275\223\3524=/q\250<J\237\324<\375\256\251\274\241\230\013\274s\243\246\274\316\025U<\344\023+\274\275\0070<\204\217\006=\273\324B\274\2410\233=\325\356+\274\371\335\245<9x\343;9O\r<;\372\215\274\246\016\243;R\243\200:\n-><r\204[;\313\301[\275\034\2219=\364X@\275\307\321\026\275\213\202\231\273\367\217\022\275\034\244\037\274\211i\030=\205\370\033=>r7=s]=\275PK\243;\337\342\323\271\324\014\203<\006\271\006\275[\345\r;\277\177\205=\243^\271<qfg\275qB\321<\331\310\270<qD\203<\256^\003\273\'\375\355<|\256[;\3408\346<G\022n\274\320@\t=\033\2564\273\006j\237<\203\250\353<*\260\205;\316\274\245\274%gv<\t8\241;\346!\030\275\246\366\243<\354\275\211<@\351\332\273,\231\251<\206TQ<\037\022L<\272\n\027\273\357\025D\275_!\020=\243\203\201=.{\243\274<#\262< (\320\274\370\211$<v\201:=)R\216<\256!\177:\2210\234\274I\242\226<\314\017\231<Mw\270<\331\273\267<\250\033\255\272\302O\367<\205\320\200\274\003\232o\274\2705z<;)\250<L\000\232<Z\223\037;X~\350<j\237e\273&\362m\273\251\177u<\303\241\n\275\316\341\"\275\256\307\200\274\377\374#\273\321\263\'<q\335H\274\315\203\364<I\346M<lj\202<\202_\005\274\016\317\377:Q!\300\272\203Fc\274\247\202P\272\004\215\021<<\3559\275K\030\340\274sC^=B\001\222=2\340\326<\276\342;\273\3532\304;\360\246\353\274\035\202D<tqi\274\000)#<J\243o<\002[\245=\262_\006\273\177\264\202\274\343^4=lY\360<&\324\222\274i\205Z\274\256Y7<\\:;\273\223\304S\274\234\240N<\233w\361;\036\216)\275\020\262C\274\035*:<\326\323\253<\273\324P<W\377(\273\237\343s;;\350c;3K\215<\316\035\013\274\007>Q\274#\002N<)\251\275<\3100\241<\316\377s<_\340E\274[1\370\274\216\333p\274\0361o<\254\321{=\272\245*\275\"\3509\275\033\251\'\274K\253\\\2740\226:\274X\264\314<\223\212\362<\302\272\204\275\265D\306=\334\366\220\274\025P\\\275\251\000\303\274\3142\276=\333\032\337\274\312\224q\275\224\226]=\276\331\307:\235PF\275\346\241\254\275K\244c\275\360A\250=\010S\014=Mj\022= pE=7\341\215;\220\207e=\321\037\014<\022W\025\274\352g\371\273\245\211k=[L\312</!\244:\362\327\244<\357e\215<\324\342t=\340w\330=\010uI=\252V\020=\253\346\312\275\325\245\326<\224Kk;\025\275k\275\000\001\010\275\017_\021<u\206\010>\313\263?;#N\241<\'\327\374\273\033\273&\273\364\202o\275RX\037\275O\266\343\274\016G9\275\251D\344<^\003\252<\271\365!\275\375z\232\275,K\354=(m\254<AIx\275`\326\216\272\256\177%=73\006\275\270\335w\275eu\227=8\367+<_J\302=\027\004\021\275\005\n\353\273q\200\032\274\2742\t\2755\223\251={\357v=\266\337\024=\262&\235<|F\024\275d\302\361<\"PG\275\232\3710\275\217`\t<\245\210\017\274\013\242r\274]!\306<\313\357\031=+\036K\274\221\372u;\006QS=N\365\245\275\247\3465\274\247\007\303\274\004\371\304<\266p\003=4\024\t=\0378g\274\203\006\335;P\033\272\274\306\370\210<>\334\225\274\007+\346<\333\236\334<\217w\006\274\021\325\240=\216_\346\274 \nv<\377{0<\2523\032;\254\354:\274[{\0259\312\220%:t}\310<\000&\265;\027\301\"\275\311\332%=\375G=\2756\341\037\275f\002P<\252{\330\274i&\254\273Y\000.=\016\022\371<\245\313\334<\236\267C\275\203\273\237\273wr\373\273\375\250\022=\344\311\363\274\027W\245;K\312\200=\305,\306\273i\231\230\275OV\026=\354\201\343<n\341~<_\367\306;\327\301\014=\372\274\\\273\246\321$=z\363\271\274\304\006\352<\345\265n\274\030+\007=d-\014=\t/\310;\341\235\254\274p\302D<\237\306\367;K\262\377\274\336\242\232;1\030\310<\253\255\036\273\nh\266<\rK\2139\374I\213<d\270\275;c\2004\275\260\231%=\'\021\250\275G+\002\275\371\243\017<\025]\030<\010\360\314\274\226&L\275\257OP=\265\351l=p\245z<\351g\304:\347\\3\274d\t(<\327g\331=8\037\265\273P\250\010\275\306\332\253\273w\376\305=\332\313t=\267\021\320\274\265\363\264<\tV<<q\335\333\274\230\013\006\274>\343\243\275\210Y\260<\334\271\242\274`K\233=\317\336\246:\253\325\016=)\331Q\274q\341\366<\000w\277<AJN=,r\214<\324\275\253<O\231\337\274u\302\344\274\344\277\035\272g7\001=:\217\200=0\334{=\300W\331;\244?0\275XK\251=\221Kc=\251\235V\274G\333\031\275GA\246<\025n\244=\\h\"\275\234\310\352;X\336\024=\356<\204\274\213ui\275\352\357\211\274\3205\204\275\271\212\035\276\274Z\013<BI\306;r\001\036<w\271e\275\037\3247>\306\"\213:E\343\351\275\2119\037=\035\314\177:\201\375\363\274\"\323\035<-\262\213=U\266\001\274\n\205\230=\032\272\226;\363\241\222<;\360\262</\016\340\274\265<\266=\215t$=\233\215|=)\023d<\205\215\201\275\254.\375\273\032\031\263\2756\250\207\275\347\251?\274\352\224\'\275\252\370\021=\024\210\252\274\353m\264\271\256\253z;N&\210=\031\006\340\273\247\034\234=i\202\366\274Z.\017<\023\2369\275\204\311\274\273\361\363\320=}iw\275c]\270:\376\372\352\273>\262\000\275\245\026\337;\273p\030=\271\326\200\275\305\354\270\273\215\221\326\274\225Rm=\032j\322\274\227\177\023<\263`\020\275cu\354<_\0272=kq\330\275\324|\345= s\025\273\376\005\030\274#m\222\275\240\247B=(\007\t>\220/\247\273\316\270w\275(\246\007=\203\371\233;\033]\215<\267\241L\275\350\244\317\274\274K\307\273\324p\017>h\263O\274\353\237\366=\263\365\226<5\331\323=\003\274h<\3177p\273FG\304=WB\340<T\253\020\275P\302\217\275\377\271\002<\255\266\272<\024pf\274Q\325a=0\320S<\035\277\'\275\005R\203=\311\023\002>\317}[=\020\310,\275\227\314|=\2432\027<\035x\260\275\302W\300=4\".\275\034!\263=\226\315<\274-\226/=\374\013:=\027}s\274\343z/\273\211\331\245\274\003\277\024\275\330\357q\275\351z\177=\000\016\276;\241\243)<\315\222I<\252\024_<q\017\035=Sp\220=\336\334F\274\t\323\336\273G\212\"<\030\266\310;\366\034$=\255\243w<\314\267\370;I\205\3358\005\266]\2725\tE<\002\342\023:\236\022P\275\221\371[=\246\273\026\275\246U\220\273f,\327\271\340\005\240\275\330\307U<\007Q\333\274\240G\272;\304\376\004=\271O\033=N\226\203\274\326\220\013\275\204x\025=\351+\327\274\356k)=\363\341\312\274\276t\326<\375K\002=\263\215B\271\234\251\200\2757A\371\274\221\037&=c\256*=\030E0\275\r\006\026=[w\257\274\251/*\275\212\325\320;59\322<v\367\366;\217\361y\275|n7<cA\322<\025^\335\274\370(\341<\252\240\312=\346im\275\246Ou<\350\326\037\273\352\177A<\306N\033<tvM=\235\200\232<N}\377\274\2224,\273\266\021q\274(\000\334<r0w<\376W\023\275\341\r\216\274L\242m\275\360_g<\224\333\000<\024\322\300;=\253Z\274\370\356\351\274\350\325\344\274[\325\025=\211.\206\274\211\341\275<\006\001\035\275\242\372,\275&\214\025\274\246\023\000;C\221\210\274\255\336s;\216\246\020=kU\275;\256P\030<\213_\221<\311\005N\275\016\010\000\274\267\362\240<\344\242;\271}f\216<\202D\271<\374U\305\274^$\332;\253\254\214\272\326PA;O\314-\274;y\236<l\013\013=l\252\211\274\351\000S=0\346\206\274\301\230\\<\344\216\t<]\211\262<\233\330\223\274\252\376\265:\301\021>\274vsv:\342\377+<\255\242I\275b\222]<\371\022\301\274g\245\311\274\360g\032=\342E\206\274g\372\036\273\236\r\270<\272\321\376<\t\"\313;\325i\006\275\267\211&<j\326\375;2\371\312<\244\250d\274\234\t\254\274\020\236g=\325]\361\274<\001]\275\365W\t<B\350\247<p\274{<)g\265\274\362 \017=\317\205\236\274\232\370\321<\234a\312\274\366\335u\273\274\322\034;\245\257\223=\242v\231\271H\351\020<\230\0364:\301\326%<\215\334\013\274Q\232L\275\023\301\257<\315\314\344<\253\277!=\317(\013=s\2414< 1\354\274Q\330\3649\317\321\352\271\356\234\010=\231I\370;$\213\035=4\304\257\273c\032\253<\315\037\013;|\n\333<\376\255\321<\253!O<\'\220\366\274\020\024\'=\343\323\354;\372G\256<\342\376<=B\346\020\275\273$V\274\273\007\001\274\205\375\201\274s\367\363\273 \360\357\273\271\0200=\325\250\013<\374\333\214\274\344\315k;#o\331\2747\255$=\371-\250\274\313d\016\275c\336\210<\226\364\024\274l\310a;\322A\376\274\020\214N=\366\356I=\027&\366<\023\316\037\275\350\354\236<\311\"\253=-BN<\257\n\336\274\340\207\320<Z\325\324=\307\234\021\275\007\202\333\273\214l^<\327\325@=\307\027\027:\017\203\257<\336\255~;f y\275\035\017\245\274w\213\201\274\210\310\031\274\021\026\201\274\004p\341\274I$\325\274<6\366<\244O\352;[\256\351<\345\033\315<\254\300\327\274\316\236A\275n\214\236;\225\024\231<\227\213\020\273\236\366o<\332<\213\274\223}3\274\312\340G\274\367f\307\273\327\355\312\274\362+\231;\210l_<\346\020\204<d\312\014\273\237sm\274\365\236\255\271l\206%=\032\231\263<\366\3568=5\330.=\212D\016\275){s\275\031\027\375\274\0042i=\275\263z\275\324\263\225\273\311\ng\275B\213\237=N!2=p\305\014=\270\034\236\274\223#\331\274\340\372=\275E\0048=R\267\311\275\220\311\003;\005e\335<\2132\356<y\343o\274\241\233`;?I\370</\202\005\274\361\344\202=$y\223=\346\033C\275.\2622=\343\0038\273\331\013h=<*4<\313`\001=f\234W\275\221\264\220\274r\206\317\275\334\\\031\272\'?\247\274?\357H=\225\347\363:L\272z\273\367\271x=o\021\245;\3113\361\273Zj\030\275\233\2576<L\024\035\275\270\317\202\274\021\233F\275\031\202\232<<\265\316<\366z\027<\354_\313=8\240Q\275\374M\003\275[\365\036\275;\325%\275\336h\013\275\344\320\225\274\352\345R<!p\227\275[\252\010=\253\301\272<Qr\214\273\332\266\205\274\232\324F;]\303\'\274\300\247\277=\256\004\361</?\035=\314Z\267=UW\357:x\217\036=2Ym\275\010~\221\274\220\310\036<5&\233<No =\3558L=<Q\314\273\213\3554\275[q.\275\261\242\021\2741\273\\=N\232X=\260Hh<\351;z<v\301\323\273\254/\020<\311-\035=)}\342\273wi\355\273H\3452\275\252\200\377:1<\034;2\332O=@6\260\272\350.\344<\027\\\3709\372K\345\274v\306\356<\002J\234<\302\2538=\321\201r<7\177\033=\356y\232\273\323\325P<r\232\217\274\333N\221<\307\201\340\274\346M\006\274\245\362\020\275Y\257\206<\004&\274\274\350a2=s\206\\\274\247\362\274<X7\257\274\377\251\353\274,\263w=\026\335c\2758\014\337\274\316\221\021\274\025+v=\225E\321\274\032\007c\275]\3403=T\033$=\357\202\234\274\245\346\325\271\014\014\003\274\332e=\275;G\337\273Q\'\337\274H\243\314\273\214>\331\274Y\332\377<El\220<b\211\026\274\000\003\226\2728\014#=\031\246\202<\021\304><\255\245F\2746\363\224\2750c\037=OAz<\275\273#=\375\333\221\275\003\006\217;#0\265;7a\353\274\340\346\000=\035\343\240\273\374\311\213<\010a\311;5\207\372\274\233\362\271\273\313\022\235;xPI<\213l\326<B#J<\336\305\000<\212\3462<J\215\234<S\334\276\272\013\t\351\274\332\344J\275\273\317U\275\373G\236\274(\026;=\312\320\312\2741JF\274]\013e\275\317\205:=\347\277\016\275p\220a\275\231f\234\274\356V\225<s\020$\275#\245t=\312\\\375\274S\275\310<!\360u<\245\210\213=j\366M=H\320z\274~\023\266<\331|O\275E\254\265\2733\222\220=\230\350\262\275\305|\330<\"K\257;k\355\003=\350s\021\274\376\355\034<\252/\"\274x\234R<\246O\200<Y\002\001\2755\217>=\335\002\002=\346ug\273\206\232\005\275~\320(<R$\233<,\235T:\376&\274=\334yO<\211\204\252\275=\266\341\274<]!\275\310i9\275\302\372\310\274\303`)<>\'^=\006\202H;\326\2537\275\322\262\024=\037\312\024\275L=2\275\026\2348\273\357I\274\273.\270\227<qcP\275,ye=\336\265\n\275F\345$\273DX\203\274\375\274+=]\217/\275x\033\260\272\211\341U\274\360f\331\274\233\331\201=\001N\242:J=\250\274\206J\270;2\201\271\271\260\311}<nn\273\274\241\013\372\273\346*V=\002A\237=\340U\371<\241\005\327<X\306(<\214\360\034\271\236B\323<\371\013\200\273\355\004H\2746Z\373\274\256\212\321<\010\2719<\322\307\231=F\0170=b\'\340\273|\360\354;\013E\r\273e\335\032=L\314\025<\216\331\030=\207\205\214<\243\367\'=lz\253\274Z\325\317\272\216,\330\274!\024\270<\244\370\245\273\320\216]<\177\030;:\261\3600=\270\216\324\273\322\213M=&\014)<0W\267;0`2\275\314\264\355\273O>}=\226!2\275\357\371\313;\207\323H<\\\332\323<P\014F\274\374\211\335\274d0\017=<n\215=\024\225E\275\274\321\241\274\333\277\275\274\224~\n\275K\245P\274\t2\031<\377\204i\274\306\352B\275\026\304]=\t;\t<\236\035@\274\217Q\r<\022\265\t\273\2470\034\274}\241\213<\013\305\003\274\245\204\224\275\261\307b<R\007\214;\nd\031=\234\274\250\275\212\377\265;\232\027(=\024\200\357\274q\001\014=\273\270\"<\373[\271<\273\265\271;\357a\t\275\354\036\337<k6\265<\301+\007<K\3671=5\024\362<\371eT\273\226\267r=\360g\013=%\324\003=\007`\215;nB\236\274\316\347\032=\252r\253=\022i <\265?\213=J\301I\275\364\334U\275\315\373\035=\233\353\'<>a\245=\345\357\001=\354?*<\025\351C\274;i\305<\303\204\276=@\003\001=\346Y\t\275\331\330G<CP\377\273\246\352\007<\0104\273\274\345\262\271;\034\224\326;%\031W\274\327\307\243\274JL\374<\341\336\031<HU==\377\317R\275\315\311%=@\277\345\273\360kv<87Y=\263\036\025\275\332t\037\275\232\370\377<\243M)=\240\252t\274\326\036(\275\233w\214=\025H&\273\220\2427\275\3644\253\274[\2038\274++\343\273\316\030\316<`\0261\275\2716\364\275\177\337\2229\365\253\255=\312\332\351\274\260t\001\275\220\323\301:\313~:<p\342\315<n\032\021<\322B8;\034~ \275\034\201Y=\335D\223<\351P0=Uvc\275ow\\\274\215\0221<\210\002\000\271;\253\256<`\231\226:\221e\037\274\302:V\272up\311\274\236\226Q\274J\004\207<Dm@\274\2550R\273l\300\317<IW\3709c\206\335\273\232o\341<\267P\206\273dg\263:\222\017\035=\020\363C<?!\247;\207>\013=\365\177\212\274(\270\000<\330bL=\023!\350\274C\030\n\274\215\335\244\273\242\375\275<\031\036L=m\021\010\274\023\027\204;\334\237\325<Bz\206;\223\3025=\317\317\202<\235\344\334<\201\0260\275\2173\240=~\"\214\274\026\303\027\274f\374\217<]\245U<h\257\022=aK\001=\037u\357<{\316\222</\323\264\273\335]\027;\333\272\004=\320\017F=\315jP\274\300\245T\272\251\r-<\325\245:<[\331\345\273-\222\233: \320\010=Q\314\350;i|;=\251\351\262\273\r\366/\275\3603\026<o)\332\273\207\360|\274\267\201\351\274z@1<\246\177\325<\233\307B<E\224\325\2742\226\231\272\351\203\306<.\310\033\274\374rk<~\0148\274j\313\005\274p\225\022\275\300V\260<\016\222\254<\261\314n=\307\300\337;n\211{<\233 T\275\032\260T\274}\326m;m=5\275\000\361O\274\3326\n\275\224\313\304;\204a\001<\204;\357<\263j\3579]\372\2749\010\000v<\255\352x\274\007\340\017\274^\354\317\273>\304V=\217\010\210\273\242S\022\275\304\r\203\275K6p=@\323\263<M\313=\273\353\267(\275\277\372\353<\356Z\233\275\235\235\327<B\260\200\274\t\033\312<\347\377`\273\303\377g\273\225x\007<\307\326\037=\245\377\242;\'\242)=^~c=\373`9\275\262;\014=\251#\005\275\001\013\027\275\350\324\001=\271\244[\274\271i\222=\372k\024=\200\227g=\025\273?\275j\321\224\274\306\346Z\275-\004\244=\334B==\3141\242<\n\237\203;S\375\334=&\377\030\272@\026\247\274n\275\307\274\027\024y=\301\243;\274\005\023\326<\300a?<\201\274s\275\233B\363\274\232O\024<j?*\275\275rL\275\177r\2777XN;<\370Z\336\274MR\311\274\254\377\\<[\254\247\275\273\2130\273\013G\327\275p\361\351\274xt\353<\2321\024\275d7\016=,\033J<\n\013\366;@^\013\275\217\302Z=\332\200\307\274\036zW\274ks4\275~q\n\275\314\351`<6\355\200=\317h\202<\033-==Y\0060<\374!3\275\022y=<e\227,\272\022\337\241\274k\021\261<\346\303\013\275\031w\301\2745\256\314\274\227\256\204\274\365e\307\273B\2753\2751\005\004\275|63\275\236\004\312:m,p=\362\230C\275A\031\307;\302\270&=1\nm=\354w\353\274\344\243\030=NG\311:\217#\235;\364\022\240<\264\\\034<\220A\202<=\332\376\273\004\"\005=8\177\236\274\236K)\275\316\232|=\376\220\363< \323\201=\315\236A\274\n\315\206\275$\311\203=B\204\235\273#\275\301\274\\n\234=n\\\231=#\332~\273\254v\264<A\223<;`\033Q;\371\243$\275\364\016\257\274v\007\036\272;\271\276\273\301\177\001=\035\252\316\274Sn\245\275\237\023\266\275\366\007\207\275\262\324\001\275[D\017\274,\277\036\273y\267P=:T+\273\"sw\275)o\021;\262\020\277\274 \334\223\275\370\344\010\275\323\003\246\275k\2552;\205\350\005\276\275\251k\275\261\323<=\0305h\274\014P&<\226\353j\275\017\022M\274\004\247\257\274\021\235\r=\"\274\274;\345o\307:\013\276G\274\277l\254=\267\216\004=L\267\235:\323;M;\252\003\032<\231\340p\274_:\216<\205\254\315\274{:\033<\332R\323<*\n\302<TWS\274\272\017`\2733\340 =\260\3171=Y\252\377<\357P\305<\215%\376\274n\251^<\361\355g:\327J/<_\326\236:\342Q\013\273\367\031\031:\231m\323\274u\235w\272\243s\235\274\227.\245<4\351\234\274\301j\030=\220\210\200\274lQQ:\273\224K\274\230\344l<N\n\010\275I\264\001=\207\204\264\274$\367\215<\214\341;\274\214jA=S\363\016<\226+\022\275:\321\220<\0336\337\274f\245\237:c2\325\274\022~\014\274\261\034\017\275\302\323\n=cR\327<}\0000\274>b\005;\262\037\310\273\312p\214\273\006R1\275\256j\005:\341.;\272\035X\366<\277,\035\275\215\241\301\274=\320\220<\2771\201<,\004I=4(D\274\376I9=\0367k\274\005_\000\273X<I<$\321\202=\333\267;\274\360\371.=\235\265\323\274\003j{<\346\330\205<1\370\354;y:\014\275\017\326\344\274\326\245x<Q?\256<\235 \016=\273\334\014=\241\230\302:\221\320\362\271z\375\303\274\237\321\031=\021b\210\2743\267\325<%\216+=c\305Z\274\037\230\244\273\016\317\322\274a\002\037==9\247<M\001};\311\334i\273\004\232{<b\207\237\274\340\220\315<\211\331\002=qJY\275\352\"\023\274g\355\203\274\225g\263\274\264\355\024=D\324*\2735\310S=)\210[<\005\234\243\273\365\202\014=\274V\271;O\202\313;s`\351\273\363\364\361\274\206\207\274;\346\331$\275\263\324\237;w\304\016\275\244\312}=\344\003B;532=\264\200\006\275\310\373U;\035\324\206=\305\200\371\274\271\332\303\274\322w\\<\273<\270=\371\245R\275\311\006\000\275J\014\207<Ek\365<T\242\242\274L\302\002=\2050\255\273\362\037\220\275~\306\213\2722\021\030\274-\256\'\275\3760x<\310)t<M\317\304\274Q\330\223<^\355G<\023\035\361<\315\314\272<\305\001\271\274V\'\030\275\243x\207\274\326T=<\014\257\267\2734d\305<\024\234\363\274\272c\321;{mp\274\272s\021\274\241)\023<\312\305\357\274\027u\314\273a\311@=\221\210L\274.\340\227\274\257\010\332\273\334\225\345;\300}\014=\213?\312<\232HZ<^\236,\274\247\'\347\2747\376\232;0\030\212\274\230??\274\001\262\331<P]\220\274\022\327\302<\255\371\027\273\206\310\300;\355r\007=\271\304\322\273\204\210\361;o;\251:%?\366:\236+U;\254R\257\273\256\224|\273\256\341\205:\235\014\365;\034\3038<\'\246\024=b\245\204\274@d\000<\216\242P\274W3\310\274\314k\210<V=\225<]FJ<\0215\262\273,