node {
  name: "Const"
  op: "Const"
  attr {
    key: "dtype"
    value {
      type: DT_FLOAT
    }
  }
  attr {
    key: "value"
    value {
      tensor {
        dtype: DT_FLOAT
        tensor_shape {
          dim {
            size: 1
          }
          dim {
            size: 32
          }
          dim {
            size: 32
          }
          dim {
            size: 3
          }
        }
        float_val: 1.0
      }
    }
  }
}
node {
  name: "XXX"
  op: "Identity"
  input: "Const"
  attr {
    key: "T"
    value {
      type: DT_FLOAT
    }
  }
}
node {
  name: "conv1/Const"
  op: "Const"
  attr {
    key: "dtype"
    value {
      type: DT_FLOAT
    }
  }
  attr {
    key: "value"
    value {
      tensor {
        dtype: DT_FLOAT
        tensor_shape {
          dim {
            size: 5
          }
          dim {
            size: 5
          }
          dim {
            size: 3
          }
          dim {
            size: 40
          }
        }
        tensor_content: "\334c\305;\246\3537=\250\177\017\275Ml\254;\301v?\274qp\225=\032\032\2336\377\364\377;\355\331\230=\242I5=\216\221O\275z\223\022<\366\214\343<\003J\252<\006a\306<\340%\346\272>[\205<\255\305\017\272\"L\037\274\261\2740<\362\313\253\275\301\0012\274CO\017\2756\3666\275\2469\252;0\353\'\2732b\273<\227\255Q<\212\t\273\274\273\252\021=\263SZ\274\311\264\317\274\014\242\277\273\276Q\324\270\340<e\275\247\245*<GD\177\273B\231\025\275\262\270x\274\203\247\006\275\342\013\334<Q\027{=8\270\025\275\237\310\301<<oG<#) \274=\271$\274n\260\\<\013A\276<\253\371D\275E(\023\275\241\r\354\274}\211\264\274\010\'\252;$\366\233\274Q*\037<@.x;9\300(\274\376\254\302\273r(\247\273\272\256\227\274\243n\t<\361L\030\274\266\252\210\2747\"\020\274s\364\233<@\300V<\357,\345<4\3748<J$\021=\n\n\267\274\214\304\375;\227\025v;\270o\005\274\201\264\203\27469n<\311\302\302\2744;3\275\346\304\035==\307,\275\023\264\263<_\327s<\033G-\275\313\212\255:\373\207Y<\270\266\257<>\2550\274\317\272\027<\351\315I<7K\243\275e\363\366\274i9i<\263\334\016=\300\371\302<sl\271\275\r_\231<\237\200\225\274\271\251\360\274\337N\344;/\357\351\274\352\272\235=\206I\325\270\'\220\325\274\2520\000<\024\215\266\274\010\210,\274\260\227\007=\365\330h;\276%\345\273\352\007\322<\241\032\256\2749+\235\274N\001\264<h\3673\274\334|\301\274\270\227\024=\266\224\203\2737\337J\275F\366i\272C\232\034\275\217\204\312;\300\212+9\210\267G=\016?\230;-N\222\273\377k\241=\016J\232\2740\335\335\273\370E\322=\370\327Q=A\365\274\274$7e<\300M\203<\374\272\336<\320\275\206=Y\3518;2\334\341<\230\331\204<\332D\024\274\337\034\201\274$N\200\2757\200<\273@\027\361\274\023\'F\275\344\2541:_.c\274\033\207\267\274\245S\317\272X\005(\274\312b\213=b\274\223;\347\003\036\275\320Z_\273\"*\325\273k\t\255\275\216%\372;\263C\203\274q)\302=\270\375\304\274i\232\356\274\331\260\353<\301gR<\314\255\207=\346n\266<\253\016\245<\270\223\237\274\331\313\247\273\310\203f;1\017?=N\020O\275J3\233\273A\'\322\274\263e:\275\377\300\361;\331\024K<\326\214q<L\206\030<N\204z;KS\227\2748\033\006\275FN\304:Nz\217</>\031\273\344\273p\274\024\221\226\274\264\353@<1\203\352\274\346\343\237<\305\257\331<\242\316\210=C\276(\275\247\377\304:\r;\t<\354\363\212\274\371\025\020\275\360U\211<\004\000\017\275u\017\254=\335\220$=Z*-\275^x\276<\275\352\002\275\346\2710=\327[\272\273M7\322<\236\331<<\267\346\220\274z\226\326:HU\343<\311\312\264\275+\374\336\273\261\005\267<\260\261\247<\344\356\276<\024O\206\275\231\252\312<\241\234\253\274\233\275\263\2747nw\274c\014r\275\332\267\232=\200\177\225;F\237\370\274\314\264\216<A\217\031\2757\025\271\274*vR\274>\326\354\273\325\253\215\272K\272L=#\334b\275\226\255\233\274\366x\365<\314}\255\274Ql\326\274Ly.=\342\t\035\274\207\306\277=\177<Y\273z\027J\275!\304i<:3V\275\313\301G<\334w\016:+W\367\272\262\010\247=\351\000O=\272bg\274\260A\330=\030U3=\177\257\360<\212\325s<_\t]<r\203\346<^c\322<\223\332\000<\213\017\340<\216\226\260<\204f\233=\323j\013\275\235\333\236\274\037\361\215;\237P\335\274i.1\275\222\325\212;\245\201\201\2742\024\204=\225|%\274\353R\251\273\207\355*\274r\275P=\201Y\010\275\221\026\361:\335,\274\273\'S\237\275\273\221s:4\014B\274\362\304\302;fO\274\274\033R\231\274\373\376\013=\355\366%\275n\310\345<\201G\201<w\361\233<\277;\210\274\036t\254=\021>\365\272\215\271H=\363_f\2751\n\341<9\006\310\274H\023M\275\227\r\016<8\236\311;=n\217<^: <\312*$<MC\223=\311\265N\275ZK\225;y\351\306<\244h8:\263\316/\274Y\262r\274y\251(<\026\303\214=\300\254_<\265D\003=\260\271\'\274\372k\013\275\213\265\343;\242\"^<\250\214\215\274ZJ\306\2744*g<\374w\001\275v{2\273C-%=\335\206\005\275\034a\334<\362\212\226\275\322\267f<\326\324,\274\221X\373<$N}<Zce=\344\244!\273|\234\275<\2044\275\275\r\306W<\230\226\276<5\322\223<\227\343\315<w\027\274\274H\374\327<\215\020\232\274_\030]\2741#m=\226\341\246\275\223\356\310<c\035><_ \356\274\325\310\273<\353\260\030\275\314\350\302\274.lh=]ZR\274I\3758;/\014\363\274\027\035\205\275\235\374\t\274i]\017=m\246\266\274\016\006\227\273\201\332,=.\230\273\273Sb\256<\276\223\225\273\241\2628\275\223\206\272<!\031\275\274[\327\010\275\227\334\325\273\203\027\217;l\232\222=o7\n=\221tj\274\317$\273=\247X.=\250\364==\317\'\006<\350q <^\373\213<z\264\360;\235\365\205;~+\277<\270>\231<\2017\250\274\005\003\333\274[r\026<\350\200\226:\\\306\372\274D\215 \275\362\232\271;_\235\216\274\002\206\274\273\002\236]\274\337\034\305\273\364\251\221\275\037\277\227=X\\\323\274~\334\222\273\216G\213\273\272\312\207\275\027~\237\272\206\332-;\317hx\275\235\006\223\274=\231|\274:\341\014=\352\375\221\274\345$\377\274\254\231\276;\222\361\314<\2163\211\274]\366U=\222\245[\273\213f\022=W\253$\275\265\251\326<\302\374\354\274\020\0258\275\301\344X8\324\234\241<\032\266\030<\003\201(<r\3448<M6n\274\257\326%\275I\353\211\273!\347\235<\213z3\273\264A\230\274TV\320\273\347\336\\<\032a\010\273\"\212i<\233\371\375<x)\177\275$\314\243\274\207R\240:\361\236y;9R2\274O\250\214\274%\334{<\037\266\276\274`(\211\275\276\364\005=\271\210\351\274\254f\334<\275\267\016\275\207\263\240\274F\246\207\274c\001I=wr\215<\304\177\005=z\346\216\272mO><\214\031\222\275\242PD;:B!<0\247\245<L!E<\331\360\242<\357Km<o\351\000\274G\345\300\273\213\210\t\275\026J\210\275e1\215\274,\030\246;\337\326\311\274{\022\301;#\341\271\274\351D\207\274\240C\n\274\310R@\274\262\343\272:\362\264\245\275\2662G\275mO\204\274~\204\260<\300\3350\274fd\270;xT\034=\222\2009\273\376&\033\275\363\362\213\274yc\026\275$|\337<\331Q\034=\007\351\245<\250_\200\274\246\307\036<\3441z=\370\002\036\275}\207\241\274\307\371\201=X\333\003=F\024\204=\t\231\300;\304T)<\236(K<\240hr\275x\0140<[@\251<\256\224\256<\310\013i\275IT\002\275L\357O=\177\027\005<\010\364\023\275\261\302\014\275\373\003d<:\327+\274\244\320\202<\257`\254\274A\213\311\2722\031\257\273\372\340\222=HHx\2749J\026;\212eU\272\370\030W\275\'\346\215\274_Z\022;\017\324\242\271\363C<\2742K\221\271\321\217\t=F\2301=\302\t\231<\230\205\014\274\362-\324<FJi\274(*0\275\01784\2744BH<Rr\006\275\227\256\005=\254\226\361\274k{\036\275\256\231\214\273\361\360\255\274\356DD<\272.\014<\267\326a<\024\303H\275 \3431\275\025M\030\272\036\261\276<Kt;\274\026\020\216\274Q\177\020;\244\014z<sE\206<*D\214;\353\023\377<\307\261\245;\3557\257\273\304,\001<P_\005<O\000\026\274\'\022\000\274\372V\251\271}\r\343\274\377\353\204;\371\255\363<\205\267\243\273\024/\321<\347\222\035=d*\300<\014\240\330\274%#Z=\351\331\251<C\270\027\275Ew\347\273l\223\250\2739\204q\275\033\026\334\272\023\306\225;\'?\231<x\245\242;\024\347\336<\264\204a<B\303\304\273A\355\300\272\313e\213\275\357_{\275\177\320\207\275\352\275\031<g\036\335\274\220\230\237;\372\246\236\274l\nD\274Xq\273<\273\327\225\274O\246V;\017\374\022\274*G\330\2741\366\231\273\261\252\277<t\220J\274q\350\n<=\326\253<\262\240)\274?\327\225<S\014\230\274\322\232\334\273\201O\323\2743\177\337\274\354\302x\275\000>y;\342\350\352\274\343\322\226=\007\355\307\274Y\213)\274\333\270\253;u\003\254=\222\357\214\275*t\242<\0057\331<u\204\317<\236\342\212=\235-\250\273$\305\316<\375\034K< \304%\273\364dX=&\371\246\275\244\201\005\274\247|\351\274h;0\275\311\003\357;\357\320\004\274\204\003\030=\322z\224\272\346\303\244\274\373\232[\274;\327S\274@\331\034\275Q>\373\272M\315\231:\366e(;\223\203k<\026\217\025\274R\363\236=\200[\002\275\2770h\275}\301\030;\365$8\274\003\251\222\275\322\247\336<\"\005\341\273\276\225\305\274\343\345\030\275a\324\211\271\211\262\334\274P\312\244\273\335:J\275\367\247E\274F!$\2758\003\266;\243UM\271\3253;<\306\327n;\326\271\002\273\362\234g;\225!d=\203\257A\273\002[\203<\346\222J<\277\273G\274\353\324\026\274\'3\207<O\005\313<\311Q\241<\205Y\263<4\307^\274\007\315\370;\306\365\230;\013\030H<~\217\003\274\260U\254<\324z\254<\275\331\261\274bP\201=\333\377>=\241\226{\275Oz\023;\024\027\202\275}\277\231\275\017\276D;\016\333\215\274\265\232H<\033\010\001\275\274d\340\272\223-}\274\245\256,\275\371E\031\275\326\000-=\023\332\256<\256H\337<\224\202\261\275\244=\322<\230\344\324\274\223\242\321\274\031\200\321<\037\006\200=\273\204\330=pb-<\201R\001\275\021\226\335<|\323\342\274\314\032\232\274xR4=Lb\334\273??`\273\251\240n\273.\017\004=\371\237e\274V\300\021=u\354T\274~\003\024\274AB/=\367\213M;\261\240\214=i!\224;K\211s\275\033\306\330\274\320\246\245\275\304\026\322=\367\344\260;7=\277\274^r\233=jc\036\275\325>\257\274~\363z<E\325\340=H,O\275Q\254\274<.\240d<\252\234\366<\242\373\244=\336\005\201\2723\252\026=9^\343<M\210\245\275\235\241\277=\230\330m\275i-\370\272\217\236\277\274\037\346>\2750\314.;\245|\213\274\377?\204\275\352\nM\274\303<\"\274\212\320\251=\214^\212;\014\265E\275\375u\372\271SJ\276\273 Q%\275)\373\353:\355\260\267\274\234~a=\032=!\275;\036\357\274\235\367\261;\311\321\201\275\034\343\351=3\212\343<\353\2145;\326O\"\275\223\217\353\274\221\327\365\273\377\025\301\274\233\r\207<\005\245\317\274\200q\036\274\002\005\210\275\320\010\257;\231\221u<F\212\221<#H\"<\322\2469<*\'\271\275rF\307=\300\002:<~\025\276<\251\323\250<_\326\034\274t\363\231\274\003\350=<&x\217\275v\222b<\202\273\016=\304a\242=\265\354\244\274\356\000\014;,\222\213<O\372\220\274\361H]\274^Pj<Af\013\275o\307J=\025\221S=\253\275\037\275\325\334\265;0\345\326\275A\002\262=\362b\032\273\334\325C\273\020\007#\273\313\034\026\275 \037\346\273y\315\227\274?\272\331\274\232\005\223\274\200\320M=\333\247\203;P\005\311<\000Zx\275e\177\t=\343\264\343\274\332\301\220\274h\277\222\275\203-\314=\373\343\266=|\006j<\253\311\025\275@4\035=N\3744\275\203-\362\2745\216X\2754Jw\274.\204_:\327V\236=\250d>\274\327n\021\274\302\2014=\216\256\314\274\223\277\321\274?m\033=lk\334\272\\?\233=~\201\221;\335\322=\275\222T\254\274%\370A\275\234\r\214<\271|N;\303+\266\274|r\225=MSo=\026!\363\274\311\014\221<\306J\326=\246Xx<w>\271<\353\2637<,\177\365<J\241+;\311h7;\264\247\025=U2\002=\372:\035=\3205\351=\235\316\345\273\304&\005;\365\016\311\274\310X*\275\325\r\277;\307(\251\2740\177\313=\034\217\255\274\202:\364\273E\332\312=\246\316M=\004t7\275U\370$;\323K\315\273\322oq\275>\350\014\274\010\r\304\274?\255\337\275\371\311\031\275\007W\317\273\206\343\"<,\345\006\275\230r\364<\215\215\273<\276\014];\013.+\275\3457\264=\314\005[\274D1\247\274A\306\260<Q\366\251<\375;%\2743\375\217\275\222\\\230;\177\232@\274\r&\247<$S)<ME\205<\263O\002=yp\366={g\220;\356\253\332<j\"\245<Q\303\265\273\275cv\274)\232\032<_%\335=\362z\005<\351/\031=\262K\312=\n\257\360\274\353\222\331;n\215\244<\313\376\226\274\203\377\250\274<i\363;{\003\024\275\372\317\331\275\243\250T=\365|\212\274@M\007<Z\363V\275T\217\213<@\350\316\273\356\324\247;7h\237\273<Mz=\247k9\274\327\273\270\274\262\267\234\274\226\007\224<\002NH=\220o\037;\223d\300<\274\031\232\274\240\335\016=w\354\320\274\023\350\027\274m\224\000=X\024\356=\324\304\\<\330\322\223<y\372\037\275\374M9=\35476\275\212\036\001\275:;\262=\221\312\243\274\200X\032;x\354\266=\376pF\275\263\374\006;|H?=z[\331\274\273z\231\274\204\332\375<|Ve\272\263T\234\275\244\007?;\270\361\333\274\310\3657\274\233\013M=\353O\203\275\377V\340\272\370A\201\274Pnl=\206\036\030=\251\246\330\274\351\246\313<8\273\255=Pyc=a\325u<|\362\213;\301R\241<-\306\002\275hk]:g\346\005=*\302\336<\001\036\331=\232j\262=\246\311\316<4\257\226\272r\247\336\274\2041\036\275D\203\230;\2008\267\274\260\273\366\274\252\256\263\274\026\321\002\274\233\024\207\274\343\252\215=\'\226\017\275\221\335h\273\013O\002\274;\214\231\275v\372A\274\225\325F\274\335\223\024\275_a\360\274\314\356\2259XzG<\371\271q=aM\206\275\225\223i<\017><<-\3311\275\331\353P=\244\226A\274\332\262k\274\004\331\245<s\204%=\270\236\206\274\367\201\206\275\n\256L\273\204\351\376\273\372\373q<\274d@<\372\273\204<+\325\332=o/\306=2\373\030\274\025S\254<h\t\223<\332iz\274\020\n\030\274\021@G<6\335\265\274\256}0<:a\023=Z\3306\274\032f,\275\336\235 ;#\365\'<\002~z\274\335\023\016\275o\242\274;\350\232\371\274XM\006\275\301\225==\211\250\310\273\021\311#<\022t]=\330\307G\275j\034O\274\371\332\336<K \267\273_L\374<T\302\366\273\220\365\207\274\245rJ\274}i\261<\325D\t=\364\237\017;\203\204.<7\250\310<\377\305\320<\232\301O\274\355\000\'\273]\215\264=\305\312\271=k\'?\275\366\021/<\2646\005\275\370\370\333<\346\206\005\275\324\376\305\274@0\005\275\202?\206\274N]1:\2535\270\274\314F\214\275H\231\244\273&K\010=\017\030\230\274\346\207\252\274\335\317\252<e\343\3439\031\217\263\274I\357\371\273\221\227\013\274\023N\037\273\375\277\202=\343`\336<\205\371\020\274\205=;\273\034\340==\003v\220\275\317\363\351\274BJ\251;\252\013\204=o\300\217=\313;_<\327T\357;d\364r<\364$\273\275\342\3660<_<\346<\374\312\344<\372$\031\275Xb@=c\331\221=\2054\213;\305\256\002\275\241\237\001\275\332|P<\235/\211\274\374\377\357;\322\260\351\274\230\246B\273\034\335\244\275}k\256=\326\036\306\274\214\342\242;y\327\240\273\245+\236\275l/\004\275$\334Z\274x\367\352<V\t\225\274J\354\365<\363D\201<\223\311\212=A\t\302<p\272\271:\241\024\250<\216y\035\275\016L\251\275S9z\274\316\265\323\274\202e\245<\313\027%=\016I\210\2742%^\275\270s\t\274s\3260\275Gc\254<\227\325\004<\257\330\205<\367<\010\275\014Cn=v43\273\353\366\277<\266n\023<\020\346H\274OK\t\272%\303Y<\307 \016<\340{\030;\323\010\025=\235l\226\275\317\\\240\274\016Q\024<\264\231\203<\264rY\274\020\217\005\275\232\022q\274o\016\020\275\313\306\034==\314;=]0\000=M\250><ma\235=\270\201\335<\300\202\270\274N,(=\372\340\372\272\003\376\223\275\366n\026\274i\004\245\274\267\327\330\273z\035\030<\216M\347<\313\006\250;\231\024\313:y\377\025=\0213\345<pFM\274\323\3767\272\274\202T\275\227\204z=\254\222\276\275g\324H<\t\352\017\275V\014\351<\255,\354\274\200H\242\274\004\257d<)\235\255\274~\235\353:\"\246\250\275\033\256R\275\245\340\313;C&\026==\336\235\274\005\350\236\274;\024B\273\200!\330\273h\347\354<\353\306\345\273\230f\025=\335\227\024\275V\372\225\275\257oc\275\367\312\257;\255\345r\274\326\357M=\357\000\031\275i`c\274L\3227\275\177(\377<H9\250\275:\035\206<\305\014\304<8\366\263<SZ\256=\227\330\205\274\221`\321<\355b\223<\023\2300=x\nZ\275\322[\223\275u\337\000\274\316#\177\273\037\022,\275\2140\320;\004Y(\274\013\036\035=NT\356\273\225T?\274\017\027\226\275\240K\362\274b\350D\275\213\321\032\274\016\025\344;;\025\231=C\211B<\263\200\377\272\315\260\205=\n\340D\275\333\253,\275\025~\235\273\033\372\204\275\376\311\226\275\232\351\374<\260\307\032\273q\236\036\275,\211V\275d4\003\2735\365\005\275\332\034\272<E/v\275\014D\207\274\316\357-\275\247\002\000;B}L<\250\243\323\272\203,X;Yw\273;;\377b=\311yN\275\r\250\375;\371j~<i\371,=\200\310U\274\375GV\274E\335*<$=\311<%\313k<\251\251\365<+\016\215\275\303\331\355<8{\022;-\240\343:a\322\211\273Ueg=\231\201\241<M\243\364\273\0039Y=4O%=\372\240\024\275o\242\273\273V\271\325\275W@\231\275\033\263\234;\300\207\350\274i\231>;\013u*\275\200n\305\273\266C:\274\315 \\<e\264\025\275d\266 =\230\376\202<\304\354\305<pz\235\275\344c\006<kh\360\274:b\236\274\270E\201=\007@\001\275z\200\357=\200\257\010<e\322\224\274\266[\376<U\201\375\274\253\372\317\274\t\304G=\334\233K\274cDT\273\023\344H\275\253!\222=\276\001\024\274\312b\243<\243\327,\274\232\232\216<K\205\031=w\305\201<9\361\220=8\3454\273\360\375\371\274\225\2411\275\257\301\256\274\313\313\002>\316\302\263;pd\271\274/\005O=\201\021\035\275\372\351\305\274\314\205i\275\270>7=\312\232\260\275\360\233\221<(\365\022<\262\214\303<\350\235:=O\3508\274\302\036\034=;\335\375<\272\254\251\275y\355\240\275NI.\275q6w\273\275Td\273\343>?\275\341j\026;\000\253\265\274\205\256\265\275u\217\252\274d\003\241\273JR\362\274o\367\324\274\225\030j\275V\013\037\274\017\370\251\272\036\361>=\0055\213\273\213\021\245\274%\244\320\275\253\274v\275\251A\010\274\034\373\344\273\210oA\274l\265\n>6\253\363<\322!L\273NV]\275\224\273\001\275\300\277\033\274\003\215;\275\245\3238=\205_Y\275I\322o\274\364^\216\275F\314\205\272\275n\212\273\246y\334;9_\035<\277K\202<\370\261\261\275\332\211\246\275_\210\227<\3702\241<\224\255;=\212\2309\274U\251\263\274\261\370\006;\215\326\277\275\373B\275;\321K\035=\227\375\361\274n\371Z:\222j\0369U\007\241;1\223w\274\025\237\030=UD\036<\343\224\307\274\245\272\326\275\203\220(=\327\325\t\274\017\340\265\273R\345\027\275\030s\335=\271\344\034\273\305\334\316\274\254c,\274S\304\t\2753\3379\274\241E\321\274Y\243\001=\303\026\n\275@{:=\3773\t\2737}\220<j\310v\275pw\222<\"\260\377\274\355\022b\274\214\303\205\275\324\332u\275\016E\264=\030\330\014<\371:\350\274\222z-=\372\027D\275K\017$\275\340\255\217\2752W\276\274\235\347G\273\237\352\321\273?\374\n=\257\265\260\272w\250\326<<C\310\274\001u\'<(E\333<\314\000\035<\215\006\250\275\002\373\325\273\210\250\003\274i\254\034\275sN\221=\313\372\330<\344{\313;\3455\306\274\031\007==\366\246\234=Y\376\362\274t3a\275n\257\274<\232\3253\274\234\330\231<\205C\367; c\324<g\371P\275\364\310\376\273xa$=\3455\023=D\320\345\275\204\270J\275\377\201\256\2731z\211:\331\345\324\273\233\3001\275\032j\262;\007\210\274\274\013\226\337=\006\341\331\274j\333\367\272\255\277\237=\364\263\216;\304\206T\275\2162\334\273\361\224&\273\342\303\315<\262\233\237\2741\300\315\274\033\265\274\275\215\301b\275\304\"\203<\333\330\013\273TP\240=\375G\"=\346V\335<\305\244A\273\3779c\275\\\321\320=\303S_\274\313\351&\275\201s\032=\017\010\220\271\021oZ\274\335\266\221\275\324\341\332\270>Z\027\275\246\0141<P(K<\232G\262<\3728\001\276\316\360T\275\260=\367\273K\334\276<o\3170=Fm\017\274W\334\224\274\344U$;\"M\362=9\334\023;\007\201%=\276\332\244=\\\236\336\274\004c\312;f`\007<\277h\211\274\371\305\335<\340\341g\273\214\342\364\274Q\020\272\275N\2317=yal<\004F\212\272p\244\227=\227\005\342<]\206\231\273\267\244\222\274\"\213<\274\351M\244=\317Oc\274\257\315\303\274\356y\331<{o\340;\023:>=G\311\027\273\230\337\223<<4/\274\301s\260<\210.\332\274\367z\203\273\206:\312\275\206T\021\275J\333Z\274B%R<\336%\004\275\023%F=\177\225E\275l\237!\275\307\327\316=\022\032\315\274\301\224\303\272/\261\275=\321\364\253\274V\273:<c\360\362<\256\256\335\274\352h`<\340&;<\307\223\n<0)\237\275\344(\247\273\256\211\203<\247b\344\274<\354\224=\r\357\207\275\221\301\224:v\003\230\274\350\306\016=RV\030=.\267\242\274{\2616\275\353CC;}\020F=\212\003><g\200\311;\212\256Y<\335r\245\275$T\027\274\321\227\025=\344g\357<\253\001\273=A\340\360\274\330\325\242<}<\261\273\031\326K\274\006X \275<#\261;\tp\320\274c\0100\275\204J\303\274\306\027\231\273\300(\327=R\231\246<P\304$\275\035BK\274\031\301a\273\204\325A\274.\312\251\274\032\266\213\274\216\365\236=\013\323B\275\350\237\203<\343\021\207:\206>\241=cv\213\275\021Z\230<.\207\301;\t=X\275\277\320>=p\356\342\273<_\366\274\335\343\336<D\265\024=\306\233\236\274\251#r\275[3&\274]\021\n\275\210~\354;\374\340`<\344\000\240<\267\250\257=\331\363\365\274\215\372\336\274\3539m<h\221\035=\027c\215\274\226\3441\274v\366\217; b\027\275\356{\336;\034\271\025=1\275\341=.\324q\275])O;g  \272\345\020J\274R\260\343\271\351\214\242\273\362\306\342\274\223\337\241=\221a\034=%\231\261<\227V\351:yw\272=\255TK\275\"\374>\274\373\370\261;\207|&\274\350<\377<\'\330\240\273\035h\206\274\032\030\246<Ie\272<U\250\376<u-m;\263\3230;\205\271\374<\2037z<\212W^\274\237\245\020:}f\273= A\213\274\006y\251\275\306\345\037;S{\337\274\374]\002=G\220\016\275\221\033\004\275\306\3230\275j\257\230\274\206r\250\273s\346\340=\252\013\214\275 \336\257;\276\210\222<\000\244\221\274R\267\225;|\204\213:v\271\010<+eq=\374\340\206\274\230\377\001=H\346\240\274 dg\274Z\365\345<)?Q\273\031\340\"\274\025\033\325<_\354\254\275A\365\244\274|%O\275\376t\277\274\2479\255=\034\024p<\2566\024<vs7<t\326\312\275\301ha;\302\234\010=\026\002\371<vTQ=\"\331\304\274\315Lt=\266\265\340:\304Lq\274A\230\013\275\325\372><\342\025\245\274\375|b\274}\350\343\274,\177\335:8u\016<\333\272\023=\036\323\377\274\263\347B\273h\366,\273\234\314-\275\351D9\275\373\025\264\274\266t(=5\366\023\275V\2073=\022\331j;rI^\274\252\244\272<\035\010\014<\344{?<\27468\275\222\352\313\275NQ\027\274&\362\352\274\230\365D<\325\212m=\271\270\177\274\312\276C\275\232\321Z\274E)\"\275u\271\213<z\2336<(\021\241<2\340X=&%\232\274\251D\256\274\344\354\226<}\317\376<3\254\200\274\377M\207\273U\317\226;i\336;\274\203\371\223\271j\n\034=>\236W<\252\227m\275{\314\002<\024\376\324;\313\264K\274w\013\271\274Ct\366\274\353o\024\275 }K=\3358\033=\352\372f=@\321\372:\367\224\271<^\016\350<\376\230\244\274\nY\210<#\302\256\2732\317\255\275E)\250\273\332=:\274UX\t<\002\367\326<\224\347\365<z\r\313;k\344\211\273D\267S=\313\316\265<\\xF\274\213~%;\377\214.=\354d\325\273^\303\370\275$\200\252;!\335\351\274\231o\007=r\217\005\275\262k\347\274\300\275\310\272\003\370\256\274g\026U\273%\202]\273*S\247\275\273\375u<\363M\277<w\321\246\274`\211?\2744\333\343\274H_\266\272\021q\220<\007\221\202\274\334\375\224=r\'\357\274\256\362=\271/\000^\275r\267J;Lcm;v\356\275<\331\360\n\275\010L\177\274\326\335\216\274\271o>\275;%g\275)\0316<\221*\222<3X\231<\341{\243=h\030\235\274\226\225\225<\343/|<\003i(=]\202%<\341WA\275\3656p\273P~N\272\3202\276\274\372\357 ;\300\3264\2749\340\025=lf6\274]!\247\273\367\031\300\274\373\362d\275\237&\354\274\326j\016\274\222\250\271;\321y\212=!o\035\273GAs<\216\311\327\274\377\302!\2753a\001\275\032o%\273\271\261\261;O\003\234\275r\353\351<\022\312\336;j\002\"\275\374\306^\275\333\364k\273\262\336}<\230q\027<\354c\023\275\305\274\235\274\201\036\034\275E\347\334:\332\312\317<\311\001\010\274(\242k9\347\023\375;\247:4=Y\266\200;v\317\207<y\347\213<\207\207/=\3362\025\274o\326E\274\026\324\346;g\210\264<\034\271=<\231}\366<\n\013\231\2745\203\t=\344&7< 1\n\273Pz\223\272s\367\001=\201\262t:\204\242\370;\266\310\014\275\250\274\030=\244\242\217\274\201\305\251\273\227\267\253\2732+\216\275]3\026<M\327\361\274(\000\222:\003q\037\275\317A\016\274\336\371\321<\223\377\013=\355\200V\274\022\321\272</x;<mV\264<\341\225B\275\342k\235\273:\225\277\274\030\217\007\274\304\274\036=\301\261R<_\320\330=\267\240X<\267|\265\274\272\367\331<2z\252\274.\305\257\274)08=\353\351Q\274\025\332.;\316\021!\274\223\301\224=)N^\272\0161\371;\006\210\037\273R\226i;b!,<\231\257\310<]\3306\274\374\212\372\273 \366\022\274Ro\017\275\242Yl=f\376\371=\262\366\341;\0136\014\274\231\377\270<t\205\361\274\277:\274\274\201\277\262\274\364\256{\2758.\232\275\277\205D<E6\203;\323\216\254<-\320\224<\017\264D\274\3262\000=#L\346<\260\211u=b\277\301\274\014\347\236\274\n\000\024;T\373\222\270|\361\357\274\361S#\273\022\321\256\274\205\214\242\275^*\262\274\370vA;\006\201\222\275}\305n\275Ph\023\275\314T\333\273\365\276y\273TSc=\323\216\212\274\236\021}\273#\035\324\275\2672J\275cv\251\273cxM\273\036J\207=\231k\001>C\227\367<\303/$;\261\031\\\275 \300\365\274\331\014\032\274\326\275{<Uu.<\257\363+\2756\365\220\274\'\231{\275\257\317\237\272\307|\316\272\374\366\005;\372<\353;\311I\215<\007\235o=\267\335\030\275kl\253<\272\257\265<\364\266>=E\237\023\274\244 \256\274(3#\272oE\245\275\303\335\215;\t\272\035=\260w\223\275vK\364<\241\330!<@#2;$7Z\274Q\272\343<\274b\024\274}\245 \274d\272\320\275\244\037 =+\221f;\347\230\007\273\356\352\217=\362{\333=\322\235\235;aQ\004\275\312 \013\274\210\255\311\274\314\'L\274\331\347\335<w\\\032=\022\314\272\274\265G\343<\300/{\273,ay<\013e\356\274.\265\341;$\205\302\274\364y\034\273\022\221\206=\036\242\311\274s\n\222=\036Wi<\202\345\371\274\240\315\020=\037\332\031\275I\333\016\275\021\326p\275<\335\253\274l\260T;f\3155\275W\327\221=p{\363;\262\tt<kL\216\274\210d\254;\260J\016\273i\356\223<\005:\273\275\344P+\274r\2347<\277\200\013\275\251\265\206=\337\361E<rt\350;\014\245k\274\222I\300<\335\036==\203\375\317\274~*\205\274\317{\221\275M\230\347\274\nG!<\241\016\262;(*\245<\016\300s\275\376E\005\274\207\230\007=\"d\366<\245`\374\275@\3752\275\244t\204<\t\356q;\007t\366\273\350\241\323\274-|b:\2270\270\274\262\330\261=f\257\330\274\002\376t;a-)\275\177Y\003\275\200\335\002\275w\273\227\273\027\301\214\273e\3060=\233\326\352\2744\234,\274\263N\203=\352q2\275q\025G</\034\207\272n\351\226=\3733\307<\343\260\335<\326\322\017:\232\272@\275\036_\206=\306\343.\274(\033\310<\345\264;<\367\004[\274c\036\232\274\003\230n\275\332\326N\273\311\274\247\274\326\327\361;\325K\037<\2225\252<\301\005\010\276,\260u\275\377\007\266\272g\377\266<\206\227!=7\375\330\273?Q\206\274#\223y\271\210\252\314=P&w:=\226\033=\266\240&\275\367\244\235<m\301l<\373%\255;\311\'`\274U\345\311<\t\233\234\274\335\336\217\274\345\007\215=\222\3550=\222<\241<\3367\261:y\331\274=\002\026\231<v&\333:M\200\352\274\360\204\212\272\t\223I=\342\273M\274\033\210\017=dj*=d\335\247\273\301\232\322<\204pd\272\343\250E<\262l\022=\265}E<\376N\243\274\363\373\225;\3233\330\275\336]O\275\307\373\263\274b\236k<AM\027\275\256\224(=\361\354\025\275)\362\013\275\010\372\255=p%\265\274\320n\024;\261eP\2738v5=I\337\225<\372\035\216<\332\246\233\274O\n\331;O\375q\274\220\214}<\363\273N=\241w\005\274\'\307\353<(\374\334\274{om\274*\236\212\275%<\257;\245(\223\274\025\007n<\333\331\345<\305\251n\274K\t\256\274\277\010\231\275\005\251\370<(\334r;\235\241y;9\304\021<\336k\230\275K\353\014\274+\215\371<P\r\276<\354\231\177\275X\030\025\275\326\207\021=JF\0029V^<\274\307X\272\2749M\251\271v\366\313\274n\214\n\275Pi\265\274mo\224;\237\221K=\354EB\274\213w\227\274G;\r\274\222A\351\273\340\352\205<RB\277\274\235\235\246\273:\370\335=\357\330\n\275k\223\350:\334\210\r9\305\014^\274\226\247\222\275\354\321\260<\277w\343:D\307.\275\t\035\n=\252dq\273\r\312\262<\330\020\t<\252\300\310<3\004\303\274\021i=\275T\265@\274\342\375\216\274MT\244;\365\014><\345h\226<\3609\207\275\246\030M\275\264a\177\274\244P\202<rS\025=\006\177l\274\256\216)\274\274\031\352:\372\247\330\274o \312;/s\027=\201\302[=\007\002J\274\337\'j<\021\201\344\272\352\250;\274\223y0<\031\254f\274M\342\212\274ps\355=\224\225\"=\014\343\200<n9=;r\372\302<\376.C\275\275\201s\273hDh\274$\277\017:\325b\252<\233\216w\273{\216\354<\024\321\030=\033\244C<\303\203T<\177\336\235;\222\276\371\272\030Km=v\027\004<>\334\367\273\226N\004<\2151D\275@S-\275^\317\225\275\332\364\313;\254\037\371\274?\002\336<a\362\325\274^\220\344\274|t\r\275S}r\2747\360\214:@\236\242=\377\206f\273Ac\201<\324d\t<\017\345U\274\n\0350<\266\344\224\274\257\333\201<\307\'\265=\367\264\202\2747\240\010=\272\344\302\274\361\356\226\275O$\300<pR+;\004\314\233\274[\245\'<\351I:\275\363P?\274\037\216+\275]i\247\275\035\301\216=o\007\366;\317\373\353;f\236\377;\373\356|\27596q;\033\232\324<Q\222\257<\340\232\017=\024\007F\275\315b\224=\000\274\252;\330\315\t\274\312\360\207\274\211`\323;>\234\230\274\361\311\230\272.\226\272\274RS\027<\222x\265=\000\355\350\273\346\t\002\274\323g\260\271p\371\304\273|<\'\274\375+?\275\244\215[\274\344R\236\274\204\016\276\274\377\251\317<2\366\356\272\343l\232\2753\\\235<G\254W<^\305\213\272;\222\371\274\020\257\201\275Pt\020\273.u4;ej\322;A\377@=\000E\233\274\227\260\t\275q\327e\274/\263\006\274[\005|<\303.\000<\343\325\204<\037\261\n=[\277C\275*$`\272~\022\221</p\016=\243\006I\274\202\264\001\273`@\224;a\373\250\271\307A@;\317f\026=\315\210\271=\361\254\022\275\024\022\252<\010\"\231;2\274\"\274\226s\230\273\232|\033\275\350\022\344\274\n\376)\274Z\n\036=\031^9=m\267\236\272\331\276\221\274\254a\007=#\3511\274\256\204&\274\026,\372;_1D\275\221\225\025\272\353\303\\<\227\203\377<Z\214\202<\302@\\<yC\r<\006G\371\273xP\223=\215\345\204<\230\332\357\2737\331\366;\260\260\002=6\365-\275S<\267\275`G\321;\360\001\323\274Ja\361<\213~\255\274e\037\251\274]\r\r<YV\\\274\347om:\013\202\262=\277\007C\275\305[\322<B\303\\<\336|W\274\233\264+;C{9\275)\317\252;\006\"\022\275qj\204\274,\265\210=\366O\245\274\232,\376<\361<\313\274?\341\235::\306\217<\351\272\201\274\206Q\273\274\244y|\274\276K);7K\313\275\205\307G\275s\357\022<%h\337:\364\rC<|\244\274<\264\213\331\274+\333&<\247\tD</\037p\275\243\001\247<\366\202\362\274\024\002\207:\323\376R<\211\277\351\273x\324Y;\304_\356\273\304}t<\201\357D\274\304\304M;\031\214@=7\261L\275\2207\336\274\277\"/\2741aD<\253\320a=0\243\202\274\317\014\311<\256{\035\275\251\231\"\275\323\235_<\300\035$:\"u\035=V\355*\275:\021\307<&\023A<\001vA\275\326\262?\275\025z\241\273\246\026\024=!\325\315\274\377\252\004\275\253u\270\274od\030\275w\216`\273\t]n\273\027\242\202\274$\333\337\273{\'\340;ys\220\275\324\037\312<\230\353s<&\350\227<\366\343M=&\357\203:<{2\274\337\274&;\207\023\234\272e\345\346;\375\361\357<M\202\037=\313V\344<\326\3315<\025&\310\273\357\234\314;\326c\024<\333\022w\274\243>\233<\254\271F\275-\256\367<`]\002=\245@\273\273e\246I=|\n\035\275\206\335\255;F\361\360\274\337\275\322\273\373\354\005\275;\372-\274\370T\371<;\304\244<\201*\350\273\365C\204<\270_8\272\000K\207<L\2231\275E\321\220\274Y\316\364\274\250i\350\273\272-\226\275\300\364\007==[\242=\213\033U<\nGD\274\327\213\000=\340\256\235\274\347\020\226\274\037-\251<N\262F\274y/\3259\300\3643=\337\344\210=\270L\261;\370\322\025\273\343\t\222;B\277\275\273\301`s\274\"K\n=9]\013\275\364\352\r\274\360\320I=\353\330\356\274x=\351<\263e\327=\357\226\361;\361\013[\272\353\272h\274)\027Q\273^\032\255\274\244D\370;7\036\346\275,d\225\275\211{)<.\336F\274!\017x<L\332O\275\311r\221\274b\373\302<B=\305<\374}\233=\222.4=\231Ys\274[\350\340;\311\237T<L\361S\274\226\267\207\272 \306\242\274\217\222\\\2757\033\303\274\340\263-<j\337N\274\301?U\275\261(\014\275\325_\356\273\262\311C;Q\273\203=\2523\265\274\203z\225;\370\245\331<\014*T\275\036\271\333<5D|\273\313\017 =\232?\342=\004k\343<c\365\0109\247TZ\275\'7W\274b\300 \274\251\242?=8d\335\2748`/\275\024\246\250\274w\223f\275\340\340\301\273\327\300\035\275\377\337\240\273\007\217\2078\013\316x<d\207\223=\376\363F=\213\254\022<\246\313\271<\3031X=OGv:\251<\236\274X[\033\274$kv\275g[l\273Xu\023=\246 \250\2746\020@=xn\027<Dzy\272\235\251\257\273^=\310<ET\222\274\272\211\316:\037)\301<\302T\362<\264\250 =\034\177\243\273\001\214{=,N\272=`\371\007;\236\275\"\275\036@\330\273g\333\204\273}\014Q\274\363\365*=\361@\274<\214\304\255\274\252+\252<\203\027P\274\256\344\031<,P\272\274\243\334\265\273\r?\374\274+\310Q\273\361\022\225=,\323\\=B7\035=\246\251C<\331$\247\274\270\'#=u\302\021\275\321\014\021\275\307\347\031\2759~\270\274\021\343x\272R\320\266\273O]\303=\260\302_<\234\243\242;\242\240(\274a\222\212;Yt\253\274\221\354\343<\310\314p<=\014J\274\342Ek=w\237\344\274\t\302*\275\355Sr<\222\224,<\314\017\006\274\177\2237\274\311\370\021=t\333\255\274\250\334n<d\315\317\275\350\022(\275\227\214\"<\302\314\037\2743\t}<\246\321\300\275\030\361q\274\253\260\337<OM\332<\330\321\321<\340\352-=\002\213\212:\334\022\016<\274\266\265;\346\324%\274\331\370\311:\n\030\241\274\217 ;=1\347\320\274W\315F<\251\ny\275!\356\023\275\2373\343\274\263n\321\273\003\324\260:\212q\211=\264\252\362\274\370\030\271\273*\\\000>\374\3766\275#b\004=q\224\326\272#\367\020\275\226Z\315<;Y\336<\363/\210\273\355O1\275\3514F=\355\010\035\274\317\210b=&\204X\274\342\330\276\274\237\215\245\274\234\276J\275;\300\342\273\224<\027\275\337(\3108h\342\215;\326J\235<!\270\273<\206\346==\312!\343\274\017\372\267<\365~:=\n\223%;V\253v\274\340\001\013\274\034\277g=8$\265\273\367\236\020=p\251\205\275H\307F=\010\017\201<6\225\3779\014\006\343\273\344\201\022=g\246\307\274\353,\025\274Fm\014>3\242\017=\004\036/=\365l4\272Q\261\232\273\352\010k<\210o\223:\240\360%\2757\363\212;c\347\026=\353E2\2748\251>=\201@\034=\331\267>\274&\023\247<\330\312\341\273\241\356\354;\014\362;=hZ\257\271\342\203\316\274\200\304\204;]\264\027=\254\351@=\277x[\275/\243:<V\022\325\274\312\2479=c\037\020\275\202\177\t\275Y\203B=D\270\251\274\252M\375\272\270 \352\2747\275\265=\340d\332<\035\037\317;=\347U\274\210\231O<U\177\360\274\277\200\272<\206)\316=\363a\031\274\205\370x=\256\177\311\274\3658\247\275\232\316U\275\027y\374;^\004\223\2744Z:\274\321\366\356;\343\342\343\273\203\275\014<\344\205\254\275\317\326Q<\313B{;q\275\004\274\343\006X;\312w\214\275\257KW\274pR\314<7\037\217<\355\257|\275\336\036\032=\334\002\232<\214\277K;*\026\005\273\365\217\304\273\271\271(;^\372\266\274\364\271\367\274\340v\236\2745\246,<\024\267\003\275\314\\\242\2744\206F\274\342\365\026\274\354\207\':\n\330q=bw\247\274\006\345\017\272\022\234\005\275`\316\017\275,\202\201<\244\037q\273\221\266\241\2757kT\275]\322\255<^e\001\274\202G\370\274\233\340Z<\255\034/\267\367\347L=\377e\225\271\001\270F<\"\022\306\274\345\212\r\275\t\317\202\274\367\013s\274\217\'\341\271O\236\321;_\241g<up\216\275k?:=E\336\374\274\r\363c<\267W\"=\225\014\220\273\204\377\267\273\312\177\316\273\310\274\274\274\271[\2359\355y\002=\344\336\364\274\023\243\337<\034\343\213<\200|\262\273\333\227\017\273#\262)=\332\177\203\274\302\032\025\274\302=\250\274S\346\002=t<\006=\n\313\216\272\243\275 \275\227d\014\275rs\215\273\364\340\377\274\250IZ<\303Q\202;>\000I\271\220\"(=m\320>=\000e\255:\200\243\035<\236@\300:\370\030\323\273R\343\213=\346\243\312\272\240\322Q\274\200\266\222;K\246k\275\210\317&=\307\367\246\275\251\t\277:E\323\257\274\233@\006=\323.\254\274\332Q\336\274\311G\344\274\246\002N\274\370\220\245\273\226\245\304;2ne=\344\274\312<N:\343\271^\004\232\273\356 \367<\3019\330\274: \271<\t\370>\275\306~\204\274\336@f=\257\230\277\274\255\205e\275\235\275\320;1\317\343;\360D\331\274S|?\274R\013\007\275\"\024\177\273\030{\332\273x\n\235\275\257\035v=E\201\t<f\277\234\273D;{;N\020\024\275~\304V\273\240i\263<\206\237\177<]D\211\273\3611p\273Y\361R=\320\024\002<b\346\224\271\312[\220\272\266e\356;\243c\202\274K^\223\274\202\301\212\274X\263h<a\263\024=7Z7\274Z\021\347\271\264>\223\273\347&\247\271\023lG=\007\000)\275\tW=\274<\312\200\275\026\336\310\274\213\\\000=\262\344\347\2734\375{\275\005\017\017<\326\\s<\321\035\217\274\275\262\223\274E\361L\275h \261:.\r\006=\211\3224<\253\003$=#\266\235\274\213@\274\274#P\206\274<\204=9\363 \002<\024\274\217;\361\241H<\370\032\177\274z\211Y<\341\206)\274\236\252x<\261s\027=\001\004H\273E\210\256:\272d \273\345\223\231\274%\213\237\270Vo\374<\035\252/=\327\212w;\033\250\313<N\256\'\273\366\246\022\273\244\2036=\322\331\026\275\320\t\265\274\333\251q\275\262-\003=\024\240R=\201\377\315\273\207\234\\\274W\377\253<M&\035\274T\367\016\2758\323\231<\252\344\016\275^\025L;\314\331\333<G\002L=\312\006\031<!v5<\352\025\262;\322\"\034\274\310\373\227=S\305\236;)\242,\274$\260\233;b\227\201\274\337O\000<\2253\251\275\377\367\254:\021H\221\274\246$\017=\202I\214\274-\314\232\274F\224\327\273)\021\005\274y\371\270\273\201\\X=@89<Ah\022=\334\260\301:\263\251\304\273\266:\035=\030\251G\275\274\2425<\257.\220\275g?\207\274`&\232="
      }
    }
  }
}
node {
  name: "conv1/Const_1"
  op: "Const"
  attr {
    key: "dtype"
    value {
      type: DT_FLOAT
    }
  }
  attr {
    key: "value"
    value {
      tensor {
        dtype: DT_FLOAT
        tensor_shape {
          dim {
            size: 40
          }
        }
        tensor_content: "\237\312>=\351\377\266\276\t[\237\276\262\030\377\274(9\234\275\345?\027=\036\312\245\276\031u\327\275l^\234\276\216\203\260\276\207\245\232\276\376\311\223=D\266\362<\026p\021\275\205\205\243\276it\"\275\026\033E>\316\253\242=\024\006\241\276Ch\245\276B\270\254\276C\3155\275\2102\332<\30053=\214XI<\330\340\004\275\217\356\255\276\301\006\\\275\376\377\324\274V\365\251\276w/\232\276\257B\033=\322\030\305\273\237\006\267\275\364\n\203\2764\2269\275\332\013\024=\325)\256\276\241\256\025>\346\354\211\276"
      }
    }
  }
}
node {
  name: "conv1/Conv2D"
  op: "Conv2D"
  input: "XXX"
  input: "conv1/Const"
  attr {
    key: "T"
    value {
      type: DT_FLOAT
    }
  }
  attr {
    key: "data_format"
    value {
      s: "NHWC"
    }
  }
  attr {
    key: "dilations"
    value {
      list {
        i: 1
        i: 1
        i: 1
        i: 1
      }
    }
  }
  attr {
    key: "explicit_paddings"
    value {
      list {
      }
    }
  }
  attr {
    key: "padding"
    value {
      s: "SAME"
    }
  }
  attr {
    key: "strides"
    value {
      list {
        i: 1
        i: 2
        i: 2
        i: 1
      }
    }
  }
  attr {
    key: "use_cudnn_on_gpu"
    value {
      b: true
    }
  }
}
node {
  name: "conv1/batch_normalization/gamma/Initializer/ones"
  op: "Const"
  attr {
    key: "_class"
    value {
      list {
        s: "loc:@conv1/batch_normalization/gamma"
      }
    }
  }
  attr {
    key: "dtype"
    value {
      type: DT_FLOAT
    }
  }
  attr {
    key: "value"
    value {
      tensor {
        dtype: DT_FLOAT
        tensor_shape {
          dim {
            size: 40
          }
        }
        float_val: 1.0
      }
    }
  }
}
node {
  name: "conv1/batch_normalization/gamma"
  op: "VariableV2"
  attr {
    key: "_class"
    value {
      list {
        s: "loc:@conv1/batch_normalization/gamma"
      }
    }
  }
  attr {
    key: "container"
    value {
      s: ""
    }
  }
  attr {
    key: "dtype"
    value {
      type: DT_FLOAT
    }
  }
  attr {
    key: "shape"
    value {
      shape {
        dim {
          size: 40
        }
      }
    }
  }
  attr {
    key: "shared_name"
    value {
      s: ""
    }
  }
}
node {
  name: "conv1/batch_normalization/gamma/Assign"
  op: "Assign"
  input: "conv1/batch_normalization/gamma"
  input: "conv1/batch_normalization/gamma/Initializer/ones"
  attr {
    key: "T"
    value {
      type: DT_FLOAT
    }
  }
  attr {
    key: "_class"
    value {
      list {
        s: "loc:@conv1/batch_normalization/gamma"
      }
    }
  }
  attr {
    key: "use_locking"
    value {
      b: true
    }
  }
  attr {
    key: "validate_shape"
    value {
      b: true
    }
  }
}
node {
  name: "conv1/batch_normalization/gamma/read"
  op: "Identity"
  input: "conv1/batch_normalization/gamma"
  attr {
    key: "T"
    value {
      type: DT_FLOAT
    }
  }
  attr {
    key: "_class"
    value {
      list {
        s: "loc:@conv1/batch_normalization/gamma"
      }
    }
  }
}
node {
  name: "conv1/batch_normalization/beta/Initializer/zeros"
  op: "Const"
  attr {
    key: "_class"
    value {
      list {
        s: "loc:@conv1/batch_normalization/beta"
      }
    }
  }
  attr {
    key: "dtype"
    value {
      type: DT_FLOAT
    }
  }
  attr {
    key: "value"
    value {
      tensor {
        dtype: DT_FLOAT
        tensor_shape {
          dim {
            size: 40
          }
        }
        float_val: 0.0
      }
    }
  }
}
node {
  name: "conv1/batch_normalization/beta"
  op: "VariableV2"
  attr {
    key: "_class"
    value {
      list {
        s: "loc:@conv1/batch_normalization/beta"
      }
    }
  }
  attr {
    key: "container"
    value {
      s: ""
    }
  }
  attr {
    key: "dtype"
    value {
      type: DT_FLOAT
    }
  }
  attr {
    key: "shape"
    value {
      shape {
        dim {
          size: 40
        }
      }
    }
  }
  attr {
    key: "shared_name"
    value {
      s: ""
    }
  }
}
node {
  name: "conv1/batch_normalization/beta/Assign"
  op: "Assign"
  input: "conv1/batch_normalization/beta"
  input: "conv1/batch_normalization/beta/Initializer/zeros"
  attr {
    key: "T"
    value {
      type: DT_FLOAT
    }
  }
  attr {
    key: "_class"
    value {
      list {
        s: "loc:@conv1/batch_normalization/beta"
      }
    }
  }
  attr {
    key: "use_locking"
    value {
      b: true
    }
  }
  attr {
    key: "validate_shape"
    value {
      b: true
    }
  }
}
node {
  name: "conv1/batch_normalization/beta/read"
  op: "Identity"
  input: "conv1/batch_normalization/beta"
  attr {
    key: "T"
    value {
      type: DT_FLOAT
    }
  }
  attr {
    key: "_class"
    value {
      list {
        s: "loc:@conv1/batch_normalization/beta"
      }
    }
  }
}
node {
  name: "conv1/batch_normalization/moving_mean/Initializer/zeros"
  op: "Const"
  attr {
    key: "_class"
    value {
      list {
        s: "loc:@conv1/batch_normalization/moving_mean"
      }
    }
  }
  attr {
    key: "dtype"
    value {
      type: DT_FLOAT
    }
  }
  attr {
    key: "value"
    value {
      tensor {
        dtype: DT_FLOAT
        tensor_shape {
          dim {
            size: 40
          }
        }
        float_val: 0.0
      }
    }
  }
}
node {
  name: "conv1/batch_normalization/moving_mean"
  op: "VariableV2"
  attr {
    key: "_class"
    value {
      list {
        s: "loc:@conv1/batch_normalization/moving_mean"
      }
    }
  }
  attr {
    key: "container"
    value {
      s: ""
    }
  }
  attr {
    key: "dtype"
    value {
      type: DT_FLOAT
    }
  }
  attr {
    key: "shape"
    value {
      shape {
        dim {
          size: 40
        }
      }
    }
  }
  attr {
    key: "shared_name"
    value {
      s: ""
    }
  }
}
node {
  name: "conv1/batch_normalization/moving_mean/Assign"
  op: "Assign"
  input: "conv1/batch_normalization/moving_mean"
  input: "conv1/batch_normalization/moving_mean/Initializer/zeros"
  attr {
    key: "T"
    value {
      type: DT_FLOAT
    }
  }
  attr {
    key: "_class"
    value {
      list {
        s: "loc:@conv1/batch_normalization/moving_mean"
      }
    }
  }
  attr {
    key: "use_locking"
    value {
      b: true
    }
  }
  attr {
    key: "validate_shape"
    value {
      b: true
    }
  }
}
node {
  name: "conv1/batch_normalization/moving_mean/read"
  op: "Identity"
  input: "conv1/batch_normalization/moving_mean"
  attr {
    key: "T"
    value {
      type: DT_FLOAT
    }
  }
  attr {
    key: "_class"
    value {
      list {
        s: "loc:@conv1/batch_normalization/moving_mean"
      }
    }
  }
}
node {
  name: "conv1/batch_normalization/moving_variance/Initializer/ones"
  op: "Const"
  attr {
    key: "_class"
    value {
      list {
        s: "loc:@conv1/batch_normalization/moving_variance"
      }
    }
  }
  attr {
    key: "dtype"
    value {
      type: DT_FLOAT
    }
  }
  attr {
    key: "value"
    value {
      tensor {
        dtype: DT_FLOAT
        tensor_shape {
          dim {
            size: 40
          }
        }
        float_val: 1.0
      }
    }
  }
}
node {
  name: "conv1/batch_normalization/moving_variance"
  op: "VariableV2"
  attr {
    key: "_class"
    value {
      list {
        s: "loc:@conv1/batch_normalization/moving_variance"
      }
    }
  }
  attr {
    key: "container"
    value {
      s: ""
    }
  }
  attr {
    key: "dtype"
    value {
      type: DT_FLOAT
    }
  }
  attr {
    key: "shape"
    value {
      shape {
        dim {
          size: 40
        }
      }
    }
  }
  attr {
    key: "shared_name"
    value {
      s: ""
    }
  }
}
node {
  name: "conv1/batch_normalization/moving_variance/Assign"
  op: "Assign"
  input: "conv1/batch_normalization/moving_variance"
  input: "conv1/batch_normalization/moving_variance/Initializer/ones"
  attr {
    key: "T"
    value {
      type: DT_FLOAT
    }
  }
  attr {
    key: "_class"
    value {
      list {
        s: "loc:@conv1/batch_normalization/moving_variance"
      }
    }
  }
  attr {
    key: "use_locking"
    value {
      b: true
    }
  }
  attr {
    key: "validate_shape"
    value {
      b: true
    }
  }
}
node {
  name: "conv1/batch_normalization/moving_variance/read"
  op: "Identity"
  input: "conv1/batch_normalization/moving_variance"
  attr {
    key: "T"
    value {
      type: DT_FLOAT
    }
  }
  attr {
    key: "_class"
    value {
      list {
        s: "loc:@conv1/batch_normalization/moving_variance"
      }
    }
  }
}
node {
  name: "conv1/batch_normalization/FusedBatchNorm"
  op: "FusedBatchNorm"
  input: "conv1/Conv2D"
  input: "conv1/batch_normalization/gamma/read"
  input: "conv1/batch_normalization/beta/read"
  input: "conv1/batch_normalization/moving_mean/read"
  input: "conv1/batch_normalization/moving_variance/read"
  attr {
    key: "T"
    value {
      type: DT_FLOAT
    }
  }
  attr {
    key: "data_format"
    value {
      s: "NHWC"
    }
  }
  attr {
    key: "epsilon"
    value {
      f: 0.0010000000474974513
    }
  }
  attr {
    key: "is_training"
    value {
      b: false
    }
  }
}
node {
  name: "conv1/batch_normalization/Const"
  op: "Const"
  attr {
    key: "dtype"
    value {
      type: DT_FLOAT
    }
  }
  attr {
    key: "value"
    value {
      tensor {
        dtype: DT_FLOAT
        tensor_shape {
        }
        float_val: 0.9900000095367432
      }
    }
  }
}
node {
  name: "conv1/BiasAdd"
  op: "BiasAdd"
  input: "conv1/batch_normalization/FusedBatchNorm"
  input: "conv1/Const_1"
  attr {
    key: "T"
    value {
      type: DT_FLOAT
    }
  }
  attr {
    key: "data_format"
    value {
      s: "NHWC"
    }
  }
}
node {
  name: "conv1/Const_2"
  op: "Const"
  attr {
    key: "dtype"
    value {
      type: DT_FLOAT
    }
  }
  attr {
    key: "value"
    value {
      tensor {
        dtype: DT_FLOAT
        tensor_shape {
        }
        float_val: 0.7919544577598572
      }
    }
  }
}
node {
  name: "conv1/Const_3"
  op: "Const"
  attr {
    key: "dtype"
    value {
      type: DT_FLOAT
    }
  }
  attr {
    key: "value"
    value {
      tensor {
        dtype: DT_FLOAT
        tensor_shape {
        }
        float_val: 1.0028016567230225
      }
    }
  }
}
node {
  name: "conv1/mul"
  op: "Mul"
  input: "conv1/Const_2"
  input: "conv1/BiasAdd"
  attr {
    key: "T"
    value {
      type: DT_FLOAT
    }
  }
}
node {
  name: "conv1/mul_1"
  op: "Mul"
  input: "conv1/mul"
  input: "conv1/BiasAdd"
  attr {
    key: "T"
    value {
      type: DT_FLOAT
    }
  }
}
node {
  name: "conv1/mul_2"
  op: "Mul"
  input: "conv1/Const_3"
  input: "conv1/BiasAdd"
  attr {
    key: "T"
    value {
      type: DT_FLOAT
    }
  }
}
node {
  name: "conv1/add"
  op: "Add"
  input: "conv1/mul_1"
  input: "conv1/mul_2"
  attr {
    key: "T"
    value {
      type: DT_FLOAT
    }
  }
}
node {
  name: "pool1/pool1"
  op: "AvgPool"
  input: "conv1/add"
  attr {
    key: "T"
    value {
      type: DT_FLOAT
    }
  }
  attr {
    key: "data_format"
    value {
      s: "NHWC"
    }
  }
  attr {
    key: "ksize"
    value {
      list {
        i: 1
        i: 5
        i: 5
        i: 1
      }
    }
  }
  attr {
    key: "padding"
    value {
      s: "SAME"
    }
  }
  attr {
    key: "strides"
    value {
      list {
        i: 1
        i: 2
        i: 2
        i: 1
      }
    }
  }
}
node {
  name: "conv2/Const"
  op: "Const"
  attr {
    key: "dtype"
    value {
      type: DT_FLOAT
    }
  }
  attr {
    key: "value"
    value {
      tensor {
        dtype: DT_FLOAT
        tensor_shape {
          dim {
            size: 3
          }
          dim {
            size: 3
          }
          dim {
            size: 40
          }
          dim {
            size: 80
          }
        }
        tensor_content: "\262\n\201;\271\322\321:g+\242\274\345\372\003\275\367z\035<\212\024\276<\266o\215\272\226/\221\274\253\226]<\246\002P<\000\353l\274\"\222\006\275\017O\320<\216\266h\273b1&\275]\213\200\275\r\362\211< \341 =\025\305\356\274l\370\266\274\344\320\243<n\262\262<*\025\312=\342\245\330<\220\245\210;\032(}=\267FB=\333\000\225<\235#\216;\312\275R\275\017z\243<\227\363n\274Y\216\237\274\237K\350<}\237\272\274\312\333\373\2730\324\305<\267 \266\274Zrc\275\200\366\271<\256\272\206\273@\327\251\274\373P\316\274\217^\177\275\262\354\266<\206?\205<\317\316\365;\262\311\024\274|\324\231:\023{\016=H\013\344\274\251@\014=|/1\274\030\024\025=\202`\004=D\356\377<\236\361\267<z\223\002;:\277\205;\307?6\274\355\276M\274Qq_\275/\rz;\351\201R\275\2167\367\273\230q\366<\301\365<=\323\216\376<\350KE\274H\321i\275k\200\245\274e8(<\331\016\214;\251\207\242<+\t\377\274\2142v\274):\232\274\033\275\007\273\222\260\253<r\334\001\275O\236\207=?\213I<YT\010=po\360\274\017\277\006\274\014\177\271\275\377nK\275\010J\260\273\251\341\021;>\207\026\274%\246\352\274<\257-\275\262\013\216\274\303\271\254=-\262\203\275H\310\243\274}4z=\037|\002\274\026\023\002=O\010\351\274FA\205=5\362\221\275\303\233q<\00428\275&i\250<q@\350\275\232\247\350;\374J\315<z_\006\274\235\035\217=\247u)=\366\3255\273\347Ps=Ab\315<\261E\234<g\203G\275\000\266\n=X\2465=\034\352J=\346\366\030=r\364\023\275\243 \301<\013\370\t\275\1774\205\2736\213\031<\275\000\004\274\325--\274\234Jg\274\024\336{\275\242\231\245\275\020Pc\275\360\271\263\274\303R\231=\366\322U\275\217[\241;\220V<\275Q\355p=:!\320<\243\005\253\274J\200\244\274\201$g=\036\004k=\365\207\275:\357?\355\274\274\362n=C\266Y=\373\345\346\274\243\277\037\275\006\004C\275^\005[;\2350,\273\273*\376\274?\311\220=\007\203\202\274dJv\275\251v\213\274|\215\360\275\224O\230\274(JU\275]\272\200\274\354\032B;%e\206=A\332v\275\305\211\016\275\353(&<\336\232R\275\213\352\344<O;r=g\356v\275(\254\347<\266\266\227=\013\250Z=W\251\021=\370\027\211=\354NT=\367m\006\275&\317\230<\005\335@\275\271\364\201=wF\364<n\2669\275/\371\243\275\260~)\275\217#r\273\013\033\3128\365S\024\2743\323$\275\373AY\275A\341\266<\022Y\010\274\326\245\010\275\305o\315<@\372#=H\261\027\275\035\007\212<\377+\240=\006\345\242\275)_P9\214\022[<@\317|\275\233Ft\274\350+0=D\337\010\273|\" \274\026\3600<\264\247R<\tjg;54\r\275l\260\331;QR\025=]S\004\274\262\350\256;k\374\231<m\305p\275\236\307\341<\273,\252=\362t\247<2\365\316\273:\031\241\275\3447\206\275\327\tf\274\256\017v<y\277\222\275\0372\214\274\006\330\313\274f\226h\275\257\030\177\273\310 \320\275\357\371\251\275\333\373\211\275\270\2123\275\004\227\266=\310\272\305\275\0163\247<\212\364\026=\250\211\260\274\n\177\230=\034\234\324=2J\000=8 \251<\203\215&\275.\246\236<Y?+=\216\236R<H_\n<I\270\313;\344\210\307\273\033\225\251<\226\302\331\273\026kH<\305\270g<:S\215\273`\205\271\273\216.]\275\031}\226<k\352\325<\276\037\3479\366F\017=\366F\226<jz\255<\316a\305\274\202\300\035<\220\001\354\274\007^\2419\004@\027=\003\232\302<\237\314L\274\025\355\244<QXG<\213\356\000=\220\311$\275oy\345\273a\267;\275\371\353u\275\271\277\r=\326\000\312<\223\355\255<\345\305\006=\205\202=\274\374\221I;\371m\001\275\\\032\326\274\211\022\007<5\264L<\254\316\007<%\021\022\275rj\356\273\355<\203<(\225\330\273\023\364\020\27576\225\274\331V)\275\004\302\261;U\371@\274\356%\\\274\\?@=\212\333\037\275\242-\253\274\250\323?\274\311\355\225<\251\3513\274\226\021\341<9\377\033\272\236\273\246<\2766]\274(\217\362\273*PI\275\325\235\306<3\010\035=\375\236\304<\252:\r\274\322\005\256<mx\333<\342\026c\274%;,=\231!\251:r\227S\274\305CH<\372\223H\274\031x\365\273\245\232`9d4u<\241)]\274\220b\377\274V`\322<l\237\245<\352^X<\330\354&<\037Om\274#V_<\352\346\371\274\327W\366\273\016\213S;+t\216<y\017\347\274\026\247\222\274M9\370<\004\206\005=\214\252\004\275\357a\322\271\247m\035<\363\267\223<\202\006\261<;U\201;\3258s\271>\217\025=d{\n\271\243\207{\273\212pU\275\252\305A\275u\030\317<\2231\203\274\346b!\275\263\225\304\274g\022\002\275\213(\242\273\210\\\250<\3071\255\273\222\266\000\275\362O\323<\344\376\211;\247P\345\274$\251\277<\367\351\222\274\325\224\201;\337e\202<\227\276\342<\312\276\016=\342\002\375\274z\312q=\001\301U\274\010&\000=\310M\261\274~c\t=\235k2=\343v\213=\223\232:\274\2626\263\274A$\355:\035F\334\273\265\340\034\274\242p\026\275H^\033\274\261\341g\275j\224\255<\255F><6#\300\272)\3545=\220\322\255;r\226\225\275\257\357\254\274\341\263\367<\005\321\r\274+vH=Z{\003\275\035\202=\270I\222\210<[R\374\274\275\271X\273\255C\201\274;\014\231:\177\265\342\274e\362\300\275\217L\254<\246M\210=\301\002\007\276}\331P<\355\t\204;\002\205S\275P[\374\273\340D\203\275\371b\254\2748\347\014\274\215\2034\275\024\341\006\275\335\230\000=\253(#:_\205\306\274\262\006\000\275\241\231\237\275\004\0314=\364\376=\275\261<\304;@\'\000\275\217\rI=\337\027\223\274\331!\355\274\217\037\007=+\213\300;\006E\376<\222\226\250\274t]\'=g\270\303;\3329\271<\244{\203\2738\270\017\275\"\366\024\275r\n\274\274\261\225\324=h\361\273<\253\234O=\326\020#\275\356\377\236\274\325\304\016\275\217\230\200=q6\314<\271&\317=+0\346\274\013\025\216\274`\260[=R\3715\275\247!\252=\363\002w=\246[\t\275\255\325\275\274h\301\366\274Z\374\240\272NT\031<\243\325{:q\005\323\272\000\264\270\273\032 \267<\250\374c=#\3215\274\007 \213=\024\312\340<\202\266\246=[\277\334<\264\321-=\331;\210;\334I^\275\216uK\275\356\033\255<\346]\263<nn\013<,\2102<\345z6=\324\006\000=$\177\314<Z\353\274\274hSt=/x\343<[\246\322\275\250=\217\275a\311\337\274\026\025\272\2734\\\017=\232\030\211<\245\250\276\274\346\245U;|_\311=R\240k=\245\372\250\2753\033\342;\r\215\204=\262D\000\275\316\032e<\231\313\234\275\206k\006=\242\264/=8\014\221\275z.\026\275\214\014\374\274[\271\321\274\377\020\001<\334\000\030\275J\337f<V\030D\275L\311$<v\373&\275\323\013\332\274s\371p=\315\217\024<w\366x\274\220]\027=9\031d=\263\267U\275\245\311a\272\016\300\306<\310>!\273\005r\344\274%\357$=E\261\362\2720\303r\275\245\003f\275\253\r\210\274\252\235q\275R\325\020\275\037\2735\2749\275:=\367=\330<\260e\270\275\014\315c<\307V\226\274L\256\373\274!\030x\274\225x.=44\322\273\235\357d\275m\341\007\275\355s&</Fk<\270\035_\275\354Q`\274\371\212J=\326\235\234\275\034\007%=\032\013\322\275\217\301\213\275W\224\346\275,\272b=\220\177\342<\001X\316\275\035\332H=\202w\362<\356\227m\275)\204\031\275\210r\\=\336 \273=\002|\007=\302a\002\275\365\342+<\272/\202<\260%\343\274\325.O=\201\351\303<\333\202\243\274\256u\341<\301\330\223\274\336g\374\274\3675\333\274.\373\004\274\241\276\036=SN\204\274\241C6\275\222\332\252;\2479#=\214a\253=xR\215\274\014\357\346\274\004\264\272<\302a\n\274S\"e<\305\311r<TD\320\274.\266l=\311\006\022<z-\016<0F\316<\021+\023\274\337\221\013\275\245\232\255\274@\257\215<9\304\362<\217\322\265<\226\334\001=\364\313\201<\223\216B\274\017\243\205\274\304\255?\273B\026\034\274\331\360\036\272\250\361,\275X\001L\275m\272u<*:\245<\000\240\231\2746g\013<\325\311\257\274\221Cq=\312)\234\273\243\222m\274\303M\302<\'\354\246<\024/\037;R\033\365:!\030\036<\352\362\277<\370\221\314;\t\340\023\274\245*d\273\221\217\373\273\236\371\310\274\0104o\275\310\374\002\274s\375\243=\347!>=\356\317\330<\203\003J\275\201\2310\275\223RU\2748\230\261\273Cf\246<\273\034\337;\234\2670\274\213\343\024=\215q\221<>lc\275\336\177\213\274x\3616\275\037\031\002\275\227\314\331\274&\326\331\275>\021\313;\271>\025;\tO\036=]\000R\274\217\276\310<\345rD=\275\000\323<\343\250[\274\275U\224\275Y|\243=Xw+\275\363h\362\273\263\350\223\275\007\205\265=\241\274\312\274^\377\035<\002\261d<\326\222\257\274V\023\376;\314&\304=Q.Y=\220\010T<\212\022F\273\000\215:=\320W\306\270\355\370\345\274\270\247\251\275Y\002h=\373\321C=\343\300\026\275fd\212:\267\001\333\273\222\206\364\272\263\327\233<\0101\363\274\232\345\354<&s\210=\364\327A<\356a\345\273\2154==\326$T=(\270A=\342S\232\274\211\230E=\371\237\365\272\216\366\r=\\\022{=\023\261b\275\217O\243<J\357\022\273&\345\027\275\346\370t=\276\226B\275\241\201\205\274\014\331*\274\362\313\223;\304\024\034=\026\215\311<\210\327\213;\327\200\352<\203\207\306;\027h\215\274\233)\325\274~w\237<\016\276,;\366\375\306;@X\263\273j=A\275K\373{:g\243\255;\347\2639=C<\222\275\207\376\'=\001.\003\275T\250\010=^\016r\274\3078N\275q\016)\275\376\354\230=\335\354\335;\244\303\262<j7\361\274\345\026C=g\007\222\275k\2047<h!H=\320m\326<\006\314\210<\205c\231\275\233!\250=\202MZ\273Z\266\025\275\353\352R\274\355a\343\274H\010\002\274\006;\t\273-\2407\275Z^\245\272C\240\230;(\014\271\27491L=\324\231\221\274\035\006\310<L\270\253<{\014\222=+\204[\274N\345\\<\310\316v=\005\036\307<u.\"\275\003\211\177=QT\010\275\352\334\001\276c@\223=\371\230\233;\005Ed=@\230v=\020VF<\001\034\364\273y\013G\272]Z\024=WXd=B%\314\273\367n =\310\267\227\275@\"B=\300\340\246\274\005u\216\275\220\314R=\235\214Z\274\332\240\343\274\355F6=\307\0347\275bG\005\2747.T=\000m\312\274\224\036\227<J\020\004=\310a\216:\207\273\014=\257\262+=\363(\251;\217\204\230\274\337\005\024=\274\350{<\276\251\211\274e\033K\275\340\223\221\275e\3745\275\371H\\=\301\"t\271<\326\266\275\255\212\364<\362g\207\275@\256\200<!\332\272\274*\363\263\275\327|3\275j?\364\274\373\310\207=\001\347\232\274\325\336,\275c\207\021=\022\235\222=e\034\236\273-\301<<\2773\327=\352$1=\221\214\217\274L\'\345\275\010\204\361<f\'\013=\2775\002\275\241;\020=\006d\241=\245\203D;\200\303\202=ll\301\275\375\250W\273D\325\275=KxN\274\205c&<\243\207\222\275\243V\271\273\022\177\236\275j\202\007\275\227\026\201\275\347\347\357;\305\377\242\275\324\232\275\275\225\274\306\2750,\002\275\005\307\026>\234#-=}\374=<0\362\327\273\020\250\026\275[\274\326\274\353\255\000\273\t^\006>\261\"{<\310\312\261\274d\252\333;\\8\013\275\307\325\014\275D\310\030\275kr\335\274!G\233<\253O$\275nX\035\275vB\242\274\311\332\313\275i\311\316=4\323\241=\344\037&\275S\315\312<M\307o\274\213\037\034=cU\267\275T\213\023\275\036\361\251=\240\236\276;l\301Z\275\211\215N=~\0309=\205QT\275\271*\007\275\242\021\016=\220k\235=8\261\275\275\260\337,=N\365\311\274O\250\206=Y\261\000<\342\346,<0\3270=\317\345(=\3472\260;\t\312\220=_\324\346;\277\016A\274l\323\307\274\020\301\250;j\3561\275w\345^=x\350\022\275x?=\273d5\313<\347\007\225\274\013\354\354<k\224E=\037\334\177<\330\245\027=\317\305\\<t\307\263\274\006\336@=\022\001\257\273\214?6\273O\016k\275r\027\231\274\213\230\260\274\370\\\245\274U\340e<a\216(\275\001\354H<clR\275\304\252\022=\210P!\275\202\307\342\273\022\251\014\274\236Xp\275\324\354\342\274FW\322<4\364U\274I&8\274b\241\000=\353z3\275 \236q<Rv\031\275\023\305\261<I\340\257<\376\007\307\274\351=\230\274\260b><\374\0149\275\203O\233<\353u!<\346\270\352\274%\237\320<:6\003\275%\304\261\274\335\250\351\274b\366\320\274+\374X=\246\341\260<0?\273;CY\336\273R\033\325\274\224\247\017=\206\246\002<\370\212\251<\306F\270\273\241\214\221;\225o*\275\305,a<\262P5=~\355\024=Az\n\2753l\200\275\336U\\=\031\277\351<\230\330\343<\267\3622\2742m$\275<\372\014\274U9\214<\224D$<\234\370\202\275\370\307\325\274}\307\230\274\273`=\275\235\006:=\224p\243\275Z\237z<\207C\301\274D(\232\275\224\3630\274\333r\251\274r\206\017=\031\361\007=\333\004\007\275\223Q\t\275\313\352\217=\023o\n<Mj\215=Z88\275U\317L\275\273\234\301\273\366p)\273\245\2579\275\346\006\271\274\314\313\004<o\240\205=\344\237\316<\273\231+= :\215=9\336%=\016na\274\322x\343\273\rr\312<_\271k<\230\002R=\3422>=\350q\224\275y\020\231\273\360\245\252=)\373\377\274\341:\242<\001\030\001\275g\377\353\2747\207\177\275\312\2521=\336#V=\353\022o<\302\035,\274\230P\206\274\335\371t=q\227\367\274\351.\351<S\307\306<\033\017$=\334\003\327\274R\010\244;\265\231\202<\370K\311<\306\262v\274\270J\017<)\031\241\273\253\373A<\"\354\275\273\214\274b\274P\255\377<\300\2652=\261\366\275=w5a=E\004\006\275\315\226\372<\014\257\371\274\234=\353\273\371:\026=\305\365\005;\3752\014<\324\265\220=\351\357\232=\222f\036\275i\355\027<\341\177U\274\033i\324\274\341$\'=bS\037=\353\246\034=]\240?=Rz\334\274$<k\274\033\207y=\243-\213\275\343\340\243\273\030%\256\274\345\215\206\274Ou\374\274\rI\325\274\021\267\303\272\346\344\032==\337\341<\333\247\233<!\270k<\272{\307\274\206K\275\272}K\r\275=\212\262\274\3169\242\274I\3524<\246\276^<\337\313\'\275\372\033\361:\007_\351\274\270Z\026=\365\307\206\275b\023\245\274\342R`\274\276\344)\275\2314\342<\341\234\355<\315\242e<\221\0354\273U4\315<\355\305\003\274r\275\t\273\377\254\000\274\310M\327\272\340\325|\273o\024\007=|B\022\274$\356\\<t\243\261\274\270P#\275F>\r\272\336\212\307\274\265\020\007\275W\235\247<(|5\275\314\203\031\275\317\305*\275\303\314_\273Uw\360<\361\017\262;\024\204\302\274lt\003=\343\025\n=\363\014\370:Lz\234\273wy\377\274:\254 <\306\357%\275^s\277<`\363&=\317AQ=\2333\032\274y\"M;@\322\031=\276\250~\274\230\213\203=\231\257\221\274%\020i\275\033\004\246<e*\001\274\247?#\275\214\340\242\274x+e<\374\322\025<rL$\274^+\000\274E\031F\275w%*;A\034\365\274{\370;=\333\253\312\274\'\317\365\271\335\263\333\274e\r\321\274Dt\227<\006\253\036\275|j\036\275U8\346\274\275C,\275a\317\014=\274FV\275b?\240\275\310\374\201\275#K\037=\206\213\026=\226[\322\274\352\025\037\275\317_\322\274Vk\222\274\005\013F=\307\3228=y/\332<\276\264\222<\266\242\315<!\323\255=\333\273,<\267\177\237\274\031\010\373<X!\201;0b;=\025y\245\273\"\360\321\273K\310L=4b;\275\256g^=\330\354^=\273[N=\312Qd=\253\010\246\275\233\311\327<\240\007\246\274,\243\317\274AA\205<\304\2339;+\253\214\2756\'Z\275M!O\2754G\253=\310t\342<\320\367j;\242\355\n=<[\327=\253I\330:\261\t\273\271\222\241;<c\214\316<dn\020\275\r\240\305\273\036[\201\275T;\213\274\253\336\272\273\263v!=\233(\026<\327\325\024=\247d\260;\215\342\242\274\357<{=D\323\372\273\0109i=\367\n\216<C\264\306\274\243\317\376\273\314\000\373<%\342\003\274\032\344\375\274\347\340\000\275\306\335\313<\317\342\001\275O\031\226<\033= \274\261\274F<\360\216Y<`\206\323;)\260\335<\030o\002\274\233\300\013=|/E<8Y7<\033\277\254\274/\251I<\205m\306<\261!:<-\306/\274P#\312<\246\030\'\274\301\026\222\272A\020\025=\270\331Y\274P-8\274\320\376\273\274\261T\322;L\211\201\273(fu\274Y\255\372\274\030d\035\275\003\246$<,2\014<\2038n\274\2567\333<$}\210\274?xb:\036\332*\273\234\307\334\274^(\371\273# \036\272\223\2407<\305\236*<\007\005\251\273W\227Q\275I\240\262<\216\353\310<8\217\346\274C\343I;\033v\\\275\356\177\367<\277\232T\273F\316\371<Jm\341<\343]\255<\005\240\246\274\365\247W<\310\354]\274zd\225<%\021\323<R\3557\272\270\213\202\274\234\240E\274P\010N\275\233\263\223<\223\254\240<z\251C=#\364O\275~\222\272<\tVk=\021K\306;\'\332S<\244|\272\274\2705\363\274Z\347\350\273t~\373\270F\202[\273]r\316<r\272\032<\337^\372<G\242{=\030H\177=\322\351\214\275h\333\001=\270\341\022=\375|\363\274\265\224\206<}D(\275\004\rk<\0230\305\275\3665_\275\272\343\034<\204:\027=\232\353\026\275\303\221\007=\347S\265\273\233\035\341\274\330\260A\275Ni\206<nj\221\275\222\253<<H\\W=\361\3526\275\274\322 \274ji\205<\312h\215\273Y|\205=\226\316\205\275\346\243D<)?\354\274\270\371\257\274\236\026\226<\241E\344\274\243\256)=E\320\t\274\nWt<\033a\006<\236k\326<9.\345;G=\256:\273!\247=\222\022\201=8R\301\274\347?(=nr\243=\321\345\357\274Vb\005\275)\206\356;%\316\330\273\242\370\000=g\001K\274:\250%<%\032\203<Yjn\274Z@3<7\210W<\322\224\275\274\030\n\004=\n\377\235;\370\205T=\371H\203=\3621\177\274\370\325\200;\332\334n\275w\325%\272\213O\302<\2271N=\374\341\203;\344?^=\277Uh<\251bc<r\323T=\372\005\r:f\233\377<4\241@=\250\204\205\273B\000\033=\013A\210\274\314\'\371<\262\n\214=\331\021<=\200\"\215=\205m\001\275*\177\277<\003\034N=,\376\005\275\307R*;\264\225\345\274\206\220t;7\200b\275\275\275G\275\307\322\231;\232G\000=ky\203\273|G0=\337\255\r<\025\2208\274y\203\275\274T\266\202<\202\360s\275\2167b:\007\304\265<\274\315\371\274\"\272\355\274|\271\302<\335\361\212;[\023\\=;`\204\2757\272\274\272\222\033\223\274\224\344\r\275\271\363\215=\220ww\273\264V\236<\275\340R\274\230u\037<30\213<\322\262\272\274r\013\302:\235>\270\274;0k=\357\227V=P\342\307\274\231\362\212<\335\200s=\344\225\030\275\2666J\275`uC\272b\214\320\274\351\023\365<S:\031\275\322\004\300\273\340\202\320;Xj\341\274\360\205\345<[c\241<\334=\312\273\254\361\377<\354i\253<\267-\234<Q\364/=\237\013$\275\022\010Z<\261\030\240\275\250\302N<x\330\002=\203\306v=~%y<v7\r=\303Q\036=\023\257\317\274$\306\214=\272\345W\273\006\361?\274m$\006=V\205\273\274{\266@\274\301<\020\275\035\351\362=\310\261\310\275\353\035\365\274\207&<\274\334\242\377\274\245\345\315\273\316\215\017=\331\346\021=\341K\023=\360\326\237<\177`\212\275M\223\304<\030\254\207\273\352\322\352\273N\273\335<\3650\210=\033\007O\274\034\371\334;W^\030=\027g<<\316!\204=\316\243==\270[\216\274\006\027&\275qA\005\276\206\351m=\036@\004<1R\224\275z\325\262\275,\330\205=\270\231\364\273\210$\033\275\032vn\273\344\201E\275\352>\252=~\"\315=\222.\333\273]\247\231;\315n\230<+\353\034\275R\004\220\275\017\260w=\267f\347;\261ZV\275\210\036\222<\t\266\320;/\240\301<\240/\237\274\tv+=\373.\202=\\1/\274T\372\345\274@\240\300;o\302\026=\343\025)\275\016\036\201=\342\306\226<\305\270r=\217m\264\274)f\255;\321\373\035\274\222?\341\273bE]=\221\223\336=ym\224\275\265\246\365<q\271\347<\253\337\217=\215P\271\275\370f\237=\310\215c=\323/\306\274\377Y\354\274\3602\272\275\340F\217\274A\364\002\275\202\3748=\367_\235<f\253\244=\021\244\317\274\331\355;=\216\030\245\275\270w\"\275\247\201\"\275Y\366\201=\213\024n=\'\314\"=U\270\326=\005\202:<\247\024\301\272\026r`\274\266u\263=\004\335M\274g\232I\275\325E\352\272\236\277-=\033\330\230\274\333 d:r\211\n</\311\027\275\213\031\001\272\334t\253\273\010\037R\274\020\324\023\275\326\321\005<\'!\266\274T?E\275\033\365\234\274\331\245}\271\3716A=\030|\301<9\002\263:9<\013\2752+\223:B\254\211\275i\217\202\275\314\220\222\275\350\016\252<]\007\024\275\t\262\241\275Q\023\212\274 \034\365\274!\321W=\251\325\213<\335b\313\274$\026\320\274\007\351G=j\356\377<^\306\016\273\375\313\002\274\347|\031=x\300\237\273[\354\235<\303\342X=\020X\213\274\331uz\275\317\217\245;\004\255o=-\004\245<\346\371g<\227\315\265\274\315\326\211<n\271\001<uKp=8\001u;\034~\234=\240S\024=\232O\003<o\254$\275\nC5\275\032|z<\017\010\204<\242\277>=\222\t\357\275\240\030M\274\344\304\013:\320\237\273<`\256\231\274q\317\\\275!\311\344<K!y\275`\310\002\275qH\203<\336S\000=\010\200\330\272\016\233V<P3:=\323\335\017\274,\340\021\274,K\037<\373r%:h\332H\275.@\301=\013\2416<\262\332T\275\375p\243=\033\332\317<\n\2628=\242\010\234<\242\205\351\270\243B\226\275a.\355:\310\370\257=_\333\235=Xi_\275\351\355\216\274\322\263\242\274\021G\321\274C\304\224\274\003\306\351<?C`\275\220\2551\275\210rq\275\200K\026\2746\021\332<Y\307T<\373\304\r=\303nZ\275S\213q\275\332\373z\274\253\234\305<\177\363 <\024\030\342<\345a1=\355\327 =\251\245);-pI\275\363R\234<\245\341\243\274\004\223\255\274<Y\247\274`\3035\275\214U\235:\202\001\032\275^\241(\275\336ZG=\247\3134=\2621y\274\355$8\274\220I\251=\276i\260\273u\355\225\274\307\023H=\032\300\024=\362\234\212\275t\341\225=\3665\007\275\247\231\274\275\206\345\204\274\275\231\236<v \326\273s\317\227\274\000g\002=,\023\332\275\370\276\033\275\3533\275:\202\366K\275ZN\244=D2\025>\200\0020\275\332\306\003=F;\016=\026t\261;\255A\177\273\340\243\255<\005\275\364\274]y\370<\316\217\325\274\353\353\013\274\342@R;s\226\002<\033K\374<\372\334)\275\035\202\302<\264=B=#\237\202<7\'\371:\245\212\357<kE\225<\033I\367\273hk\206\273\304\365\301\274X\367w\274\005\372\013<cr\007=\222>\002\275\272\274\374\273k\337\031<\262\036\275<\226\254\346\274\247\371O\274^\372\344\274\224\323#\275\236\245\232=_\377\242<:\363\336\274\374\231;=#\252t<\344\237N;\227[\266\274\345\020\313\273_\2577\274\376\231\273;Y\374\261<\242\035\230\274Q\2720\274l\333F\274\274\243\343\273^1v\273\033\363\361\273\034\362\355\274\r\037\221\274\224N\\\273Y\326\376\274\217c\023=\277\177*\274\202\024\302<(tJ\274\356\356\033=\353\250}\272\220}\211=\216\205O<\370<\236<\277\376\264\274R\362\254\272\3609|\2759\220\002=\014\217\310<\365\307y=\027\360\350\274\336\342`;\363\252\202=\230P\275\274+ Y=\257\233\002\273\233\274\361\274\367\357\275\274\211\310N9\251\262S\274\243\253\302<Y&J<\252:\201=\237\307\026=?\247\216\273o\362\017=\245\373`=Cb\321\273<\030a<\222\327d<\267>?\274\021\2068\272\2579\\\274\200V\243;(\357\354\273\267\357q\274Z\302\335\274\234\253C;FN\376<>\220\314<\327\252}\274\202\205\216<(\017p<i:\273<:\352(<\325\205\013=\235\010\306;w\242\336;\206z\202<C>\262\273\251\230\305<36M=4\232x<\221,#\275c*\246<\017\260b\275K\013\245=\226\267$=\023#\362\274\343<\210\274\027_\023\275\352M5\274`N\244<\331\025\322=\3712\001=\253 T\275P\276\343<\305B\262=I+\254\274\023\235\200\275\\\336\221<\031\265\207<\001\323R={\226\226\274\277r\n=\354j\221=en\260\2751\323\211\275x\224:<k\203\031=\256I\032\274#z\262\273(\345\345\272+%\372<\251\026\023\275XA\322;\363\361k\275*\331f<K38;\365[i=\026\350\301<a\337,\275Kw\311<\205\007\320<\344\210\017\274\022 \311;\356\022p;\rL-=&\371\303\274\335\216\004\275\360!\225<1\326,<3\334D\275\032\"\020\275\356q\205\275\245}#<\306\010\232\275\263\222E;\361D\321<\221\217:<-^1=K/\322<C\220\202=\340\030\204<m\306\274<D\236\342:\300\033\227\275x\334D=\305uf=:;Y=)\376\227\275\303X\262\274_\206\n=\346\023F=\252\312\371;G\224\323<IF\210<*\027\305=\013\317\313\273\3556\227=\367\325\232\274\033K\200\272\022\230\001\273\274\347k\274GRz\275\001\267;<)\204\210=\202?\374\274\256\251\021\275\354\227c\274\210E>\274\213!\021\274\267\236\020\275\272\031\005\275\315\374p\274u\353h<W\001\347\274t>\315\274\360\367\222=7|e\274\210`\343<\036\242\317=\223\373\034\275\273\234\333\273\307\242\001;\322\302S\275\310\241\205=\235@\241<\315\257\274\274\311z\360\274\207&P\275\260\263.=\324\271E\274\235\177/<MP\t\275\250-Q<\325\233\331<vu>\275U\311,\274\224\205\003\275\355\221K\274)\004\231\275\301{\250:\305\025\365;\356j\023\275N~}<P=\352<\034\245\254\274\ruI=\313\334_=\337N\207<n\2633\274|\261\211\274<Z\232\273\035\231\202=dB\262\274\242\2021\274qJ\365\273&\215\214\275*G1;\202\366\030\275\267f\033=\333\030\313<\345L\225\273\213\021\353\274\032\211\302<\322\313G=f\023\'=\005j\270\274L\310\330\274\273\246\376;\371\\&\274\322\367\231\275\230\002\004=v\235\332\270\254\213o=\2346\025\274\234\327\340\273\314\2242\275\201T\030\275%\331\216\274\375\001W\274\276,\251<\261\027\237\274\306\241\343\274\333\221\272\273\347\334f\274\3709\315<\256\367\245<1%\363\274,\231U=\241\266\021<\376hv\273\352Z\200\273\017\021\364<Hl\321<\301e$=\354\236~=r\347\033\275\013\270#=|\010\204<b\240g\273\346\333\337<wd\250=tJ\367\274\201^V=K\342\234<.\231\250;ELR<\244\004\347\274\024\006W\274Mg/\273\262E\375<F\372\272<\0169\232\273Q\361?=\365\270\237<\321\022\341\274\265T\007\275\244\257O<:`\021\275\344\321\315<\212y\035<\267\277\205=A\025\027\275\347\200\216=\002Y\311=r\n:\275~\243\232;\2053\001<\362\t\260<\302\361(< 4\225<\006\241\023;\207i!=\327\340c=L%\035\274\021\270\202<\253\250\377\274$\003\2639\253\207A\275\350\325\235\272\363\316L=p+\344<\031\rZ\275\332\246,\274\343\261\356<\201L`=\343BS\274\271@\264\274\"\2474<\315D\023\274]\340\332;o\277\337<\356\250\213\273\321_o=\371\362\016\2754-\\\273\036\217\031\275\001\241q\275=0\207;\232\307N\274\322z\327<6\302u<\3151\022\275\204\263Q\274\367\034\035=\240\241\243<\017L\032\275+\354\332\274\260\362\022=\371AN<{\355\223<!f\245\274;\313\t=D\365e\273O\335\025=\301_q=\200\360-\275Ott=\240n\006=\375\353$\274\331\335\032=\tC\357<^\252/\273NDY=\20070\274U\345\220\274\225 H9\250r\360\273\344#\231\274b\007\357;6\232\002\274K\0374\275qs%\274\004-\253=\277\301\215<T\364\232:\322\326`\275(\211\325\274\273\201\223\274}\'+\274v\221\035;\024P|=#\035\r\275\202\323\"=u\210;=\352;J\275\373\261\242;\223M\363\274!\271\345<\n\034\336<A\337a\275\037\227\271\274_b\014\274\236\342\361\270\027s\267;\332\3341\274iF\276\274\325k\260\274Z\342i=:\016\025=\225\262\264<\344L\273<@|j=4d\366\274\331\315Z\2732\353l\275kw\345<<\377\250<U\324\235\275|\327\343\274\252z1\275<\372 \273\341{\211;\031\305\213=O8\374\274\274\211\362\275\356\231\331\272\203o*\275\313\207\340\274\214Q\205=\351^+:\241\317\224\274C\0209<\031\342\210=\310Os\275\227\315\026\275v\327N<U\027u\274\203\237\232<\260W\243<\366\204\034<\036:\246\274\335L\230\274N\336\307\274\014\272\312<\325a\t<\020\343G\273\373\255\035<\336\314\005<\307\005\332\274\327\277\272<0t=\275\306o=\274>\n\025=\217\243W<\316\364\272\274t\032#\275\372@i\275\347_\031=\370\257\331:e\273l\275\020q?\274\003@i\273\224\210\220\275B[(=\031\333\202\275D\362\242;H\0166\275\333\267\336;\277\347x=\264>\321\275.\302\310<b]\001=\023\032\"<\210\247O=\303\340\"=\256N\225;e\3675=i\002\323;X\'\236\273_\361\r=M\374\261\273$|>=\245\312 =\024\345\006\274\004\341\376<\340l\362\271\355_\340\274\332\0334\275\314\366%\274\\\235+=z4\021<\007\2218\275Mv\245\274\325\235\203;\r\030o=6\266\366\273\315\333\272\274\337\207\000=\277;v\274L/\310<\004\334_<`7\311\273\327\025;=?hN\274mj\364\271\272\3679\274\274\014\t\275\177\001\312\2731Ea\274\001\273\305<\t\2442<\353\010\342\274u\375{;\330\340\030=\216\3743<\274\010\252\274\377\330\277\273,qG<\361\317\323;\217\226N;\244\206\026\275H)\325<\014_\027<\315\372\232<\374.\264<.6\324\274VH.=QG\026<\366\010$\274\024\034\017=+\221\273\273\002\236\032\274\310\256\213;\224d\315;\224#\006\274\340\201\240<\006\t\007<~\334\202\273r}\322;\366+/\273q\346#\275f\'v\273o\300\224=\363\371\372<YMF;S\363\'\275?j\376\274\326\346E\274\270\254-\274\006\273$<\013\345R=B\350\340:\346Cx<\306\262\255<a>\024\275\014\221\006<\373\362\035\275\353,5\275\347\337\260<l&C=G\035H;\016\244\314\273\265h\212<\276\267\r\273p\353\270<\312\'\302\273\371\341\212\273\224\0043\274\200H\237<\336\306\367;-rr\275\225W\305<\246\237==\350:\240\274\250\346\210<\354\203\255<\177\266\224<+A\274\274\226\231\260;\206\206\267\2735E\263\273\355`\025=\035v\026=\224\276\207\274\211\352/<W\320\276<\265\342\033=y\203\006\275\271C\225<\004\211*\274PF\371\2746D\252=\231\326\253;\236\374\251\274\306\305==\350\376n\274\021~p\274u\204\321\274\361\177\307\273\3570\235\273\353\363\316<\371\016\315<3\312\031\2753\301\007\274j\352\220<\355\n\005<u\007\224\274$)\3139\304\3559\275[X\010<Y\253\021\274\217ec\273\263\2011=\007\016v\275ai\037<\215\372\220\274\321\315-=\342\013\207\274\256\316L=\0321\010<\344\366\330<\252\000\364\274\247\305\210\272\3742\237\275\241\307\021=\207)\350<W\tU=\377X\204\274\352\014\000;H\030\206=D\274\n\275\000\374Z=\365\272/<\363\241\344\274\245\356\023<\032\177U\274\353\r\326\274\016\023\331;v\026\222=\t/%\275\276\314\352\274\352+\234;\376C.\275\n\220\226\273\340\021\014\275\032\223\'={\177\214=\340\347S\275x\243~\275{k\r;E\306\211<5I[\275\014~,<q|\231=t*N=\361\211\314\274\303iG=\026\341\210=\206\203\237=\254(\231=\333\227c\274\357\273\020\275\222f\037\276\034\354Q=7\027S=\207\027Q\2758\006J\275W\033\377<\024 \313\274\366\233\263\275_\333\300\274%\203\211\272\363\371\203=\0363\312=\000\322\223:\254\214\025\275\322qd=t\237\020\275\343\016\024\275Q\242$=\267<,=\273\337F\275\364\002|=\362\261@\274\345 \233<8\242\351\274>\314\036=v\243%\275A\353\345\274\215\312\255\275\206\233\332\274\3367v=\240G\273:O\244\227=I\016\305<st\206=\362\271\255\273\231\277\035=\227\246\203\275?n4<\315\"1=\356s\256=\013\313\245\275\t\013|\274p\340~<*\327S=\334`\217\275\027\222\227=\266\022\203<\241H\367<\255f\253\274\"\031\315\275,\307\212\2724A\367\274\240S\2779\216\211\340\273\207=\323=M%f\275\356\301/=v8\212\2751\215a\275\235\0208\274<\247\021\275\006\321\264<\233&x;\323E_\274w\016\016=\003\245;\275\300\025d\274\343V\262<\350\306\360<ct\270<\223\214\315<\213&k=_\324\270\274\266B\010\275\217\250\034=\214\360N\274<\317\013<-\371Z\274\232\357\313<\214P\005=\007_\374\274\345{\r\275^\305\003\274h\377\247\274]+\223\275z<\237=\373XW\275t\241\263\275\220\224\211\275\371\273\005\275\033\'H=w\357\373<\250\260\004\275(\"\243\273\227N\256<\326X:\274.\222\336\2742\325\"=e}\317<m\323\312\274\020l\032=\327\022\310=\376^\361:\025M\276<d\001\213<\024&C\275\340\315\210=7\224<\274\'\341\006<K\226\375<n:\016=p\364\255:\024;L\275\021+\372<\366\002?<%\304\201=F?~\274\004x\r=\343\"U<\202\002,=P\257W\275\212\005\353\273\347<\306\273E\\\355;\323\017]\275c\215\037\274\007\346\220<\315\271\005\275\024[\037=\276\375\202\275\231W\017=\247~\'<\230t0\275\307\340/=\004\250\200=\223\001\3228B\321\003<\230\371-\274\033\353\001\275\224L\204\273\206\333\224<<?\033\275_\235\347\272/\212\371;V,T<\311SR\275;/\333<\300w9=\317\243\270;\ru\235\273\334zI\274>4\350<X\313v=H\312\251<\304\222\327<\205\322\216\272\306\373\033<{(\220=d<\t=\235\214\035\274\325\301\007=e\"\312<}\021\325<*\226@<\214\205\313;l\251\245\2744\205\223\273\212%\363;\301\232\030=\347\372@<c\020X=\260\363\010=\374%\266\274\023\030\300\274OiY;\006>[\274\316Ii<\274\343~\274I\324o\275\337\201\n=[\037\371;A\252\225\274\343K\006\271\307\206\274<\377\230R=\226\253\235<\322a\030=\364\270\305<D\340#;/\345\314;H\037e\275+\201\341<B(\037<\304\207\013<\214\365,\273/\203\335\273(\345\027\274n\327\016\275;\251u\275\003_\231\275<Zd=C\262\033=f\234\000\275\2575\\\275\376\024\t\275\215\177\304<7v2\275\367\002\255\274\233G\226\274\346.\321\274\312*\262<5\261\017=a\026k\275\022\237\222<e3\206\274\212\033\310\273\036\245\033=\310\307\242\274\250e\202\274\224D\371\274m\030\276<\303Nk\275\2662\025=_O\023\274\267:\250;l\357\300<m(\210;y#F=\214q-\274\361\036\375<K\026\273<\231(\313;\217\315\004\2754\r\320<\272\300\313<\373\375\302\273\340\236\215\274W\250\355;\363A\237:u*\363:\333\002U=\241\242\227\274\341\221\000\274b\331\346\274R\361Y<\200\333\275\274\335\023\301\273\203\300j\274\300M\020\275+\366-;\217\016}\273\234\007\223\274\302\023\004=%\254/<~\240l\274H\307\316;s\341g\274\211\t0\274Q\320d\274\035\030A\274E\223\351\273Y\367\204\273w7C\275\205\204\262<0z\376;c-\250\274\276`d<L\314\224\275\005\257\300<-\2326\274UC`;\177\333\323<$\023\314<\217b\223\274\375\234)\274Dq\253\274\214|\000=\317k\330<\3019\240;`\004\314\270G\344\361\273yI;\275\225?\301<\210\313\347<_\224-=B\246D\275\3337\276\274\356\323@=\205u\363\272\337\361\005<\263\270\233\274\026\376P\275\263\236,\274s\034u<\270\266Z;-\265\212\274\205\302\035\274\2456\005\274A\274u\274\014\3600=\002\256\033;\032\373\002\273_@\211;\260\343)\275}\213\213\273k\237\021\275\3669\233<\250i\234<\373\204\213\274\021\322\224\274\215\324\264<}R<=\251~\317<|\255\273\274]\315\003\274\321d\212\272\354\225\270\273\231\233\366\274\020jA<\335m\235\274\235\316Y=-\310\021\273\373\232\214\272v\036T\274x\335\002\275\256I\372\273^u\3678\242\033\241<\317\225^\274\206\351P\274\336J0<\2616^\274gn\256<\343\031\235</\240\246\274h\342\237<\275\273\245\273\216+$\273\345\362\236\274\351\020V<F\331L<\216\373\273<A\341\003=\021\227\030\275\370^/=\311\277\020\272\3500\233:\361o\257\272361=!\324\254\274Eh-=\335\215q<\264&\010<\204IY<@\352\362\273\342\262(\274\2631g<\000\2247<\002\226\r\273\275\270\023\273\377\354K=\322as<mj\262\273\235@\371\274e\324\205<\226\253\235\274\016\'\241<\337\333\246<\007K\022=@\203\233\274Xk*=\022\212)=\335\274M\275\277\0279\274\303\255V\274F\305\247\275\214?\373\274.\205\235<\373\326\326<\337\260U\273\001x\236\275pT\242=\255d\020\275\200xR\2740\001\230\273-\356\006\273\234\255\231\275\360vx=\335\213$\274\017\013y;BD\236\274\272\225\376=\367\360\371:\272\023\202\275gk\300;\300I\206\274\206\342~=\272\337\022>\312O*=\265\272\234\275b\310\217<\364\006\002=\031\320\366<B\032\303\274\375cC\275\346\3061=\205bN=e\360\220\275\307\226{\275zV\323\274\211\263x\274\177\227$=\354S\"\275\203o\027\274\317I\332=~9\211\274;\352\226\275\014,_<.\0100<\'\222\326\274\274\255@\274SC\212=W\032^=P\254(<\274\354\227=\016\217S\275a\370\303=\303S\205<\274\204\314;\345\266w=\033\010\331<\277\262\342\273\362\223\\\275\346\374\007= \274\244<2\2342\2744\202o\275\374\347[<\211\302\275\274]O;\274|}1\275\342\302a\275\311\310o=\"\320\323=\301\240\006\275\tV&\274$\027H\275T\205\022\275\230RV=^\371\301\273y=\206<:\022\237\274)\263\177;v\313\357\273\247f\331\275Tz\002\274?\363&\273Z\361\244\273D\373(\274\032\3015\274\340\220(<{\2240\274\036\243W=\347\026\317\274\347\001\037\27512\203<z\\E\275\307v*;\3759\022=-\344\204\275\374\"Z\274B\033\001=\336,\250\274\356,\331<\021\371\014\274\224\302\370<\233?\360\274\2126A=\240\241\352\273\260\362\260\2747R7=cQ\'<\026\005[\274Q8p\274\272\215\244<$\\+=&4\361<\005\370\017=\036\ty<\017\\\264\274\247\2510\275I\370\242<||\340;w\334\344\273v\003\273<\375~\374\273\213;\032\274\251\252\274\275\'\254\021\275\312\340b\274]\006d\2741S1<\201\331\376\274K\177\217\273\231*\236\2743\0015\274*\340\363<=\321\203\274\254\276\002<\321J\213\273<D>\2744\303\367;\255\201k<#\335\336\274/\030\266\274\020\263\261;\223\276\014=~{\006<*\322\'\275\377A\'=\253\323\235<\321\253\214\274\250\225\001=\271;\024<\245m\216\274H#G\275q\310*\274\245I\324<\340\324\365<\327e\331\274\214\255R\2754\325B\275\306\230\232<\277+u\274S\241\212\275\017aI\275k\255\320\274\245m\244\273\2456\365\274\320Jp\273\"8\252\274\233\270\"<\241\001\274\274\3651\273\274\021\014\245\274s,\'9A\024t;\t^\222=1\232I\273Z\242\340;\020\275\247;\030\267\262<\221y\301=EN\275\274~9\246<W\303\227\274f\334l\273c\277H=N\275\231<\255\217B\275\315\343==T^\242<\022\337\003=\352^\032=8\216s<\245P1<\221\256v\274=}\265\273\322\234n<D\347,<\035Z\201=\022\210\222<\315\234\027\275+\037q\274\004\215\230<\263\255\016\274B\231k\274\305\010M\274\341\341r\275\275p:<#D\261<\316\300\237\274\255\257\376;b@)\2719\353@=\226i\226\274;\205\357\273\240\030\260<\325\2656<\267\303 \274\313Z\216<*\3777=\315\227\006<\020l\241<\033E\345;*#\350\273{?\004<\346\275\312\274?Tz\2746\302\033<\002\234\202=$S\033=\001\237\377<\320\022\010\275ka\310\274qtn<\331c\233;\267\304\037;\316\027\242\273/\017\205\274C\033\204=\352\026\376<\317\375{\275\2126\272:\006\212\265\274\367\002\t>*\017?\274\242X\262\273\357bk\275}\247j\275\006\230\013\276\256E\355\274u\317\266\275T\306;=S \267\274[e\024\272g\376\271\274~\311%=\264\324F=j\2102<\354\013\334\272{\310G=\235\"\314\275\003\001\257<\336\210P\273\273qx=\177\203\271\275|\344w\274\353gA\275\037\"\233<s\031\010\275\232\302\210\274|y\221=`\237\003=1\326\253\2733@\230=Z1{\274\257ex=\317\267\244<\325\206\323:\352\337\325\274\240\037\214\274\245n\331;\262\205\224=031=\366D\204\275\267 H=ez\007\2726]\204\274.\034`\274C>\306\273\313&\016\275g\374\235\272\006\303Z\275*\207\213\274\206\340?\275a\027\031\275\203\347\255=V \n\275-w\206\274\023\002\270\274\362\251\233=\014KO\275\204\351\315\274LT\205\274\355\325%=2\341\236=\300kG\273\256\343\236\274f\006\252=FVD\274\3642\315\271c\277\247\275o\243\216\275\277\333\023\275\243T\333<U\326\023\275\334\377\034\275\214Q0<\263\306\337\274\001\337\030\274\336nu\275\242\343m;\305\235\226\275\013\033v\275\003! =\022v\333\273\032\260\320\274\035\324:\275^\020\225\275:\231\223=\343\323\342\274]\243B;\255\367\270=Iq\325<\317\372\371\274vlP<]\377\n=\346\300\333:Z\t\244<\203\237\302\274t9\262\275\223\003\227<\345\200\221<\337\306\330<\252h\t=\322!\351;\226-\265=\371\275\006=\013PL=\371\202\244=\217\032J<\205\256G<D3V=\307\251A\274,\363\206<\3664\235\273\217\236\320<\301\256-<Iu\206<\225\235P\275\343\255#=\331Y\022=x*O\275\tB\374\274\226\3007<\243\365\244\273\367\016\337<\302\207\360:\200\206\315\273\013\274>\275\365a\344</^\234\274\000\320w=<*\376\274\200\215\322;j\215\240<\0177_\273\351 \202\274\213\306s<\225\346W<\257\251\341\274{>h;\210#\211\274\317\217[=B\332d\275\2159M\273%<\243<\226\217\246\274i\300X\275\270\272)<\256\375\251<Q\332\232\274\013\233\207\274Z\177\022<\246R\216\274\020/\223\275\326\305\217<k\304m\274KZ\224\273\267(D\275\324\353\301\274\207$\372;\244o\222<\031\370\237<\204z\317\274\302\301\016\275\256\005\240<\263\021\336<\332\017\341<\205\310A\275\270\026\010<\211\276H=Y\016\207\275Oe\233\275\\\201\261\274\210\356\210\274\267\034\257\274\3357o=}\336\302\275^\305\204\273K\035\026>\232A6\275\0011\\=GC\355\274\360\366\246<\372\220\305\274|\021a=\362\335Y\274\347\331$\275f~\360\274\'\205\234<=(y\272\256\364\356<I\352\260<\3422\236=p\034\233=V\344\256=b\274\346;\265\366K<\247J\225\275\215Ya\274Eb4<\361a)=\3037}=$\336\276\27406\244\274\366\021\031\276\206z\274\2745\224\263\274(u\362\274\323\010\372<\377\214\321<\024\371j\273\3240,\275\227\272\025=\321\311\245=\2412\213=\0341b\274Y\361#\274)Y\200\275\n\351\333\273\262\307\021\275.\310\017\275\230\007\336<\210\330\253<\244\222\334<K\357%\275\336\013\220\275\220t\274\274\000\224_<\177\326\207\275|\'\"\274T-\204<\2638\234<H\262\311\274\332)\221\275\026\257\301;\001b\210=M\250b\275\353\204\r\275\344^\027<^\312|\274\347\375\265\274\300\341\004\276\273e\243\274\220e\024\275?\253\315<\361\";\275\210\253\376<\2041\254<m\035R=\302V\336\273)\'?=\\\000\267\274\215\214\353<\035\023\021\275\353l\210<\210t\205;kI@\274V\001\000\275@)\232<\216\3556=\177%o\275\236\231\244\274Do\335<e\323\261\273I\0009=N\226\275<\347\003\005\274\200\365C=`D\316;\026\242\324\274\236\t\336\270<\262\304\273!\225\017=)c\000\275h\231\232<6\347\013=\322\353\313\274Uf\334;er\001=m\017a\274ui\014\275n\266\303<\004^\201<\t(:<\211\275\321\2735o1\274>\355e\274\017J)\274\245\331=8\004\317\001<\236\032o<\226\024\000=\336O\022\274\373\367A<\305\266\327\274\343\033&<N\031\016<\227-\030=\317\022\347<M\n\354\274\035\364\322<\2341\262\273r\034\3149\335\030\330<\274\005~<\010\3560\275\303&\251<.\361\227\273;\346W;(\354\220<\222~+=nCB\275\026\3528\272\336\024\273<w)^\275\276\261\264<\024\363\330<\264W&\275{Im\2741\253.\274\277b\250<\277\020\316:\303I7=vD\013\274\340\302\330\274\252P\026<\226\227[\274\'\222\355\274M\007\277\273\240\353\215;rZ =\357w\343<\022\3323\275\306M\030\275\335\265\207\273>\361\235\274\001$\240\275\350\300\322;\206I\316;o\301\023\274\236\177x=9\244\373\2738\225\364<\3560:\274\007\246\320\274P\007\023\275\201\371]\273\212-\250\2757\'\306:\352\247\\\274\027\016\004\274l\357\273=(\221\014=\372\236\027;n\'\345=\305a\246<\201.$=F\307H\275F\225\250\273\232\t\031=d\230\216<\324\366\223=x\016\"\273:\223\224<\301~\033:\312\235M<\361\267\330\274eq\205\275\026X\233\274\021\330\026\274fc\230\274\253p/\275\306\030\352\2740\260\006<\253b2<\n\217\237\273d\230\025;\225U\340\274F\213\034=\2008S=\004H\240\272\022\032\215\275A\214\275<wzg=\362\264\323;{*\\\275\364S\202=\264B\232=H:\"=\233k\377\273\377\275Z\275\353\340\007\2753\253J\275\275\326>=\003\370g=\220\341;\273s\311\315\274@\374\n\275\347IF\275m\351\363\2741\304\323\274\356t\223<\017\312:\274\350\211J=\304\310\210\275\021s\227\275\327\"\205\274Y\332\347<V\343\344\274)\304\023=\251\256\367\274\001\3639=\357\350r=\314]\t=\364\032\213=\030\217t=\032\272\205=\312\360\014\274\311\3126\275\350z\376\274\370\211\016=\364\245l<5\340\244\275\221\031\214<\nk\002=\037\377\321< \214\221\273\321\337N;\030\033\363\273\253\261e\275\326\357\222<Gw7=n\r\030=\002\242\025=]\267\177\273\332Fg< .\240\273\310Ud=\352\022+\275\024\220+=\306\320<=n\320\301\274\315\312\206\274y\347\177=\203\310 \275%\2679=\270\336z\275c\315^=Xs\201\275H\0318\275\277\212.=\036\214\332<\016U\t=co\000=$\266\340<\266\"\177\275\347\223\025;\206A,=/j\211\2757\260n=G3d\275^nR\274g\314\373\273\021J\221=\311qO\275\221\236\274<\002\353\362\274?:D=pA\251=\024\277\224\275H(\245\273;\010l\275\304\376\216\274@Q\002>)\247@\275\231%n\274\014\347\222=1\003R\273\227o\003=\301@\312=\247\211\305<\232 \010\275(\371m\274\317\306\212<\377i =`j>;JFv<\336\301\200<\247\256\035\272\310\266\303\274\004~)\274b\332\226\274\272nR\274\033V\356<\223\273\350;.\240 \275\350\222\313<\014\240\377<\225oN\274\374\337\023<]\356\222;>7P<I\322z\274F\026:=\272\035\230<\235\376\023<6\352k\274\212}\260\274\315$\206\274\253\360\241;\300\003\225\273\347\231\004=b\256\227\274\241\002*<\234W\216\274;\234}\274\376\374X=/d\271<\270%v;\n1\006=\341\347S\274\237f\210<\031x5\274\357\240\033<\035\332k\273\035\025M<\'R\030=\'\330\322<\272\337\315;i\272\r;\376q\216\274\353 \034<q\207\001=\277\326\252:\207\275\033;\315y5\274\241H\270;B\017\230<FK\333\274\300|o<\035\325\323;\272%\370<\377\315\036=/\346\250\274\263F#<oJ\310<\261I\024\275\014\277\300<\024\014S\275\327Q,=\310rY\274\032%\031=\377\332;\274=\022\356;\372\303\006;\332\256\023\274\036\037D<\003\233\214\273N\324R\274\254\334\233\273\267\001\323\274\267U+\274\325-\235\2741\007-\274\344\253f<\243\372\364\274Ey)<\323X\031:B\310\224<Go\247<\"\201\332\273\363\010\035\274j\320\222<\254\023\360\274\305\362D<\036\216\017=\240d\270\273#J\273\274\324\255#=\263\342l<+\006\215\275\037\375\004\274\221m\n;.\370\037\271\342\350\267<v\206S<\366V\373:\022\205\266<\210\364@;|\2072\275\177\300\"\275\036\264;\273\261_\233<!\025\365\274\210\367c\274\301\337\325;#<\200\275\301\251/<AK\240;\327\023\201<\315\346\336\274\334\307\002=\240\3721;&V\310\273\2422&;~\233\306\2736\036w\274\336~\314\273X\260\024=m\330t:RR6\275\355\225+<iD\020\274\244zA;\247\234\317\273\302\207\222\273P\207\351<\023\356e=|\232\213\274\306x\016\275\365$Z<\004\3671\273\313\370\t\273\372\007\212;\245G@<\327\300{\274\225n<\273\303\021w<}s\274\274\232\004\322<\203\037\276<\336\356\037\275\325Jz\274\232\025\246<\265\267%\275\325\274>=a\027G<\234\361F\275\360\306\340\273\277\202\201\274\377\271\200\274\372-\320<\274\241\215\274\nZ\210\275+[\202\275\304\3303=\272\300\236;\354\207\227\275\317\2129=\022\360C<\354\322\350\274\327/\250<H8\253\2743\374\317\274u\271\312\273\331=\312\274[\'k<\267\374\225<\036\233\360<mZ0\274x[\262\274\221nW\275\222\2538;\3053\030\274\265[H<\023\231\017\274\311:z=\376\324\314<\332\324\255\271,)\244\27513\263<\213\332\036=\344g\255<+a\023=Jq$<\260}M=\232\351S=K\"\352;\313\240\272\275\207\355]\275\273cw<\347\266\224<:\247\306<\022o\367\274\322Q\254\273\021\207\232\274L\361s=\322q2;\331\250\t=\211\3473\275\262\303b<\335\263Q=\235q\001\275\312\210\367<\264o\025=<.\206\2749\324k\275\220\205*\275\270\271\221<\304T\361\274\343U\005\274*-\262\274\247\307\202;a\017U=U\246\326<\341\353\004=\244\266\252=UEe\275)\'\342<Z\232\n=\253j\313<\377\024\036<\351c<\273\265\243\221\274\t\r\026\274\375\233r=\207J\251=\277\305\263\273\016\300\374<B\340\206<\177/-\2749!\361:/\212\\=s\316\207:\360\204\315\274\265\277(\275\257jn\273^\351V=\002E\311\274\205\352/<TV\005\275\247\353i=E\354\005=\225\334>=\237b\313\274 pt\272\026b#=\314p\013\274\255\337\205\273Dk\215\275uI\210\273\351`0=\232#\251\275\004\366\\<\265b\215<\"\0334=Y\353\30698th\275\211\301i=\332\203\300\273\245\314\350<\340\223\035\2745\255\304<\3458\230<\230&@\274\003=\022=\364\227\010;\275\301\n=\230T\217\275\020`\210<\315\222\246=\001\033:\275\014\271\203\275\270n\237=\317\362\241<\356B\335<0Q\264\275\210<\277<<\207b\275\026db\273\356nL<\274\031\014=\326M\343<>\260\226\272\226\215\345;G\274\311\273 \266p\274\330\344\307\273 [\303\274\250\303\037\275\232\3038\275H\265\010=~{&\274\242\r\"<yj(=i\240\317\273\024x\265<\266%5\273\265/\243=\276a\322\275N\253a\273\371\251\324\275\347\034\320;]-\275<\\\323\370\274\267\361W=jr\213=\001\227\375\274\230\002\205\274\212}\375<`t\253=q\020\016=H\3438\275\r\177\031\274\213(\326;)h\022\275\217\031y=\251\315\325<\002\030\211<\215&\326;^\242\216<Ic\322\274F\010\014<\246\375\336\274/\373\242<j\247\037\275\207\271\"\274\323`\202<\244=\300\274F\335\226=nD\033\275_\314/\274K@\360\273\nr\220\273\313~@<\240\367\311<k\234/\274\366J2<hl\020\275|\007[\274\206\363$=\223\366\223<\211[7=\030\016\220\274\331\024\210</\311\343<9*a<\301\252~<g\301\316<8I\270\274QM\263<\000\213\224<i\261r\274\026V8<\310\327J\275\262\212\032<\177Wf<\206\352&<5\336Y\272\231\324\257<\365U_\273<b\352<\341/\272;\377@l\274\244R.\274\273*6\274\034\322?;^s\361\273\347\'J<\270\250\352;\355\020\351<\357\016-\2734\221\020=\332\344\344<\225\311q<R=\245\274\250\304\375<\354\376P=\200T\336<\004\213i=;y\247<VQ\005\275Z\207\213\274\342\235\'<9\332\316\274l~\\\273\232t(=\265\032\253<T\232\311<\301\311\r\275\330\374\330;\036V\345\272\206\365\331\274`\354\237\275\315U\217\274\036b\234<\336\265\236=AF#=\274\232Z=\351\313h=Z\330\252=\366O\210\274\355\023\262\273\031\363\313\275K B=\346 \240\274o3\010=\3458S\275\003Vy=\303\240:\275\200\350\227;o\367\"\273\037\016c\275\377(,=\020\365\313<\t \024=T\367\246\274\000k\250\274\0362\r\273\326\324w\275@G\324\274\350\343\'\275\246\000h<\203\210.=\373\271\004=\014\206\245<\247\373\266<\374%\227=\024?\220\2753\335H\274a\326Y\2755rj=]\267\216;\334\332\243<\254\301\233<u|*=y\272\004<\237\331\215\275z\205\215=\312g\013<T\360\"=\010\nH=\2659G\274\3042\322<\353\002\202\274=\001{\274\337\214\014\273\345Z\242\274/\203{<}\375\370<)|4\274j>\361\274\313\240\351<\374\307\313<\000\276\220=M:\r\275%\327\\\273\321\307\252\275\254\177\020<\341ea\275]\033s<\276\277:\275\027!\214\275\202\353\001\274\003\364\215\275og\204=\244+`\275l\330\352\273[K\n<\216.\267<\016B\363\274\274\2339=\371\000o\274\225Z\005\2753\372\263=\371\236F=\224/7<\354u\354\274\032u\030<\3478\001=\005L\313=B\323z<\234\023\032=\020\343\252\275Ea\016=\020}\231\273\366\243\240<\367\023\033=\324]X\274\373\253\010\274\000#\213<A\337\255\274\312\031K\274\013\010B=1\364\236\275\315\227\341\274;\021*\275\372[>\273\366\321&<\272\317\226\274\233\215\303;\366\350\277<\324\223\217<^\034\027\275\340\313\351<U\357\001=\'2\327<\201*\343\273\006\361!\275@\332\201<\262\373\203\274\264Me=\204\233\003;\320d\033\274\275K\260<\200?:=\027\350\327<(h\207\275^Wp=\370{\363\274\030\250l=hS\343\273\022\226\022\275\277\225\030=*\027\256\274\\\321\351\274\304{\001=\261\302\276\273W\271{<\277S\200=&\233+<6\3571\275\370P\373<\316\270\202=\032-\002=\373\350\t\274LKM=\355\330N\275\350\367\211\273\213\202\334\274\311aX\274\016*\005\275\205\032\225\275\000a3\2755/\300\274\363\2177<J\266\210\275i\243\350\274\014\336\375\274\336\202V;n\366\367\2742I\232\274\312\223J\275Y^9=\236b\333<\323\343\346\274\234\317\233\275i\363\256\275l\213\224<*\373\207<Sw+\275\310\034\020>O\n\"=KK\237=\333AW\273X\240G=\212\027\262\274\032\254m\275%\346\200\273\305~\363\274\035\021 <\225E\017<\304\372!\275\346\345\236=\010W\213<a\263\370;\373f\316<oo\376;\223\033x\275\352\316\005\275\016\350\217\274:d\003\2759S\203\274IKM<)FL\275\020j\303\274\014\350\205=\304;(\275\327\215-=\254\023w=c\330\321;\355\251N\273\370\023\363\274\346l\210<\341\033\204=\331yb=\262\345\r\275\200\2677=\247\345\247\274U\000=\274cx\353\274\205TC<\356\2332:\213[\033\273\016*8;\237\247J<\211\320\210:\005\026\026;\253\333\311\274\343Q|\275x\036>=\213\275\223=\222\241\341\273\357\225U\275\222\207\202\275[\351\217=+yI\275\366\265\224=N7k\274\272\360B=\302]/\275wp\020<N\004\370\274\361\225#=\205\000\336;\310\001\251<\005\t\252=\314\325\235\273@tP\275}\242\\<\025/}=F\235t\275\252Vs\273\025Q\305<\242C\r=i\'\205\274\025u\036\274r*\273\273\334\271\207<\331F)=\366\321\321\274x\237m\273q\325u\274\220\301\216;*SU;\025\357e\274\210Y\n<\n\240\000=!\016\306\274\247\0313\275\353]\003=&n\220\274uR\013=\237xK\274\013C\177;\234\340\227\275t\260G<L\000s:q\375\034\275\201T \274\272iy\275+\212&=M\272{\274\245a\325\272\265P\214<\200C\235<\324L\376\273\375\036c\274E\256\005\2759Z\211\274\205hg<\264IW<\341\003\033=X]\323<7\235\035=\007\353\327;\020\335\235<\021\306:<\350^\222\274\013\334};\246\"\250\274\303\342b=D\302\030\275\265\227)=\313\370\353\274g\321\367;?\222u<\362\245\000\275\251\343\255=\204\367C<\037\363\246<\026\232\245<\365\2774;\324^\205<10(<\2748\303;^Io\274Y\341\275\273F\021\000\275\\g\252<\327\314\207\275\340\010\234=\231\371C<\255s\377\274d2*<\020\017\204==\210\245\274{\314>\275Aj\020\275\214\222\307\274ZL\267<\346\035!\274\225;\222\275\026\2054\275Xk\202\275,@:\275\216\364\247<\026\243\035\275\342-)=\360W\360\274w|A\275\276L\217<m\304)=Q\023\n<-\214\023< \345\342\274\241\3454<\227&z=\254\034\016\275\'\242\246=\276\354\213\275\325W\245\274\317\324\024\275\363\212\311<\303\2424\274\2063\205\274\2214,;m\213\314<\345%\276<\245T\321\273\034\357~=\215g\217=\362R\351<\313\271\362<\232\027\364;U\3324<\005\1774=\355~\356;3\265\265\275\213`\004\274\034s\204=\377\227\261\274`\265\270\272\367\224\260\274i\267\323\274v.\020\275\261\301G=\326\271-=\033\212!:\345\320\201\271\177p%\273\234b\360<\236X\032\273-\275\320\274\313\250N<\340\034\337<\210\217\362\274c\230\312\274\266iL\274\205\033\327;@\027\227<\230\364\212<\014b =\337\231L=\254\307Q\272\nG==\000s4=\335\3756\274X4\020=<\024\242=\302\311\317<\347\372p=O$\207<\247\027\234<\217M\342<\376\323\362;\037P\274=0\004\217=\'\335?=\364C\035\275\363\337\260<\020\317D<\\\024\364\274\212\335\367<\024*\006=\253R/;\265\252`<\332\221\000\273\301\022\005\274\225\275\216<\354\036\004\275\000\220\304\273E\033\214\275\2102\016\272\326\204\315\273,\216)\275\232\236\374<NO\341<\252\223\360\273\321?\315;\"\376\013< {r\274z\3312<\314j\221<\031\304D<\010\216\257\274Z\227e\273:\2141\274X\337r\275u\341\r\275\252\220\212\273\000\301+=\305\003T<\255\344w\274\304\225%<\253Ek\273{\337r=\353T\222<j\214\241\274\241\370\004\275%\240.\274\031]\304<\177\205Z<R_/<\345\r\204\274]\271\002=xIy=\3235\377<\376\325u\273\205_\253\274\262\031D\275l\026\020=C\237\270\273\nX\027;\236J\245<\225b\335\274q\006\216:\030\313\201\275\025u\334<\302\317\321;\320\256\177<u\341(\273\254\021\214=\2320\335\274\3454\021<\000*\246<E\213\243\274\225\360\025=\266m\340\274\337\217X=TJ)\275|H\201=u\200 \274\257\300\214\274\367\335\305:\240[\277:p\013\351<\254b\321\274P\025\n\275\367\363&\273\221\236\023\275\211\214\312\274\300\266\323\274\274\271\203;-\027+\275\311\364\227\274\250,\337\274\212\262\023\274\345\241d<\314c\301\273\247!T=)\301K=\355.\t\274p;!<\245\031\027\275\210z\215\275b\303\211\275\362\305\203\274\214]o\275^M\275\274\031\2711=J\237U\275\365\270\204\275F\336\350<\377\037\276\274\207:T<\256\271b\274c\024\336\274\022\362\003<\336\366\202<s\213E=\232\311\241<\333\347f=xw\025=\330sn=\002M\017=9\024\r>\\\346\003\275\367.D\274\327k\\=\374X1=\320*\334;Z=\211:c\031\260=,^\352\273\250\267\033=\'w\306<y\267W\274N\023\030<q\345\306\274\026\237C=\250\0372=\213@\\\275\223l\013\275i\016k\273>1\007\274\327\360d;\277|c\274V&\017=\344\003&<\361\331\334<\004\227b\274V\027n=\346\271\227=\000\252\222\274\373\274A=_\255\005=\305/\327<\257\006\202=\207\252\363\274ra\t\275\377,S\275\353\260\275\274\265\344H=\203\274\303=\213Y\013\275\257\237l=\024\374#=Oc\351\273\325!n\272\370Bh\274_\256\210\274\355\217\343;\276(I\274p:~<j[d\275\335\361\220\274 <\254;\347\270\254<V@\230\274\247\3154;\357\020\312\273M\317\303\274Q\311,\273\024s@<1L\227;\331\344\005=\025F\212<\025\007\216:r\033\n\275\272\270\037\274T\243\3409!\010\303<\353\026\356<&\216\331<u\2653\275\261\374\247\274\274Z\325<\375\222\241\274\371\202\232\274\211t?\275\002\0343\273MR\262;P\306\230\274\302}?\274\360\312<=\346M\010<\201A\224\274Q\365\315\274|d\217<A\237~\274c\372%=]\356\271<\t\302V<-&\324<H\316\027\275\016e\302;m\345\332;\277\267\353\273\230\310\373;/9\270\274c\301\036=\235f3\274\212\222\347<\276\261\240\275yT\005=\025H\311<\346\177\034=\213b\344<\300C\021<b\301\372\273\016\351\342<r\237\301\272\257,2\274@U\264<\\\331\036\274\332F\013\275HT\336\273\222\036\246\274\347\024\367<\005S\020\275\t\317G=[\243\277\274\202\331\254<\3475\345\273\267C\2658g\327?\275\202\313d\275\202\003\003\275\2248\256\274/\001\201;\325yK\274\352\232\234<\004T\217;\246\355\371<\377V\202=O\003T\274\010&C\275\3418\022\275\310M\352\274 \036\016\275@q\310<\201\302\302\274\242Kw\273\000\205\240\274\355\006\231\274\032c-=\357\323-<\036\222\371\274*\270\265<\217\2348<\246\210\354\273\371D\016\275N\007H=|\203\261\274\372\242\275<\"\241\266<\260\233\035\274\035]P=\370\246\345\2737\272P\274=\325l=l?4\274\002\016\304;F;\216\274\260\354\207\274\236\216\001=\222\367\256<\025I(=\307\322\225:\361\372\227\275\231\014\001\274\205\351\211<\0142\250\2737\034\326\274Qs\203=\222t\201=e\326\017=B\026\"=\352\254\252;\221v\246<\244\274d<\206\325&\273&iP<ipA=\255G\n;\341\272\336\274d\300\036\273,-P<\350E\327\274\n?\372:\230y.\275]9\036=\334g\203\275\332g3:\324_|=i\224\262\274\035\247\310<\256F\004\275q\204z<\225\215\307\272\002\020\210<\257\351\\;\255S\204\273d\033\326\274\226\032\251=6m\343<\306\247\024<\215\257\351;b\335\242<\320\275\216\275\020\253\217\2701\323.\274\001\303b:\251xf=b\226\311<-\313;<\021L\006\275;\342\366\273\203W\373\274\271\336\241\274K\213\224\273\336*b\275\374C\026<@j\232\274\022+2\275\204Y\357<[\220\006=\2113\320\274\340\363\026=\"\214O<\003\312\002\274\201\203\240\274\373\000_=\024\215\215\274\366\252\212;|\307\241;\266-g\274i\332\036;\305\237>\273`\264\205<Ba+=-\202j\274\003py<\367\200\367\273r\314\232\273\212\322j=V\004\2329\211w\226<\270\207\321\274^\006\304\274;y\371<\213/_:\322\234\205<\371\255\021\275\241\317\244=\344\004I=\275\024\022=\266h\261<\276\212\247<\310\367\214\274\354\022\214<w~M<\362\373m<\2748\025=\003\322\267\274R\376\267;\214\2627;Kj\'<I\327\026<U^\227\272\251\374\270\274\237\271\211=\227\370\202\275\322\332Y<\032\362i=\0367m\274i\350;=\016\252;\274g\035,=A\370\004\275G\355\277<0C\221;\375\225H\273\324\303\001\275\272I\300<\r\341\202\273\363\226d\274\201\003\t\2753\263\246;\t\014/\275\350]\364\274\235\267\206;,\215\341=\343\277%\275\244L\246\274\030\033\246=I\274\212<\233A\223\2743\271\213\274\327\025\254;\376\2456=\002k0=]y\257\273\312hH= \237\231=\260S\016\275\022\004+=C\273,